{"version":"1.0","truncation":null,"padding":null,"added_tokens":[{"id":0,"special":true,"content":"<s>","single_word":false,"lstrip":false,"rstrip":false,"normalized":false},{"id":1,"special":true,"content":"<pad>","single_word":false,"lstrip":false,"rstrip":false,"normalized":false},{"id":2,"special":true,"content":"</s>","single_word":false,"lstrip":false,"rstrip":false,"normalized":false},{"id":3,"special":true,"content":"<unk>","single_word":false,"lstrip":false,"rstrip":false,"normalized":false},{"id":4,"special":true,"content":"<mask>","single_word":false,"lstrip":false,"rstrip":false,"normalized":false}],"normalizer":null,"pre_tokenizer":{"type":"ByteLevel","add_prefix_space":false,"trim_offsets":true},"post_processor":{"type":"ByteLevel","add_prefix_space":true,"trim_offsets":false},"decoder":{"type":"ByteLevel","add_prefix_space":true,"trim_offsets":true},"model":{"type":"BPE","dropout":null,"unk_token":null,"continuing_subword_prefix":null,"end_of_word_suffix":null,"fuse_unk":false,"vocab":{"<s>":0,"<pad>":1,"</s>":2,"<unk>":3,"<mask>":4,"!":5,"\"":6,"#":7,"$":8,"%":9,"&":10,"'":11,"(":12,")":13,"*":14,"+":15,",":16,"-":17,".":18,"/":19,"0":20,"1":21,"2":22,"3":23,"4":24,"5":25,"6":26,"7":27,"8":28,"9":29,":":30,";":31,"<":32,"=":33,">":34,"?":35,"@":36,"A":37,"B":38,"C":39,"D":40,"E":41,"F":42,"G":43,"H":44,"I":45,"J":46,"K":47,"L":48,"M":49,"N":50,"O":51,"P":52,"Q":53,"R":54,"S":55,"T":56,"U":57,"V":58,"W":59,"X":60,"Y":61,"Z":62,"[":63,"\\":64,"]":65,"^":66,"_":67,"`":68,"a":69,"b":70,"c":71,"d":72,"e":73,"f":74,"g":75,"h":76,"i":77,"j":78,"k":79,"l":80,"m":81,"n":82,"o":83,"p":84,"q":85,"r":86,"s":87,"t":88,"u":89,"v":90,"w":91,"x":92,"y":93,"z":94,"{":95,"|":96,"}":97,"~":98,"¡":99,"¢":100,"£":101,"¤":102,"¥":103,"¦":104,"§":105,"¨":106,"©":107,"ª":108,"«":109,"¬":110,"®":111,"¯":112,"°":113,"±":114,"²":115,"³":116,"´":117,"µ":118,"¶":119,"·":120,"¸":121,"¹":122,"º":123,"»":124,"¼":125,"½":126,"¾":127,"¿":128,"À":129,"Á":130,"Â":131,"Ã":132,"Ä":133,"Å":134,"Æ":135,"Ç":136,"È":137,"É":138,"Ê":139,"Ë":140,"Ì":141,"Í":142,"Î":143,"Ï":144,"Ð":145,"Ñ":146,"Ò":147,"Ó":148,"Ô":149,"Õ":150,"Ö":151,"×":152,"Ø":153,"Ù":154,"Ú":155,"Û":156,"Ü":157,"Ý":158,"Þ":159,"ß":160,"à":161,"á":162,"â":163,"ã":164,"ä":165,"å":166,"æ":167,"ç":168,"è":169,"é":170,"ê":171,"ë":172,"ì":173,"í":174,"î":175,"ï":176,"ð":177,"ñ":178,"ò":179,"ó":180,"ô":181,"õ":182,"ö":183,"÷":184,"ø":185,"ù":186,"ú":187,"û":188,"ü":189,"ý":190,"þ":191,"ÿ":192,"Ā":193,"ā":194,"Ă":195,"ă":196,"Ą":197,"ą":198,"Ć":199,"ć":200,"Ĉ":201,"ĉ":202,"Ċ":203,"ċ":204,"Č":205,"č":206,"Ď":207,"ď":208,"Đ":209,"đ":210,"Ē":211,"ē":212,"Ĕ":213,"ĕ":214,"Ė":215,"ė":216,"Ę":217,"ę":218,"Ě":219,"ě":220,"Ĝ":221,"ĝ":222,"Ğ":223,"ğ":224,"Ġ":225,"ġ":226,"Ģ":227,"ģ":228,"Ĥ":229,"ĥ":230,"Ħ":231,"ħ":232,"Ĩ":233,"ĩ":234,"Ī":235,"ī":236,"Ĭ":237,"ĭ":238,"Į":239,"į":240,"İ":241,"ı":242,"Ĳ":243,"ĳ":244,"Ĵ":245,"ĵ":246,"Ķ":247,"ķ":248,"ĸ":249,"Ĺ":250,"ĺ":251,"Ļ":252,"ļ":253,"Ľ":254,"ľ":255,"Ŀ":256,"ŀ":257,"Ł":258,"ł":259,"Ń":260,"er":261,"en":262,"Ġs":263,"et":264,"Ã¥":265,"Ġo":266,"in":267,"Ġf":268,"or":269,"Ġd":270,"an":271,"Ġm":272,"el":273,"ar":274,"Ã¸":275,"Ġh":276,"ti":277,"Ġog":278,"Ġb":279,"Ġv":280,"te":281,"Ġa":282,"Ġk":283,"Ġi":284,"Ġp":285,"es":286,"om":287,"ing":288,"li":289,"ed":290,"eg":291,"Ġfor":292,"sk":293,"Ġg":294,"on":295,"re":296,"Ġti":297,"Ġn":298,"ĠÃ¥":299,"le":300,"ra":301,"ter":302,"kk":303,"Ġtil":304,"Ġer":305,"Ġu":306,"al":307,"st":308,"Ġav":309,"ĠpÃ¥":310,"Ġdet":311,"Ġt":312,"Ġen":313,"de":314,"Ġsom":315,"il":316,"as":317,"Ġl":318,"at":319,"un":320,"pp":321,"is":322,"Ġmed":323,"ag":324,"Ã¸r":325,"ĠS":326,"ver":327,"am":328,"inn":329,"Ġj":330,"ig":331,"der":332,"Ã¦":333,"ĠD":334,"ene":335,"enn":336,"tt":337,"lig":338,"Ġr":339,"ler":340,"Ġut":341,"jon":342,"se":343,"ol":344,"Ġhar":345,"ri":346,"Ġsk":347,"and":348,"ro":349,"Ġvi":350,"ak":351,"Ġat":352,"Ġst":353,"ĠH":354,"ĠF":355,"kke":356,"Ġ2":357,"Ġet":358,"Ã¦r":359,"ge":360,"ru":361,"ĠM":362,"Ġ1":363,"Ġde":364,"id":365,"ning":366,"ett":367,"Ã¥r":368,"Ġom":369,"Ġopp":370,"Ġjeg":371,"ĠN":372,"ik":373,"ek":374,"ent":375,"ur":376,"ĠB":377,"Ġgj":378,"ere":379,"ĠA":380,"ap":381,"ĠI":382,"ne":383,"asjon":384,"Ġfra":385,"Ġinn":386,"ĠK":387,"Ġikke":388,"for":389,"us":390,"Ġkan":391,"ske":392,"ĠT":393,"Ġal":394,"ke":395,"ĠV":396,"Ġno":397,"ĠE":398,"Ġli":399,"ĠL":400,"ker":401,"ang":402,"Ġsam":403,"Ġbar":404,"Ġdu":405,"ul":406,"ann":407,"omm":408,"ens":409,"Ġhv":410,"Ġkj":411,"ĠP":412,"ok":413,"ad":414,"Ġ(":415,"ende":416,"Ġvar":417,"ser":418,"Ġ20":419,"ste":420,"si":421,"Ġin":422,"het":423,"skap":424,"ĠsÃ¥":425,"tet":426,"em":427,"ord":428,"est":429,"ĠDet":430,"Ġseg":431,"od":432,"Ġel":433,"ell":434,"ĠO":435,"Ġble":436,"..":437,"Ġden":438,"Ġsp":439,"kt":440,"be":441,"elig":442,"ikk":443,"av":444,"este":445,"sen":446,"lo":447,"ut":448,"ĠR":449,"Ġmen":450,"else":451,"Ã¸y":452,"ĠG":453,"Ġbru":454,"Ġbli":455,"ling":456,"Ġun":457,"elt":458,"mm":459,"unn":460,"sp":461,"sÃ¥":462,"ĠmÃ¥":463,"Ġskal":464,"Ġpro":465,"ve":466,"ger":467,"Ġsi":468,"ort":469,"Ġvil":470,"Ġ201":471,"Ã¦re":472,"yn":473,"Ġover":474,"dig":475,"att":476,"ks":477,"Ġman":478,"Ġkomm":479,"ĠÃ¥r":480,"jen":481,"os":482,"Ġkv":483,"ĠogsÃ¥":484,"ir":485,"Ġse":486,"ĠJ":487,"ot":488,"Ġc":489,"Ġbarn":490,"ĠU":491,"ist":492,"Ġny":493,"ss":494,"ĠfÃ¸r":495,"Ġeller":496,"isk":497,"Ġved":498,"egg":499,"lan":500,"Ã¸p":501,"hol":502,"it":503,"âĢ":504,"Ġetter":505,"Ġan":506,"Ġtr":507,"ali":508,"Ã¸n":509,"ud":510,"og":511,"00":512,"je":513,"men":514,"ten":515,"yr":516,"ating":517,"Ġnor":518,"Ġder":519,"arbe":520,"Ġkon":521,"ĠFor":522,"ine":523,"elv":524,"enne":525,"all":526,"ĠIn":527,"Ġnoen":528,"Ã¸k":529,"ĠfÃ¥":530,"Ġ-":531,"Ġfinn":532,"yg":533,"var":534,"rÃ¥":535,"Ġdette":536,"kti":537,"til":538,"ff":539,"mer":540,"Ġ3":541,"Ġkl":542,"und":543,"ale":544,"ob":545,"ĠNor":546,"Ġre":547,"vik":548,"ĠvÃ¦re":549,"Ġnett":550,"ennom":551,"legg":552,"Ġdag":553,"Ġe":554,"Ġalle":555,"hold":556,"Ġnoe":557,"Ġgod":558,"andre":559,"Ã¸l":560,"den":561,"vis":562,"Ġmer":563,"Ġhj":564,"Ġhel":565,"arbeid":566,"Ġda":567,"Ġte":568,"Ġle":569,"tte":570,"ĠSt":571,"ov":572,"ert":573,"Ġpr":574,"ĠC":575,"ings":576,"ass":577,"ft":578,"Ġmin":579,"art":580,"adde":581,"itt":582,"Ã¸re":583,"Ã¦rt":584,"Ġunder":585,"Ġlitt":586,"Ġdating":587,"Ġha":588,"Ġvenn":589,"gen":590,"Ġhadde":591,"Ġgjennom":592,"del":593,"Ġher":594,"lag":595,"ordan":596,"ĠVi":597,"Ġmeg":598,"Ġvel":599,"ati":600,"me":601,"ers":602,"Ġtid":603,"Ġblir":604,"Ġbe":605,"Ġandre":606,"du":607,"lige":608,"ab":609,"enter":610,"inger":611,"ier":612,"ber":613,"vi":614,"Ġselv":615,"Ġbil":616,"ingen":617,"lere":618,"dr":619,"dag":620,"ner":621,"um":622,"dre":623,"mÃ¥":624,"ĠÃ":625,"det":626,"ess":627,"eng":628,"Ġann":629,"ĠnÃ¥":630,"Ġek":631,"esk":632,"eb":633,"Ġmy":634,"tak":635,"Ġgra":636,"iv":637,"runn":638,"opp":639,"dan":640,"Ġste":641,"Ġuten":642,"iske":643,"per":644,"Ã¸ker":645,"Ġeg":646,"Ġdeg":647,"iden":648,"alg":649,"form":650,"ket":651,"ĠâĢ":652,"danning":653,"Ġreg":654,"Ã¸te":655,"let":656,"Ġdenne":657,"Ġhos":658,"Ġsli":659,"lu":660,"Ġmenn":661,"jer":662,"rem":663,"Ġmye":664,"ans":665,"Ġbruk":666,"gjen":667,"tikk":668,"alt":669,"Ġlag":670,"no":671,"Ġbare":672,"tter":673,"...":674,"Ġsammen":675,"Ġkom":676,"Ġenn":677,"Ġkun":678,"Ġver":679,"Ġdel":680,"ult":681,"ater":682,"Ġhver":683,"ette":684,"sj":685,"Ġ5":686,"amer":687,"ĠvÃ¦rt":688,"fÃ¸r":689,"gra":690,"Ġgang":691,"Ġ4":692,"tis":693,"nd":694,"ven":695,"ksjon":696,"he":697,"ĠnÃ¥r":698,"op":699,"ĠÂ":700,"ant":701,"ark":702,"Ġor":703,"ĠhÃ¸y":704,"Ġhvor":705,"Ġmu":706,"lighet":707,"led":708,"Ġbeg":709,"Ġutvik":710,"Ġfikk":711,"Ġfl":712,"ĠSk":713,"Ġstor":714,"ĠJeg":715,"Ġhva":716,"Ġoss":717,"ch":718,"Ġkvinn":719,"pe":720,"yl":721,"tid":722,"Ġvis":723,"Ġfort":724,"ĠNorge":725,"net":726,"rer":727,"Ġhvordan":728,"Ġsex":729,"ygg":730,"ekt":731,"ellom":732,"Ġfinne":733,"na":734,"sker":735,"ĠkjÃ¦r":736,"gang":737,"Ġser":738,"land":739,"ĠgjÃ¸r":740,"Ġsy":741,"elle":742,"ien":743,"ĠEn":744,"eld":745,"Ġigjen":746,"Ġtilb":747,"Ġto":748,"isse":749,"Ġ\"":750,"Ġmange":751,"ret":752,"mme":753,"red":754,"Ġflere":755,"rupp":756,"Ġar":757,"Ġnye":758,"ond":759,"kker":760,"riv":761,"ĠgjÃ¸re":762,"Ġkommun":763,"ĠfÃ¥r":764,"Ġhan":765,"Ġbet":766,"dere":767,"ester":768,"ĠAn":769,"formasjon":770,"Ġgratis":771,"slo":772,"ev":773,"la":774,"Ġmellom":775,"ry":776,"Ġ200":777,"ie":778,"vet":779,"Ġkvali":780,"ma":781,"Ġfrem":782,"tig":783,"Ġinter":784,"Ġta":785,"Ġsiden":786,"tisk":787,"Ġbruker":788,"Ġvikti":789,"Ġarbeid":790,"ĠHv":791,"ĠbÃ¥":792,"ost":793,"log":794,"mmer":795,"Ġra":796,"Ã¸d":797,"hand":798,"Ġhun":799,"esi":800,"sik":801,"Ġalt":802,"Ġdamer":803,"ub":804,"Â»":805,"Ġres":806,"erson":807,"Ġgrunn":808,"Ġned":809,"ĠDe":810,"asjoner":811,"Ġvennskap":812,"Ġmot":813,"Ġ|":814,"Ġhelt":815,"pr":816,"Ġ6":817,"ull":818,"kj":819,"anse":820,"ĠgÃ¥r":821,"ĠfÃ¸l":822,"elsen":823,"pet":824,").":825,"ĠsÃ¸ker":826,"Ġdisse":827,"Ġforsk":828,"Ġtre":829,"Ġslik":830,"di":831,"ĠkjÃ¸p":832,"Ġbeste":833,"sten":834,"ĠlÃ¦r":835,"osi":836,"Ġhjel":837,"Ġannet":838,"sm":839,"ener":840,"ninger":841,"ole":842,"enger":843,"ill":844,"ode":845,"Ġbes":846,"Ã¥nd":847,"Ġhele":848,"Ġviktig":849,"ĠÂ«":850,"verk":851,"Ġvir":852,"ĠDette":853,"ĠUt":854,"Ġgodt":855,"jÃ¸":856,"Ġbed":857,"ĠâĢĵ":858,"Ġvan":859,"Ã¸nn":860,"Ġdin":861,"ige":862,"im":863,"Ġkommer":864,"ĠbÃ¥de":865,"ate":866,"bru":867,"etter":868,"mp":869,"Ġdere":870,"ĠvÃ¥r":871,"takt":872,"ili":873,"ussi":874,"ken":875,"ĠPro":876,"Ġveldig":877,"ĠÃ¸n":878,"Ġ19":879,"01":880,"like":881,"iste":882,"oli":883,"Ġleg":884,"ote":885,"sjon":886,"ĠW":887,"Ġsin":888,"Ġfag":889,"olk":890,"esten":891,"ĠfÃ¸rste":892,"ĠÃ¸":893,"ind":894,"Ġinformasjon":895,"heter":896,"ĠÃĺ":897,"olog":898,"obb":899,"ic":900,"rÃ¸":901,"elser":902,"lant":903,"fik":904,"sl":905,"els":906,"ĠgÃ¥":907,"sÃ¸k":908,"Ġland":909,"ivÃ¥":910,"jÃ¸r":911,"Ġby":912,"Ġgi":913,"atte":914,"ac":915,"Ġlang":916,"Ġ10":917,"Ġutdanning":918,"Ġall":919,"undt":920,"Ġenk":921,"ĠMen":922,"Ġ7":923,"Ġfin":924,"lem":925,"gan":926,"kn":927,"mÃ¥l":928,"pro":929,"ede":930,"ĠUn":931,"istrer":932,"Ġhjem":933,"ytt":934,"Ġ9":935,"Ġrundt":936,"Ġnorge":937,"gi":938,"som":939,"ĠAl":940,"ia":941,"Ġw":942,"Ġkvinner":943,"jel":944,"Ġvok":945,"ER":946,"ast":947,"ei":948,"Ġbegyn":949,"oll":950,"ĠlÃ¸p":951,"ign":952,"hag":953,"svar":954,"erne":955,"Ġpros":956,"ring":957,"tor":958,"end":959,"ĠvÃ¥":960,"ĠkjÃ¦reste":961,"ran":962,"tilling":963,"dom":964,"kl":965,"yd":966,"ĠnÃ¦r":967,"ussiske":968,"stri":969,"over":970,"ys":971,"ytte":972,"arn":973,"ĠÃ¥p":974,"ake":975,"asjons":976,"Ġ8":977,"Ġfil":978,"Ġnorske":979,"eder":980,"Ġsamme":981,"ps":982,"Ġtur":983,"atur":984,"valg":985,"Ġskj":986,"Ġperson":987,"ĠstÃ¸r":988,"Ġkontakt":989,"ĠInn":990,"ĠÃħ":991,"min":992,"ets":993,"are":994,"Ġjo":995,"ges":996,"Ġdem":997,"vitet":998,"vt":999,"Ġblant":1000,"Ġplan":1001,"iser":1002,"unnskap":1003,"Ġkunne":1004,"ĠMed":1005,"ondon":1006,"Ġpl":1007,"Ġsiste":1008,"kket":1009,"aks":1010,"fte":1011,"Ġsyn":1012,"Ã¥d":1013,"asser":1014,"ulle":1015,"res":1016,"ron":1017,"rett":1018,"ligere":1019,"Ġbarne":1020,"Ġspesi":1021,"fag":1022,"Ġmil":1023,"ultur":1024,"utt":1025,"Ġfer":1026,"Ġdes":1027,"Ġdelt":1028,"eller":1029,"Ġkvalifik":1030,"rag":1031,"ĠLondon":1032,"stem":1033,"ef":1034,"ĠAr":1035,"Ġblitt":1036,"Ġrett":1037,"entlig":1038,"Ġutvikling":1039,"Det":1040,"ce":1041,"kon":1042,"Ġsm":1043,"les":1044,"ook":1045,"ĠOslo":1046,"fil":1047,"fÃ¸l":1048,"ha":1049,"ug":1050,"Ġlig":1051,"ĠmÃ¸":1052,"ris":1053,"ster":1054,"satt":1055,"Ġfell":1056,"orno":1057,"Ġad":1058,"Ġgir":1059,"kelig":1060,"Ġopple":1061,"oved":1062,"pt":1063,"ningen":1064,"Ġmulig":1065,"reg":1066,"Ġhol":1067,"Ġbesk":1068,"Ġakti":1069,"mid":1070,"ente":1071,"Ġles":1072,"Ġforb":1073,"aler":1074,"asse":1075,"lÃ¦r":1076,"ĠPÃ¥":1077,"201":1078,"tr":1079,"Ġma":1080,"Ġten":1081,"ĠHer":1082,"Ġbilder":1083,"ire":1084,"ĠvÃ¥re":1085,"Ġ2017":1086,"pl":1087,"Ġdat":1088,"Ġmor":1089,"dustri":1090,"mann":1091,"Ġgikk":1092,"Ġinnlegg":1093,"gram":1094,"Ġmann":1095,"Ġpar":1096,"Ġulike":1097,"olen":1098,"lutt":1099,"Ġ:":1100,"rift":1101,"fer":1102,"Ġbest":1103,"ennskap":1104,"Ġ18":1105,"ib":1106,"Ġsosi":1107,"skje":1108,"rif":1109,"handling":1110,"sb":1111,"sv":1112,"Ġper":1113,"ĠOg":1114,"Ġlever":1115,"ĠnivÃ¥":1116,"plan":1117,"Ġsett":1118,"Ġforhold":1119,"Ġjenter":1120,"petanse":1121,"Ġvann":1122,"alen":1123,"rist":1124,"sted":1125,"Ġbruke":1126,"ĠmÃ¥l":1127,"hus":1128,"Ġsv":1129,"anske":1130,"Ġstud":1131,"ĠTr":1132,"Ġsamt":1133,"ĠÃ¸nsker":1134,"jem":1135,"set":1136,"Ãĺ":1137,"isjon":1138,"Ġbarna":1139,"ion":1140,"ĠmÃ¸te":1141,"Ġend":1142,"ĠDu":1143,"Ġliv":1144,"Ġkomme":1145,"ĠprÃ¸":1146,"IN":1147,"oen":1148,"sdag":1149,"Ġmest":1150,"Ġlike":1151,"Ġfinner":1152,"Ġtar":1153,"!!":1154,"ay":1155,"ide":1156,"sy":1157,"tall":1158,"Ġnorsk":1159,"avn":1160,"ganis":1161,"Ġrel":1162,"Ġoppd":1163,"ĠTil":1164,"Ġsier":1165,"Ġvalg":1166,"Ġtillegg":1167,"Ã¸rer":1168,"Ġfun":1169,"ĠSp":1170,"ĠDen":1171,"eks":1172,"urder":1173,"Ġinnen":1174,"elige":1175,"rÃ¥k":1176,"duksjon":1177,"Ġgener":1178,"raf":1179,"akt":1180,"skapet":1181,"Ġspil":1182,"Ġstore":1183,"ĠÃ¸k":1184,"Ã¸rs":1185,"entet":1186,"Ġtilbake":1187,"far":1188,"Ġsl":1189,"Ġfyl":1190,"ĠMÃ¸te":1191,"Ġhjelp":1192,"istrerte":1193,"slag":1194,"stÃ¥":1195,"Ġ12":1196,"ĠfÃ¥tt":1197,"sti":1198,"Ġtro":1199,"Ġly":1200,"Ġskulle":1201,"Ġbedre":1202,"Ġfelles":1203,"kte":1204,"nes":1205,"Ġsel":1206,"Ġmat":1207,"Ġty":1208,"ise":1209,"Ġvidere":1210,"ĠomrÃ¥":1211,"jenester":1212,"Ġvenner":1213,"Ġbarnehag":1214,"Ġbr":1215,"Ġvirkelig":1216,"sne":1217,"Ġkre":1218,"ramme":1219,"atter":1220,"sert":1221,"Ġmulighet":1222,"Vi":1223,"gav":1224,"Ġfar":1225,"tem":1226,"Ġgam":1227,"Ġskap":1228,"Ġca":1229,"Ġalltid":1230,"NA":1231,"sak":1232,"Ġ0":1233,"Ġsine":1234,"Ġon":1235,"Ġmo":1236,"Ã¸s":1237,"Ġblog":1238,"Ġbrukes":1239,"Ġy":1240,"Ġingen":1241,"Ġsing":1242,"verket":1243,"amp":1244,"asjonen":1245,"ĠInter":1246,"arked":1247,"fri":1248,"par":1249,"syn":1250,"Ġmens":1251,"Ġporno":1252,"Ġstar":1253,"ember":1254,"sam":1255,"tiv":1256,"Ġgr":1257,"Ġgode":1258,"stra":1259,"Ġderfor":1260,"jell":1261,"Ġsen":1262,"elen":1263,"Ġred":1264,"semp":1265,"ĠOpp":1266,"Ġverd":1267,"hÃ¥nd":1268,"Ġsu":1269,"Ġfull":1270,"yttet":1271,"10":1272,"TE":1273,"ĠsÃ¸":1274,"iner":1275,"tiske":1276,"Ġbak":1277,"Ġklar":1278,"dene":1279,"Ġbyg":1280,"tere":1281,"unkt":1282,"Ġkanskje":1283,"Ġch":1284,"akk":1285,"utikk":1286,"Ġkra":1287,"Ġung":1288,"fÃ¸rt":1289,"bruk":1290,"Ġhoved":1291,"alder":1292,"Ġegen":1293,"asjonsramme":1294,"funn":1295,"nett":1296,"eter":1297,"Ġmus":1298,"Ġhand":1299,"ĠVennskap":1300,"istor":1301,"Ġkommune":1302,"app":1303,"Ġsn":1304,"ard":1305,"Ġkunnskap":1306,"revet":1307,"Ġskri":1308,"ĠKv":1309,"Ġferdig":1310,"),":1311,"Ġbl":1312,"Ġbid":1313,"Ġaller":1314,"Ġkjent":1315,"Ġfinnes":1316,"Jeg":1317,"grunn":1318,"esker":1319,"styr":1320,"ĠNord":1321,"usjon":1322,"Ġnytt":1323,"sh":1324,"lik":1325,"Ġinnhold":1326,"sider":1327,"Ġ2015":1328,"uro":1329,"Ġpoli":1330,"Ġforel":1331,"Ġnok":1332,"Ġsitt":1333,"Ġsj":1334,"omrÃ¥":1335,"ĠstÃ¸":1336,"Ġ2016":1337,"EN":1338,"For":1339,"eil":1340,"ĠsmÃ¥":1341,"Ġhelse":1342,"Ġpra":1343,"vice":1344,"Ġeksemp":1345,"sjek":1346,"sjekt":1347,"Ġord":1348,"iver":1349,"tes":1350,"skelig":1351,"agra":1352,"inner":1353,"ommer":1354,"OR":1355,"Ġstri":1356,"Ġviser":1357,"kes":1358,"Ã¸st":1359,"Ġute":1360,"ĠHan":1361,"ĠOr":1362,"utdanning":1363,"Ġtidligere":1364,"Ġhvert":1365,"vent":1366,"Ġfolk":1367,"ister":1368,"Ġhvil":1369,"Ġlegge":1370,"Ġprosent":1371,"gÃ¥":1372,"kur":1373,"Ġbok":1374,"nings":1375,"Ġgjort":1376,"ĠKar":1377,"Ġhvis":1378,"utvik":1379,"Ġkompetanse":1380,"Ġvoksne":1381,"Ġkvalifikasjonsramme":1382,"Ġslutt":1383,"ange":1384,"Ġbra":1385,"Ġ.":1386,"elder":1387,"Ġhen":1388,"Ġgl":1389,"Ġtatt":1390,"Ġled":1391,"Ġrussiske":1392,"heten":1393,"gelig":1394,"Ġfant":1395,"Ġmid":1396,"tering":1397,"stad":1398,"asjonale":1399,"Ġpres":1400,"assas":1401,"Ġmindre":1402,"Ġmar":1403,"ĠSe":1404,"Ġfram":1405,"anger":1406,"ĠfÃ¸rst":1407,"Ġfleste":1408,"Ġspesielt":1409,"Ġligger":1410,"heng":1411,"med":1412,"ening":1413,"Ġsikk":1414,"Ġsje":1415,"Ġkn":1416,"Ġgrupp":1417,"rolig":1418,"ĠHar":1419,"ĠKun":1420,"spro":1421,"Ġ2013":1422,"riften":1423,"Ġoppdater":1424,"sett":1425,"stilling":1426,"vir":1427,"Ġjobb":1428,"Ġ100":1429,"Ġliten":1430,"Ġansvar":1431,"ĠkjÃ¸pe":1432,"gende":1433,"gjÃ¸r":1434,"sel":1435,"Ġsvar":1436,"Ġsna":1437,"ink":1438,"Ġben":1439,"amili":1440,"Ġ15":1441,"Ġ16":1442,"ĠRe":1443,"vendig":1444,"Ġkvalitet":1445,"Ġrese":1446,"ĠlÃ¸pet":1447,"AN":1448,"komm":1449,"Ġsik":1450,"Ġnord":1451,"Ġtok":1452,"ĠEl":1453,"Ġsep":1454,"ultat":1455,"ĠHvordan":1456,"ĠstÃ¸rre":1457,"dal":1458,"ow":1459,"tatt":1460,"va":1461,"Ġ/":1462,"Ġfak":1463,"Ġklo":1464,"esign":1465,"Ġting":1466,"ksom":1467,"ĠhÃ¸yere":1468,"Ġvanskelig":1469,"grupp":1470,"line":1471,"tu":1472,"enge":1473,"orte":1474,"Ġvurder":1475,"rev":1476,"ame":1477,"drett":1478,"kjent":1479,"Ġaktivitet":1480,"Ġeksempel":1481,"dri":1482,"Ġsak":1483,"Ġkultur":1484,"inne":1485,"skaps":1486,"istra":1487,"Ġforskjel":1488,"org":1489,"Ġfordi":1490,"ĠNÃ¥r":1491,"Ġprob":1492,"âĢĻ":1493,"ĠNorges":1494,"kter":1495,"sÃ¸":1496,"Ġsatt":1497,"Ġdra":1498,"Ġvet":1499,"Ġlite":1500,"Ġsamarbeid":1501,"Ġoslo":1502,"ank":1503,"pper":1504,"Ġetab":1505,"Ġgjerne":1506,"ĠOm":1507,"Ġsted":1508,"iti":1509,"klu":1510,"Ġsh":1511,"Ġmine":1512,"Ġber":1513,"Ġneste":1514,"ral":1515,"under":1516,"ĠKj":1517,"ĠLes":1518,"ĠmÃ¥tte":1519,"Ġ2014":1520,"alis":1521,"Ġpris":1522,"sikt":1523,"Ġresept":1524,"menn":1525,"Ġofte":1526,"elef":1527,"ong":1528,"vert":1529,"ĠDa":1530,"ĠVed":1531,"ite":1532,"vil":1533,"Ãħ":1534,"onser":1535,"Ġendr":1536,"Ġvide":1537,"Ġett":1538,"Ġ11":1539,"Ġtekn":1540,"ĠUnder":1541,"Ġfilm":1542,"ministra":1543,"Ġopplev":1544,"elefon":1545,"olig":1546,"vel":1547,"Ġfri":1548,"teg":1549,"ĠforstÃ¥":1550,"Ġnatur":1551,"Ġlov":1552,"ĠDenne":1553,"enner":1554,"Ġinne":1555,"beid":1556,"Ġannen":1557,"Ġmennesker":1558,"au":1559,"off":1560,"ĠSÃ¥":1561,"ĠSam":1562,"Ġju":1563,"Ġskole":1564,"Ġnov":1565,"ĠEtter":1566,"utter":1567,"Ġville":1568,"Ġbeh":1569,"utvikling":1570,"Ġoff":1571,"stre":1572,"ato":1573,"Ġstyr":1574,"ĠAS":1575,"Ġeldre":1576,"Ġbrukt":1577,"Ġtrenger":1578,"Ġstein":1579,"Ġegentlig":1580,"nt":1581,"Ġfot":1582,"old":1583,"ĠBer":1584,"fordr":1585,"ĠmÃ¥te":1586,"Ġside":1587,"udd":1588,"ĠHva":1589,"Ġfint":1590,"PV":1591,"ck":1592,"mu":1593,"sn":1594,"asi":1595,"Ġrette":1596,"ĠMar":1597,"Ġsamfunn":1598,"Ġnettste":1599,"dt":1600,"mel":1601,"ses":1602,"Ġbas":1603,"Ġtra":1604,"Ġjan":1605,"Ġgjelder":1606,"Ġaldri":1607,"ĠCh":1608,"Ġganger":1609,"Ġbetyr":1610,"otek":1611,"dus":1612,"ummer":1613,"Ġforn":1614,"ĠSer":1615,"ĠNÃ¥":1616,"uss":1617,"ĠEt":1618,"Ġunge":1619,"Ġderes":1620,"Ġ30":1621,"ebook":1622,"Ġverden":1623,"acebook":1624,"Ġbegynner":1625,"stit":1626,"Ġfisk":1627,"Ġdok":1628,"Ġhal":1629,"tidig":1630,"Ġkr":1631,"Ġtilf":1632,"ata":1633,"Ġjob":1634,"Ġskjer":1635,"ĠHPV":1636,"Ġdate":1637,"Ġenkelt":1638,"Ġ=":1639,"Ġand":1640,"Ġkor":1641,"Ġpart":1642,"sket":1643,"Ġtips":1644,"ĠnÃ¸d":1645,"rat":1646,"ssy":1647,"ly":1648,"ĠY":1649,"Ġab":1650,"Ġkli":1651,"Ġganske":1652,"ont":1653,"oner":1654,"aller":1655,"Ġret":1656,"Ġkjem":1657,"Ġcm":1658,"Ġhjelpe":1659,"Ġfaktisk":1660,"ht":1661,"kom":1662,"nn":1663,"post":1664,"Ġof":1665,"Ġhatt":1666,"ekst":1667,"bef":1668,"lÃ¦ring":1669,"Ã¸rsmÃ¥l":1670,"Ġgamle":1671,"ga":1672,"ies":1673,"kra":1674,"satte":1675,"Ġform":1676,"Ġgled":1677,"stru":1678,"Ġviagra":1679,"Ġprodu":1680,"Ġtema":1681,"ibli":1682,"11":1683,"ach":1684,"fin":1685,"qu":1686,"vr":1687,"Ġdr":1688,"Ġhus":1689,"Ġlok":1690,"agt":1691,"Ġjul":1692,"Ġutrolig":1693,"ĠFra":1694,"ĠRussiske":1695,"ĠStud":1696,"lagt":1697,"ĠUtdanning":1698,"Ġfunksjon":1699,"Ġsingle":1700,"iet":1701,"sfor":1702,"Ġ&":1703,"Ã¥ende":1704,"ina":1705,"Ġfall":1706,"Ġditt":1707,"ĠhÃ¥":1708,"Ġvin":1709,"skole":1710,"kken":1711,"ĠHun":1712,"utb":1713,"istr":1714,"alitet":1715,"000":1716,"arbei":1717,"ban":1718,"yre":1719,"Ġfre":1720,"Ġfamili":1721,"Ġhistor":1722,"Ġgre":1723,"tert":1724,"ĠThe":1725,"ĠEr":1726,"side":1727,"Ġspenn":1728,"Ġkveld":1729,"tille":1730,"Ġheller":1731,"iversi":1732,"assasje":1733,"En":1734,"fisk":1735,"ĠsÃ¸r":1736,"lemmer":1737,"ĠDNA":1738,"ĠrÃ¥d":1739,"sport":1740,"Ġsider":1741,"Ġ2018":1742,"Ġtror":1743,"Ġvanlig":1744,"ĠmiljÃ¸":1745,"Ġlese":1746,"Ġbek":1747,"Ġpop":1748,"age":1749,"ĠDesign":1750,"ĠstÃ¥r":1751,"ommun":1752,"Ġeff":1753,"ĠundersÃ¸k":1754,"Ġlaget":1755,"Ġorganis":1756,"Ġfortsatt":1757,"Ġintern":1758,"pres":1759,"Ġmusikk":1760,"drag":1761,"gel":1762,"up":1763,"ĠbÃ¸r":1764,"Ġve":1765,"Ġkort":1766,"Ġutt":1767,"Ġtjen":1768,"ĠDer":1769,"Ġ17":1770,"asjonalt":1771,"Ġindustri":1772,"ĠsprÃ¥k":1773,"Ġekstra":1774,"Ġhverandre":1775,"logg":1776,"ĠlÃ¦rings":1777,"Ġchat":1778,"Ġkrav":1779,"Ġbehov":1780,"30":1781,"ball":1782,"ysi":1783,"Ġkri":1784,"Ġpo":1785,"Ġpass":1786,"Ġpub":1787,"ator":1788,"Ġrik":1789,"ĠNoen":1790,"âĢĿ":1791,"heim":1792,"ĠkjÃ¦rlighet":1793,"SK":1794,"dating":1795,"jord":1796,"jennom":1797,"leg":1798,"mark":1799,"Ġ,":1800,"Ġsent":1801,"Ġmitt":1802,"Ġmarked":1803,"Ġbur":1804,"Ġtiden":1805,"Ã¦rer":1806,"oden":1807,"ksis":1808,"tember":1809,"ET":1810,"bil":1811,"kv":1812,"Ġsc":1813,"ĠsÃ¦r":1814,"Ġerfar":1815,"Ġtak":1816,"Ġla":1817,"Ġlett":1818,"igit":1819,"ĠDating":1820,"Ġstand":1821,"ĠHelse":1822,"Ġ14":1823,"spunkt":1824,"Ġprogram":1825,"Ġdagen":1826,"ativ":1827,"rykk":1828,"ĠfÃ¸lge":1829,"Ġenkel":1830,"Ġhjemme":1831,"Ġsenere":1832,"Ġallerede":1833,"AR":1834,"af":1835,"fÃ¸re":1836,"Ġ+":1837,"Ġsette":1838,"skudd":1839,"onom":1840,"Ġstort":1841,"holder":1842,"Ġbrukere":1843,"ĠvÃ¥rt":1844,"Ġsteinalder":1845,"OL":1846,"fatter":1847,"ialis":1848,"nad":1849,"tive":1850,"Ġthe":1851,"Ġleng":1852,"ĠSÃ¸r":1853,"ĠBil":1854,"splan":1855,"Ġdager":1856,"Ġ50":1857,"ĠbesÃ¸k":1858,"ĠArbeid":1859,"ING":1860,"bar":1861,"ian":1862,"tre":1863,"tale":1864,"uelle":1865,"ww":1866,"ĠÃ¸y":1867,"Ġso":1868,"isin":1869,"ropp":1870,"urer":1871,"ĠmÃ¥n":1872,"ĠNorsk":1873,"Ġminst":1874,"Ġregistrerte":1875,"fÃ¸ring":1876,"indelse":1877,"Ġlangt":1878,"skapsler":1879,"bo":1880,"fall":1881,"kst":1882,"lÃ¸p":1883,"ern":1884,"Ġflo":1885,"anser":1886,"lekt":1887,"Ġski":1888,"ningene":1889,"ĠBar":1890,"ĠBarn":1891,"Ġkjop":1892,"Ġlage":1893,"Ġlagt":1894,"Ġutviklet":1895,"Ġarbeids":1896,"Ġsosial":1897,"ĠprÃ¸ve":1898,"Ġseptember":1899,"Ġetabler":1900,"bok":1901,"yp":1902,"ĠsÃ¸k":1903,"ĠfÃ¸":1904,"orde":1905,"Ġdine":1906,"Ġapr":1907,"Ġkar":1908,"iljÃ¸":1909,"ats":1910,"ĠMÃ¥":1911,"entar":1912,"Ġgjen":1913,"ĠspÃ¸rsmÃ¥l":1914,"Ġkonkur":1915,"ĠForsk":1916,"Ġbetyd":1917,"Ġplass":1918,"ĠstÃ¸tte":1919,"sjektet":1920,"Ġforskjellige":1921,"ĠnÃ¸dvendig":1922,"iversitet":1923,"-)":1924,"fes":1925,"fter":1926,"Ġdri":1927,"Ġbutikk":1928,"ingene":1929,"Ġero":1930,"Ġjun":1931,"Ġro":1932,"ĠHvis":1933,"Ã¦rings":1934,"Ġ13":1935,"ĠKon":1936,"Ġeget":1937,"ledning":1938,"ĠlÃ¦rer":1939,"ĠAlle":1940,"Ġholde":1941,"Ġonline":1942,"Ġbidra":1943,"Ġster":1944,"Ġfine":1945,"Ġfeb":1946,"Ġtimer":1947,"rapp":1948,"Ġureg":1949,"Ġoppgav":1950,"ĠNy":1951,"Ġklub":1952,"Ġkunst":1953,"Ġforbindelse":1954,"urope":1955,"Ġsti":1956,"arm":1957,"Ġam":1958,"Ġapp":1959,"liv":1960,"kku":1961,"ĠSom":1962,"Ġliker":1963,"ensur":1964,"ĠReg":1965,"Ġunn":1966,"yng":1967,"Ġvise":1968,"Ġsyk":1969,"Ġarbeidet":1970,"Ġresultat":1971,"stemet":1972,"Ġadministra":1973,"ĠsvÃ¦rt":1974,"kluder":1975,"Ġvideo":1976,"ĠService":1977,"Ġsol":1978,"Ġlav":1979,"Ġmedlem":1980,"ennes":1981,"âĢĵ":1982,"Ġutvikle":1983,"Ġinteres":1984,"ĠlÃ¦ring":1985,"Ġdeltak":1986,"Ġmai":1987,"kkurat":1988,"ade":1989,"bud":1990,"ftet":1991,"mt":1992,"met":1993,"rens":1994,"Ġsend":1995,"Ġfast":1996,"Ġmasse":1997,"Ġnev":1998,"aten":1999,"vere":2000,"Ġoppst":2001,"ĠAv":2002,"mmet":2003,"Ġ2011":2004,"ĠFormann":2005,"ffe":2006,"delser":2007,"eskriv":2008,"Ġpraksis":2009,"ust":2010,"ytter":2011,"enes":2012,"ori":2013,"Ġis":2014,"edag":2015,"Ġtett":2016,"Ġsommer":2017,"Ġlenge":2018,"Ġjord":2019,"entlige":2020,"urs":2021,"Ġlek":2022,"Ġgrad":2023,"Ġbyen":2024,"Ġinnenfor":2025,"Ġkvalifikasjonsrammeverk":2026,"Ġnovember":2027,"Ġpopul":2028,"200":2029,"Nor":2030,"dd":2031,"ment":2032,"orn":2033,"ĠhÃ¥nd":2034,"Ġpa":2035,"ĠforhÃ¥nd":2036,"skin":2037,"Ġnesten":2038,"Ġleder":2039,"ppe":2040,"rik":2041,"ĠopplÃ¦ring":2042,"Ġgjorde":2043,"Ġlivet":2044,"okus":2045,"Ġlei":2046,"deling":2047,"Ġegne":2048,"Ġdeler":2049,"fÃ¸rer":2050,"Ġrask":2051,"Ġdata":2052,"Ġskape":2053,"Ġstartet":2054,"Ġnettstedet":2055,"Ġdi":2056,"Ġdame":2057,"Ġdigit":2058,"Ġhu":2059,"tion":2060,"tige":2061,"Ġko":2062,"esp":2063,"Ġtilgjen":2064,"rikk":2065,"andr":2066,"akter":2067,"ĠBru":2068,"uten":2069,"ĠÃ¥ret":2070,"Ġbarnet":2071,"ĠÂ·":2072,"Ġkvinne":2073,"iendom":2074,"ĠAnne":2075,"ologi":2076,"ĠnÃ¦rm":2077,"Ġmilli":2078,"syk":2079,"Ġbarnehagen":2080,"ĠsÃ¸ke":2081,"hengig":2082,"Ġproblem":2083,"Ġspennende":2084,"EL":2085,"SA":2086,"veg":2087,"Ġmassasje":2088,"ĠhÃ¸r":2089,"Ġban":2090,"Ġener":2091,"ĠFacebook":2092,"ĠIkke":2093,"ĠTjenester":2094,"Ġstedet":2095,"Ġregistr":2096,"Ġsosiale":2097,"rafikk":2098,"Ġbloggen":2099,"Ġsikker":2100,"Ġuregistrerte":2101,"ct":2102,"kal":2103,"kning":2104,"mati":2105,"ou":2106,"vid":2107,"Ġseks":2108,"Ġmet":2109,"Ġbygg":2110,"Ġakkurat":2111,"Ġkap":2112,"lev":2113,"ĠlÃ¦re":2114,"mmen":2115,"unnet":2116,"Ġeks":2117,"jern":2118,"Ġramme":2119,"elsene":2120,"Ġsynes":2121,"Ġdesign":2122,"Ġenda":2123,"ĠlÃ¦ringsutb":2124,"AL":2125,"com":2126,"iÃ¸r":2127,"vit":2128,"yen":2129,"erte":2130,"Ġsa":2131,"Ġfem":2132,"Ġfokus":2133,"eliv":2134,"Ġvei":2135,"skriften":2136,"Ġutgang":2137,"ĠFag":2138,"Ġ22":2139,"urt":2140,"ktÃ¸y":2141,"Ġantall":2142,"Ġanbef":2143,"Ġrekke":2144,"ation":2145,"ĠselvfÃ¸l":2146,"ĠInnhold":2147,"middel":2148,"Ġbasert":2149,"Dette":2150,"IL":2151,"ãģ":2152,"Ġkropp":2153,"Ġpenger":2154,"Ġtilh":2155,"Ġuke":2156,"assen":2157,"Ġutvalg":2158,"Ġutfordr":2159,"ĠHel":2160,"ĠFri":2161,"Ġmener":2162,"ĠJo":2163,"menter":2164,"Ġkont":2165,"vend":2166,"ateg":2167,"rÃ¸m":2168,"ĠomrÃ¥det":2169,"fra":2170,"io":2171,"lÃ¥":2172,"Ġem":2173,"Ġfeil":2174,"Ġgitt":2175,"kkes":2176,"iller":2177,"istikk":2178,"vern":2179,"Ġstr":2180,"Ġstra":2181,"usen":2182,"Ġinkluder":2183,"odell":2184,"âĢ¦":2185,"Ġansatte":2186,"Ġvelge":2187,"Ġekte":2188,"landet":2189,"midler":2190,"Ġverdens":2191,"Ġbygge":2192,"oler":2193,"Ġes":2194,"Ġsann":2195,"Ġstil":2196,"Ġdire":2197,"Ã¸g":2198,"Ġnasjonale":2199,"tern":2200,"alj":2201,"Ġlu":2202,"ĠSide":2203,"verre":2204,"Ġskrevet":2205,"asjonal":2206,"Ġ2012":2207,"Ġei":2208,"Ġsyke":2209,"ĠaltsÃ¥":2210,"Ġinformasjonskapsler":2211,"Ġkontaktann":2212,"ĠTrond":2213,"arbeider":2214,"20":2215,"St":2216,"bb":2217,"bygg":2218,"uler":2219,"Ã©":2220,"Ġfred":2221,"ander":2222,"ansen":2223,"ĠlÃ¸s":2224,"Ġalder":2225,"linger":2226,"Ġdersom":2227,"sjett":2228,"Ġfly":2229,"Ġ2007":2230,"Ġgrunnlag":2231,"ĠstÃ¸rste":2232,"ĠMÃ¸tested":2233,"Ġskrive":2234,"ĠforstÃ¥else":2235,"ĠfornÃ¸y":2236,"Ġhalv":2237,"ibliotek":2238,"ES":2239,"folk":2240,"ktet":2241,"tok":2242,"erer":2243,"ore":2244,"Ġhenne":2245,"Ġbud":2246,"Ġford":2247,"Ġforslag":2248,"Ġgen":2249,"Ġtopp":2250,"Ġlaks":2251,"ĠSy":2252,"igur":2253,"Ġskolen":2254,"ros":2255,"ĠFinn":2256,"Ġ25":2257,"ĠMat":2258,"Ġsamtidig":2259,"ĠkjÃ¸r":2260,"sering":2261,"Ġspill":2262,"Ġcialis":2263,"Ġlegger":2264,"ĠKunst":2265,"Hv":2266,"ever":2267,"ging":2268,"ka":2269,"pa":2270,"vÃ¦r":2271,"Ġokt":2272,"Ġfysi":2273,"orier":2274,"ĠdÃ¥r":2275,"ĠdrÃ¸":2276,"Ã¸tet":2277,"Ġkost":2278,"Ġkron":2279,"Ġforum":2280,"Ġuker":2281,"Ġ23":2282,"Ġdei":2283,"Ġopph":2284,"ĠTid":2285,"uts":2286,"ĠÃ¥rene":2287,"holde":2288,"Ġrepres":2289,"Ġdatingsider":2290,"ĠgjennomfÃ¸rt":2291,"sikring":2292,"ĠAlt":2293,"Ġenkelte":2294,"ED":2295,"afil":2296,"ex":2297,"uer":2298,"Ã¥p":2299,"Ġfire":2300,"orter":2301,"Ġdisk":2302,"Ġmeld":2303,"eltet":2304,"tif":2305,"egÃ¥ende":2306,"Ġtill":2307,"verige":2308,"Ġvia":2309,"Ġ24":2310,"ĠMan":2311,"ĠMange":2312,"ĠTh":2313,"utvalg":2314,"Ġcelle":2315,"ssensur":2316,"Ġtren":2317,"Ġev":2318,"Ġtekst":2319,"ĠEng":2320,"rives":2321,"ĠgÃ¥tt":2322,"troll":2323,"ĠÃ¸konom":2324,"Du":2325,"disjon":2326,"van":2327,"Ġang":2328,"ino":2329,"int":2330,"Ġhans":2331,"Ġbor":2332,"likk":2333,"stand":2334,"Ġstat":2335,"ĠFOR":2336,"ĠKan":2337,"ĠLand":2338,"spill":2339,"arbeidet":2340,"berg":2341,"ateri":2342,"Ġsyns":2343,"Ġperi":2344,"Ġlyst":2345,"Ġjobber":2346,"ĠhÃ¥per":2347,"OK":2348,"ca":2349,"fjord":2350,"get":2351,"ty":2352,"way":2353,"Ġyr":2354,"ars":2355,"Ġbo":2356,"Ġbort":2357,"Ġvak":2358,"lit":2359,"aste":2360,"Ã¸rdag":2361,"Ġstasjon":2362,"Ġoppn":2363,"Ġoppr":2364,"ekter":2365,"ĠKultur":2366,"Ġelsker":2367,"Ġsitu":2368,"Ġanal":2369,"Ġnorm":2370,"ative":2371,"grammet":2372,"Ġbegge":2373,"Ġforts":2374,"Ġbegynte":2375,"Ġ:)":2376,"tallet":2377,"Ġgenerell":2378,"ĠInternett":2379,"Ġskriver":2380,"Ġglad":2381,"Ġsikre":2382,"ĠKjÃ¸p":2383,"IK":2384,"OM":2385,"ader":2386,"bund":2387,"gÃ¥r":2388,"iere":2389,"lys":2390,"sje":2391,"zz":2392,"Ã¥t":2393,"Ġfj":2394,"Ġfol":2395,"Ġdro":2396,"Ã¸v":2397,"Ġkos":2398,"Ġpri":2399,"edre":2400,"Ġnr":2401,"ĠpÃ¥vir":2402,"aster":2403,"Ġmedlemmer":2404,"ĠstÃ¥":2405,"ensjon":2406,"skaper":2407,"avor":2408,"ygge":2409,"varer":2410,"Ġevent":2411,"Ġutenfor":2412,"Ġ40":2413,"Ã¸dt":2414,"ologisk":2415,"elses":2416,"Ġlandet":2417,"Ġinnlegget":2418,"Ġ:-)":2419,"partem":2420,"Ġforeldre":2421,"ksomhet":2422,"Ġklubb":2423,"UN":2424,"eir":2425,"fyl":2426,"full":2427,"ira":2428,"mor":2429,"ott":2430,"smÃ¥":2431,"siden":2432,"Ġakt":2433,"ash":2434,"atet":2435,"deregÃ¥ende":2436,"Ġstre":2437,"Ġ21":2438,"entene":2439,"ĠVel":2440,"Ġinsp":2441,"avnet":2442,"ĠGam":2443,"Ġprosjekt":2444,"visning":2445,"Ġteg":2446,"Ġtidlig":2447,"Ġbilde":2448,"isering":2449,"plasser":2450,"Ġmorgen":2451,"Ġredus":2452,"Ġungdom":2453,"Ġferdigheter":2454,"Ġstrikke":2455,"In":2456,"br":2457,"beskriv":2458,"ple":2459,"Ġ%":2460,"Ġter":2461,"ete":2462,"elden":2463,"Ġhygg":2464,"Ġbred":2465,"Ġkal":2466,"Ġkamp":2467,"Ġidrett":2468,"Ġpasi":2469,"Ġforr":2470,"onse":2471,"aker":2472,"aken":2473,"ĠHen":2474,"ĠFÃ¸r":2475,"ikasjon":2476,"ĠIN":2477,"enser":2478,"ktor":2479,"ĠRes":2480,"ĠStrikk":2481,"Ġbehandling":2482,"abas":2483,"Ġgangen":2484,"Ġtilbud":2485,"Ġinteress":2486,"Ġpersoner":2487,"ookies":2488,"Ġtenke":2489,"Ġrelev":2490,"Ġhvilke":2491,"Ġfantas":2492,"ĠmÃ¥ned":2493,"Ġapril":2494,"13":2495,"15":2496,"Etter":2497,"dato":2498,"mÃ¸te":2499,"sg":2500,"insi":2501,"Ġmang":2502,"Ġbel":2503,"Ġkateg":2504,"lipp":2505,"ĠgÃ¸y":2506,"Ġtilp":2507,"Ġtiltak":2508,"Ġtan":2509,"ĠlÃ¸":2510,"unksjon":2511,"Ġrest":2512,"ĠBank":2513,"Ġinnom":2514,"Ġinst":2515,"ĠGra":2516,"Ġeurope":2517,"atisk":2518,"abili":2519,"kjenn":2520,"ĠfÃ¸lger":2521,"slin":2522,"Ġdesember":2523,"undersÃ¸k":2524,"Ġsannsyn":2525,"\",":2526,"\".":2527,"blogg":2528,"lene":2529,"lende":2530,"man":2531,"yt":2532,"Ġob":2533,"inav":2534,"Ġfavor":2535,"ari":2536,"Ġtjenester":2537,"ille":2538,"ilde":2539,"ĠlÃ¸nn":2540,"Ġstu":2541,"ĠAd":2542,"ĠTV":2543,"ĠLog":2544,"ĠGener":2545,"Ġref":2546,"ĠStre":2547,"Ġbeveg":2548,"ansett":2549,"ĠHvor":2550,"Ġvoksen":2551,"stitutt":2552,"ĠsÃ¦rlig":2553,"midlertid":2554,"ĠTrondheim":2555,"da":2556,"fo":2557,"len":2558,"oft":2559,"sol":2560,"ving":2561,"Ġsalg":2562,"Ġhe":2563,"Ġhens":2564,"Ġkop":2565,"Ġimidlertid":2566,"Ġpsyk":2567,"oms":2568,"Ġeneste":2569,"rid":2570,"andinav":2571,"Ġ28":2572,"ĠkjÃ¸":2573,"ĠRo":2574,"ĠRÃ¥d":2575,"Ġprodus":2576,"Ġkommentar":2577,"oss":2578,"Ġnettet":2579,"Ġhverdag":2580,"Ġare":2581,"Ġ60":2582,"ĠfÃ¸lgende":2583,"Ġ199":2584,"Ġskjed":2585,"Ġvalgt":2586,"Ġspille":2587,"Ġmoder":2588,"Ġkvalifikasjonsrammeverket":2589,"Ġtilgjengelig":2590,"Ġmillioner":2591,"ĠlÃ¦ringsutbytte":2592,"ĠselvfÃ¸lgelig":2593,"Ġbudsjett":2594,"partementet":2595,"gj":2596,"pon":2597,"sa":2598,"ering":2599,"Ġaug":2600,"edning":2601,"lemer":2602,"Ġlog":2603,"Ġjente":2604,"Ġris":2605,"olle":2606,"ĠHÃ¥":2607,"ĠFl":2608,"Ġlik":2609,"ĠspÃ¸r":2610,"Ġspise":2611,"orten":2612,"ith":2613,"Ġtry":2614,"Ġklart":2615,"Ġtest":2616,"assdrag":2617,"Ġsteder":2618,"Ġslike":2619,"Ġorgan":2620,"ĠgjÃ¸res":2621,"Ġarr":2622,"Â».":2623,"Ġforskning":2624,"ĠUtvalg":2625,"ĠUng":2626,"klar":2627,"ĠInnledning":2628,"ĠmÃ¸ter":2629,"Ġmott":2630,"Ġsikkert":2631,"Ġglede":2632,"Ġeffek":2633,"Ġriktig":2634,"17":2635,"QF":2636,"bl":2637,"ew":2638,"meld":2639,"rar":2640,"sf":2641,"uar":2642,"uelt":2643,"venn":2644,"yte":2645,"Ġ*":2646,"Ġx":2647,"industri":2648,"Ġmam":2649,"Ġham":2650,"Ġhot":2651,"Ġak":2652,"Ġposi":2653,"oman":2654,"Ġnem":2655,"Ġnavn":2656,"Ġlegg":2657,"Ã¸rret":2658,"Ġvist":2659,"Ġ26":2660,"ruar":2661,"entasjon":2662,"ĠBe":2663,"utom":2664,"ĠGjennom":2665,"Ġuniversitet":2666,"Ġaner":2667,"Ġdermed":2668,"rÃ¥d":2669,"Ġnettdating":2670,"ĠverktÃ¸y":2671,"ĠSki":2672,"Ġtilbyr":2673,"ĠÃ¸kt":2674,"ĠÃĺst":2675,"Ġweb":2676,"risti":2677,"Ġslett":2678,"Ġhvilken":2679,"Ġslutten":2680,"Ġshopp":2681,"Ġpubli":2682,"Ġvakre":2683,"12":2684,"14":2685,"AT":2686,"KE":2687,"dommer":2688,"gas":2689,"lle":2690,"lÃ¸s":2691,"person":2692,"usk":2693,"Ġdom":2694,"Ġhit":2695,"Ġforet":2696,"ĠlÃ¥":2697,"ĠvideregÃ¥ende":2698,"akist":2699,"ĠHÃ¸y":2700,"ĠMa":2701,"Ã¥ret":2702,"ikt":2703,"Ġaltern":2704,"ĠPlan":2705,"ĠOff":2706,"ĠGr":2707,"ĠGod":2708,"Ġkvelden":2709,"elva":2710,"Ġdagens":2711,"leder":2712,"Ġforteller":2713,"rets":2714,"Ġ2009":2715,"ĠnÃ¦rings":2716,"Ġdelta":2717,"ĠMÃ¸tedato":2718,"ĠOrganis":2719,"ĠSex":2720,"vrige":2721,"ernban":2722,"edagog":2723,"Hvordan":2724,"ĠStreet":2725,"Ġnemlig":2726,"09":2727,"18":2728,"De":2729,"PÃ¥":2730,"aen":2731,"nummer":2732,"out":2733,"sfag":2734,"vn":2735,"ym":2736,"ÂŃ":2737,"Ġosv":2738,"Ġdre":2739,"Ġdyr":2740,"tim":2741,"ĠvÃ¦r":2742,"terer":2743,"Ġugra":2744,"Ġtha":2745,"ĠSelv":2746,"ĠDag":2747,"ĠHoved":2748,"Ġoppdag":2749,"ike":2750,"enten":2751,"ĠTelefon":2752,"Ġkjenner":2753,"hetene":2754,"ĠOver":2755,"Ġkommet":2756,"Ġtrygg":2757,"Ġreise":2758,"Ġdele":2759,"ĠmÃ¸tet":2760,"Ġoppleve":2761,"Ġlikevel":2762,"Ġbrans":2763,"Ġsuper":2764,"usjoner":2765,"Ġsjekk":2766,"Ġdokum":2767,"Ġburde":2768,"ĠFormannskapet":2769,"Ġenergi":2770,"aur":2771,"ile":2772,"sid":2773,"Ġmote":2774,"Ġpasser":2775,"omi":2776,"skol":2777,"skolen":2778,"Ġgav":2779,"Ġtilgang":2780,"alet":2781,"Ġtrafikk":2782,"ppet":2783,"isi":2784,"ĠSte":2785,"Ġstad":2786,"Ġopprett":2787,"ĠNett":2788,"ĠBygg":2789,"ĠIT":2790,"ĠElekt":2791,"omme":2792,"ema":2793,"sper":2794,"ĠUSA":2795,"Ġvedtak":2796,"Ġtrening":2797,"legging":2798,"delag":2799,"ĠâĢĿ":2800,"Â»,":2801,"ĠProduksjon":2802,"sjonen":2803,"ransport":2804,"ydelig":2805,"Ġholder":2806,"Ġendelig":2807,"Ġspiller":2808,"Ġbarnehage":2809,"fritt":2810,"Ġklokker":2811,"Ġaktiviteter":2812,"ĠBergen":2813,"ĠForskning":2814,"Ġjuni":2815,"Ġfebruar":2816,"Ġsikkerhet":2817,"ĠfornÃ¸yd":2818,"Ġopphav":2819,"Ġfjor":2820,"Ġrisik":2821,"Ar":2822,"OT":2823,"Pro":2824,"navn":2825,"sed":2826,"tro":2827,"Ġ000":2828,"Ġses":2829,"Ġdess":2830,"ĠhÃ¸st":2831,"Ġbord":2832,"livet":2833,"Ġgru":2834,"Ġlo":2835,"Ġjev":2836,"rikke":2837,"ĠHÃ¥nd":2838,"Ġoppskriften":2839,"Ġinns":2840,"ĠTor":2841,"Ġvari":2842,"sprÃ¥k":2843,"Ġprofil":2844,"Ġkonse":2845,"leggende":2846,"holdning":2847,"Ġhelst":2848,"ittel":2849,"Ġbefolk":2850,"mÃ¥let":2851,"eskene":2852,"ultater":2853,"ĠSkj":2854,"ĠÃ¸nsket":2855,"ĠÃĺkon":2856,"ĠÃ¥pen":2857,"Ġturen":2858,"Ġrelasjoner":2859,"gave":2860,"sjekter":2861,"Ġpresenter":2862,"Ġmars":2863,"Ġbenytte":2864,"Ġsaken":2865,"Ġtradisjon":2866,"ĠBarne":2867,"fesjon":2868,"Ġeksister":2869,"ĠdÃ¥rlig":2870,"solutt":2871,"19":2872,"Hei":2873,"ON":2874,"OS":2875,"UT":2876,"cort":2877,"date":2878,"gent":2879,"ja":2880,"nere":2881,"nende":2882,"pen":2883,"ĠZ":2884,"Ġslag":2885,"Ġfiske":2886,"Ã¸ver":2887,"Ġhennes":2888,"Ġfordel":2889,"Ġtot":2890,"Ġtvil":2891,"assi":2892,"Ġlun":2893,"ĠlÃ¸rdag":2894,"ager":2895,"Ġja":2896,"ĠDal":2897,"ĠData":2898,"ligvis":2899,"ĠHjem":2900,"Ġopptatt":2901,"ĠNÃ¦rings":2902,"ĠAt":2903,"ĠEiendom":2904,"ĠLegg":2905,"spl":2906,"Ġproduksjon":2907,"Ã¦replan":2908,"Ã¸ndag":2909,"ogn":2910,"ersom":2911,"Ġbehand":2912,"Ġbildene":2913,"Ġviktige":2914,"handel":2915,"Ġfilmer":2916,"Ġblogg":2917,"ĠgrÃ¸nn":2918,"gÃ¥tt":2919,"Ġpartner":2920,"gaver":2921,"Ġfamilie":2922,"ĠfÃ¸ler":2923,"ĠMÃ¥l":2924,"Ġkroner":2925,"Ġdeilig":2926,"'s":2927,"Ved":2928,"bet":2929,"oter":2930,"rig":2931,"ves":2932,"vekst":2933,"Ġ'":2934,"ĠX":2935,"Ġyng":2936,"ĠÃ¸rret":2937,"ĠsjÃ¸":2938,"ins":2939,"ante":2940,"omot":2941,"likt":2942,"Ġforv":2943,"reft":2944,"str":2945,"Ġavt":2946,"Ġtru":2947,"asino":2948,"atelse":2949,"Ã¸rende":2950,"ĠSÃ¸ker":2951,"ammer":2952,"Ġsku":2953,"ĠFÃ¸l":2954,"ĠMo":2955,"ĠKjem":2956,"ĠTo":2957,"ĠEQF":2958,"ĠLitt":2959,"Ġsamlet":2960,"stemer":2961,"Ġinvi":2962,"Ġsist":2963,"Ġoversikt":2964,"dige":2965,"Ġtred":2966,"Ġtrinn":2967,"alisering":2968,"Ġderetter":2969,"ĠIndustri":2970,"ober":2971,"Ġnettopp":2972,"Ġdatingside":2973,"lede":2974,"Ġflytte":2975,"Ġsystem":2976,"Ġ2005":2977,"Ġ2006":2978,"Ġ2008":2979,"Ġtakk":2980,"ĠkjÃ¸pt":2981,"slang":2982,"giver":2983,"range":2984,"ĠmÃ¸tte":2985,"Ġbeskri":2986,"ferd":2987,"Ġhandler":2988,"offer":2989,"Ġveien":2990,"Ġkristen":2991,"Ġflott":2992,"Ġdigitale":2993,"andringer":2994,"Ġregistrert":2995,"Ġutgangspunkt":2996,"smÃ¥ten":2997,"Ġhyggelig":2998,"Ġfavoritt":2999,"ĠUngdom":3000,"ĠÃĺkonomi":3001,"16":3002,"100":3003,"AP":3004,"Den":3005,"God":3006,"PL":3007,"co":3008,"fold":3009,"her":3010,"mens":3011,"ta":3012,"inder":3013,"inske":3014,"Ġfjer":3015,"Ġfunnet":3016,"tik":3017,"Ġvekt":3018,"Ġimp":3019,"Ġpriv":3020,"ales":3021,"alsk":3022,"Ġtydelig":3023,"ilt":3024,"isen":3025,"akgrunn":3026,"Ġstopp":3027,"ĠMenn":3028,"Ġoppmer":3029,"Ġinneb":3030,"ĠLe":3031,"ommet":3032,"ensi":3033,"Ġhvem":3034,"veien":3035,"Ġ2010":3036,"yndig":3037,"itter":3038,"arbeide":3039,"Ġbevis":3040,"ĠâĢľ":3041,"ĠSkole":3042,"gangsmÃ¥ten":3043,"Ġartikk":3044,"Ġkommunikasjon":3045,"ĠAndre":3046,"ĠbesÃ¸":3047,"ack":3048,"Ġwith":3049,"ĠÃ¥pner":3050,"ĠbestÃ¥r":3051,"huset":3052,"ĠslÃ¥":3053,"saker":3054,"Ġbidrar":3055,"Ġsjekke":3056,"Ġknyttet":3057,"Ġproblemer":3058,"Ġjanuar":3059,"Ġhistorie":3060,"Ġkonkurr":3061,"Ġmamma":3062,"IS":3063,"bu":3064,"ci":3065,"dde":3066,"kant":3067,"ls":3068,"ph":3069,"Ã¸de":3070,"Ã¸sten":3071,"Ġhav":3072,"Ġkur":3073,"Ġfores":3074,"ĠforsÃ¸k":3075,"Ġavs":3076,"Ġtall":3077,"ild":3078,"asÃ¸y":3079,"ama":3080,"Ġress":3081,"Ġresten":3082,"Ġutstyr":3083,"Ġ27":3084,"rum":3085,"ĠMy":3086,"ĠMer":3087,"ĠMin":3088,"eksjon":3089,"ĠKrist":3090,"ĠVar":3091,"Ġsamer":3092,"Ġkjente":3093,"ĠPar":3094,"adet":3095,"ĠDetalj":3096,"ktur":3097,"itte":3098,"ĠForsikring":3099,"ĠklÃ¦r":3100,"Ġdaglig":3101,"Ġprinsi":3102,"Ġpromot":3103,"Ġvelger":3104,"Ã¸nnhet":3105,"ĠMedier":3106,"ĠMedisin":3107,"Ġkvalifikasjoner":3108,"Ġtenker":3109,"rifter":3110,"Ġlivslang":3111,"ĠSport":3112,"Ġtross":3113,"Ġfellesskap":3114,"Ġtyper":3115,"Ġkreft":3116,"Ġytter":3117,"omrÃ¥de":3118,"Ġinneholder":3119,"Ġinternasjonale":3120,"Ġlengre":3121,"vendelse":3122,"Ġdirekte":3123,"tokoll":3124,"06":3125,"Da":3126,"ID":3127,"KR":3128,"NÃ¥r":3129,"bel":3130,"bart":3131,"mess":3132,"tur":3133,"Ġesk":3134,"eninger":3135,"Ã¸t":3136,"Ġhund":3137,"Ġkir":3138,"Ġforeb":3139,"Ġgutt":3140,"onne":3141,"sty":3142,"Ġtelefon":3143,"Ġengas":3144,"Ġlurt":3145,"une":3146,"unt":3147,"unktet":3148,"ĠSiden":3149,"ĠDisse":3150,"ĠDato":3151,"andid":3152,"Ġsty":3153,"ĠFot":3154,"ĠMid":3155,"Ġdefin":3156,"ĠBi":3157,"ĠIdrett":3158,"ĠKunnskap":3159,"ĠKommun":3160,"ford":3161,"low":3162,"ĠÃ¥rets":3163,"jente":3164,"Ġanlegg":3165,"ĠtrÃ¥d":3166,"ograf":3167,"ĠInformasjon":3168,"ygger":3169,"denafil":3170,"engt":3171,"Ġannonser":3172,"Ġkommunen":3173,"ĠfremgangsmÃ¥ten":3174,"kjÃ¸p":3175,"otekn":3176,"jÃ¸rn":3177,"Ġproses":3178,"arns":3179,"ĠÃ¥pne":3180,"plass":3181,"Ġleverer":3182,"Ġfylk":3183,"Ġmuligheter":3184,"Ġungfisk":3185,"Ġansvarlig":3186,"gruppen":3187,"Ġvurdering":3188,"Ġjule":3189,"sessen":3190,"Ġjobbe":3191,"Ġabsolutt":3192,"ĠUtdannings":3193,"Ġinkludert":3194,"Ġkategorier":3195,"Denne":3196,"aer":3197,"gt":3198,"giv":3199,"nr":3200,"Ëĩ":3201,"Ġqu":3202,"ĠsÃ¸ndag":3203,"Ġmob":3204,"Ġhin":3205,"Ġbolig":3206,"Ġpla":3207,"egge":3208,"egrupp":3209,"Ġforh":3210,"Ġga":3211,"one":3212,"aling":3213,"ĠavgjÃ¸r":3214,"iss":3215,"ĠDale":3216,"Ġskje":3217,"ĠFiske":3218,"ĠBes":3219,"ĠBolig":3220,"asjonene":3221,"ĠTa":3222,"ĠTe":3223,"ĠsÃ¥nn":3224,"ĠRel":3225,"Ġsite":3226,"Ġsitter":3227,"ĠJobb":3228,"Ġgodkjent":3229,"Ġbildet":3230,"Ġkomp":3231,"fÃ¸res":3232,"arken":3233,"ĠhÃ¸yre":3234,"nader":3235,"ubro":3236,"ettere":3237,"ussisk":3238,"ĠProsjekt":3239,"olitikk":3240,"ĠÃ¸ke":3241,"Ġutdanningssy":3242,"somt":3243,"ĠskjÃ¸n":3244,"Ġplasser":3245,"ronikk":3246,"Ġhold":3247,"ĠprÃ¸v":3248,"ĠomrÃ¥der":3249,"Ġbakgrunn":3250,"Ġhovedsak":3251,"Ġsnart":3252,"omrÃ¥der":3253,"Ġmidt":3254,"Ġfotball":3255,"Ġretning":3256,"Ġsteinaldermenn":3257,"Ġetablert":3258,"Ġsterk":3259,"Norge":3260,"Ġfredag":3261,"Ġbransje":3262,"03":3263,"NÃ¥":3264,"Og":3265,"ctor":3266,"fl":3267,"habili":3268,"kort":3269,"po":3270,"vann":3271,"vok":3272,"Â¸":3273,"enstre":3274,"Ġdit":3275,"ana":3276,"anel":3277,"ansk":3278,"Ġbry":3279,"Ġva":3280,"Ġvekst":3281,"Ġkart":3282,"Ġgul":3283,"rakt":3284,"stÃ¥r":3285,"ĠtÃ¸r":3286,"Ġene":3287,"Ġlin":3288,"Ġlys":3289,"isere":3290,"Ġmedier":3291,"ĠSand":3292,"andag":3293,"ĠHubro":3294,"ĠBr":3295,"ĠBakgrunn":3296,"ĠIK":3297,"ĠKlÃ¦r":3298,"forsk":3299,"forhold":3300,"ĠTransport":3301,"Ġalene":3302,"estad":3303,"Ġelekt":3304,"ikkelig":3305,"Ġminutter":3306,"ĠVidere":3307,"ersjon":3308,"Ġregion":3309,"Ġhvorfor":3310,"ĠSkog":3311,"Ġservice":3312,"Ġinternett":3313,"Ġrapp":3314,"dire":3315,"bruker":3316,"Ġinformasjonen":3317,"program":3318,"ronse":3319,"Ġmuligheten":3320,"omrÃ¥det":3321,"snitt":3322,"Ġdoku":3323,"Ġprodukt":3324,"Ġprodukter":3325,"ĠundersÃ¸kelsen":3326,"Ġtjeneste":3327,"ĠNyheter":3328,"Ġsendt":3329,"ĠJoh":3330,"Ġkontaktannonser":3331,"Ġoktober":3332,"Ġrepresenter":3333,"kjenning":3334,"Ġobser":3335,"oterap":3336,"24":3337,"An":3338,"PS":3339,"butikk":3340,"mte":3341,"nivÃ¥":3342,"pÃ¥":3343,"Ġ...":3344,"Ġdo":3345,"ĠhÃ¸re":3346,"Ġbland":3347,"Ġbrev":3348,"test":3349,"Ġpost":3350,"Ġgyte":3351,"ons":3352,"ĠnÃ¸y":3353,"kkel":3354,"departementet":3355,"Ġlettere":3356,"ĠDrikke":3357,"lers":3358,"ĠFr":3359,"Ã¦ring":3360,"Ġoms":3361,"ĠAm":3362,"ĠIs":3363,"Ġinnb":3364,"ĠVer":3365,"ommen":3366,"ĠkjÃ¸nn":3367,"adres":3368,"ktÃ¸r":3369,"lingen":3370,"Ġprosjektet":3371,"Ġcookies":3372,"Ġvedtatt":3373,"elvÃ¦re":3374,"rÃ¥det":3375,"visjon":3376,"ĠStor":3377,"Ġregel":3378,"Ġregistrer":3379,"amera":3380,"ksjoner":3381,"Ġtilbak":3382,"Ġfagskole":3383,"hagen":3384,"Ġopplever":3385,"ÃĺTE":3386,"Ġsingel":3387,"ĠInteriÃ¸r":3388,"Ġkraft":3389,"Ġoppdatert":3390,"ĠReis":3391,"Ġrettig":3392,"Ġgreit":3393,"Ġerfaring":3394,"ĠArbeidsm":3395,"Ġadministrator":3396,"Ġleilighet":3397,"Ġfolke":3398,"assdraget":3399,"ĠHÃ¥ndverk":3400,"DNA":3401,"Sp":3402,"Til":3403,"by":3404,"if":3405,"ip":3406,"ior":3407,"iene":3408,"kel":3409,"kret":3410,"nene":3411,"srett":3412,"th":3413,"uell":3414,"inar":3415,"Ġfigur":3416,"ĠfÃ¸dt":3417,"Ġdy":3418,"Ġmek":3419,"Ġmod":3420,"Ġmobb":3421,"Ġband":3422,"Ġbibliotek":3423,"Ġbronse":3424,"Ġforan":3425,"Ġtusen":3426,"Ġlenger":3427,"atÃ¸r":3428,"atnet":3429,"aget":3430,"ĠSyn":3431,"ĠDersom":3432,"Ġskandinav":3433,"ĠFarm":3434,"ĠFunksjon":3435,"ĠBo":3436,"forbund":3437,"ĠVok":3438,"ĠEmu":3439,"ĠPla":3440,"Ġind":3441,"Ġinv":3442,"utte":3443,"Ġkontak":3444,"Ġkontroll":3445,"vare":3446,"Ġunderlagt":3447,"ativt":3448,"bered":3449,"Ġeksam":3450,"ĠâĢĺ":3451,"ĠAnlegg":3452,"siktig":3453,"Ġgifte":3454,"Ġbegynne":3455,"Ġprosess":3456,"Ġfilmen":3457,"Ġutviklingen":3458,"fÃ¸lge":3459,"Ġbeskriv":3460,"luttet":3461,"ĠnivÃ¥ene":3462,"ĠprÃ¸ver":3463,"Ġoppdrag":3464,"Ġklarer":3465,"uropa":3466,"Ġpoliti":3467,"Ġgrupper":3468,"sprogram":3469,"Ġsnakke":3470,"Ġreseptfritt":3471,"ĠUnderholdning":3472,"krainske":3473,"Ġlokale":3474,"Ġsentral":3475,"ypning":3476,"Ġbetydning":3477,"ĠFritid":3478,"Ġtillatelse":3479,"ĠEngros":3480,"ĠoppnÃ¥":3481,"ĠLogistikk":3482,"Ġareal":3483,"Ġskjedde":3484,"Ġstadig":3485,"troduksjon":3486,"Ġeskorte":3487,"ĠFarmasÃ¸y":3488,"Bru":3489,"IF":3490,"IV":3491,"Men":3492,"Opp":3493,"Tr":3494,"bare":3495,"dann":3496,"gu":3497,"gres":3498,"ium":3499,"mon":3500,"nede":3501,"ren":3502,"rsdag":3503,"ssen":3504,"ue":3505,"vor":3506,"Ġ<":3507,"Ġsagt":3508,"informasjon":3509,"Ġvest":3510,"Ġatt":3511,"Ġpasse":3512,"omster":3513,"Ġforut":3514,"Ġformid":3515,"Ġtirsdag":3516,"kkelig":3517,"Ġuav":3518,"agn":3519,"agen":3520,"ĠSel":3521,"ĠSti":3522,"ight":3523,"oller":3524,"Ġvite":3525,"geb":3526,"ĠMC":3527,"ĠoppfÃ¸l":3528,"ĠNÃ¸d":3529,"ĠBÃ¥t":3530,"ĠVÃ¥r":3531,"ĠVest":3532,"ĠVelvÃ¦re":3533,"ĠEU":3534,"ĠLov":3535,"Ġindus":3536,"ĠOG":3537,"avtale":3538,"Ġprogrammet":3539,"digvis":3540,"ĠUkjent":3541,"Ġnorway":3542,"ĠForeninger":3543,"Ġmerke":3544,"Ġhelg":3545,"Ġleke":3546,"Ġleve":3547,"Ġminste":3548,"Ġregjer":3549,"Ġfortelle":3550,"ĠkjÃ¦resten":3551,"retning":3552,"Ġforskjell":3553,"Ġviktigste":3554,"ĠÃ¸nske":3555,"ĠÃĺvrige":3556,"Ġbeskrevet":3557,"Ġforbedre":3558,"Ġleverand":3559,"Ġselskap":3560,"ĠKvinner":3561,"Ġhenhold":3562,"Ġmiddag":3563,"sÃ¸ke":3564,"Ġendringer":3565,"kompetanse":3566,"achel":3567,"Ġhuset":3568,"Ġvinter":3569,"ĠDesignene":3570,"Ġeffekt":3571,"Ġpoeng":3572,"Ġmarkeds":3573,"Ġdeltakelse":3574,"Ġkroppen":3575,"bygging":3576,"utvalget":3577,"Ġtrenings":3578,"ĠLandbruk":3579,"slinjer":3580,"Ġhensyn":3581,"ĠTelefoni":3582,"ĠElektronikk":3583,"ĠSkjÃ¸nnhet":3584,"gentur":3585,"ĠDaleg":3586,"ĠNÃ¦ringsmiddel":3587,"ĠKjemisk":3588,"oteknologisk":3589,"ĠSkogbruk":3590,"ĠReiseliv":3591,"ĠArbeidsmarked":3592,"ĠEngroshandel":3593,"ĠFarmasÃ¸ytisk":3594,"ĠNÃ¸dnummer":3595,"Ġindusti":3596,"//":3597,"05":3598,"08":3599,"28":3600,"://":3601,"El":3602,"Sk":3603,"ah":3604,"beg":3605,"ction":3606,"do":3607,"gder":3608,"kÃ¥r":3609,"miljÃ¸":3610,"ny":3611,"sd":3612,"ure":3613,"vende":3614,"wing":3615,"weg":3616,"yse":3617,"¿½":3618,"Â«":3619,"ï¿½":3620,"Ġâ":3621,"Ġarbeider":3622,"Ġfas":3623,"Ġmale":3624,"tiden":3625,"Ġbu":3626,"Ġbod":3627,"Ġvur":3628,"Ġkm":3629,"Ġgutter":3630,"Ġnatt":3631,"Ġnasjonalt":3632,"Ġuk":3633,"stall":3634,"Ġtver":3635,"ighet":3636,"ders":3637,"ĠNavn":3638,"urn":3639,"Ġgjens":3640,"ĠKOM":3641,"ensen":3642,"emid":3643,"ĠOl":3644,"jeneste":3645,"Ã¸ndelag":3646,"ĠInstitutt":3647,"Ġklare":3648,"atis":3649,"atiske":3650,"Ġbilen":3651,"Ġsammenheng":3652,"Ġkompet":3653,"Ġverdi":3654,"Ġviste":3655,"Ġgrunnleggende":3656,"Ġforskrift":3657,"Ġlangs":3658,"Ġsms":3659,"Ġlignende":3660,"Ġstudie":3661,"Ġfylkes":3662,"Ġfarger":3663,"Ġpolitikk":3664,"Ġgruppe":3665,"Ġjobbet":3666,"kommen":3667,"Ġopplevelse":3668,"Ġnaturlig":3669,"Ġtilfeller":3670,"Ġpublik":3671,"ĠkjÃ¦rligheten":3672,"Ġerfaringer":3673,"Ġflotte":3674,"Ġnevnt":3675,"Ġsykehus":3676,"Ġfordypning":3677,"Ġperioden":3678,"Ġyrkes":3679,"Ġfortsette":3680,"ktoratet":3681,"Ġrelevant":3682,"Ġrestaur":3683,"akistan":3684,"ĠOrganisasjoner":3685,"Ġyngre":3686,"Ġtredje":3687,"ĠpromotÃ¸r":3688,"ĠBioteknologisk":3689,"Ġvurdere":3690,".-":3691,"40":3692,"50":3693,"Er":3694,"SÃ¥":3695,"affe":3696,"bir":3697,"gitt":3698,"izz":3699,"nor":3700,"stil":3701,"sverk":3702,"ute":3703,"ved":3704,"xx":3705,"enfor":3706,"Ġsatte":3707,"Ġsign":3708,"Ġdobb":3709,"Ġhum":3710,"ĠbÃ¦r":3711,"ĠbÃ¸ker":3712,"Ġvenstre":3713,"Ġautom":3714,"Ġkund":3715,"Ġig":3716,"Ġiden":3717,"ĠformÃ¥l":3718,"Ġforvent":3719,"ongen":3720,"Ġuken":3721,"Ġuansett":3722,"alte":3723,"Ġtu":3724,"ĠSverige":3725,"Ġjakt":3726,"Ġskikkelig":3727,"Ġsto":3728,"ĠFin":3729,"ĠFast":3730,"Ġ29":3731,"Ġomf":3732,"Ġoppvekst":3733,"ĠBl":3734,"apotek":3735,"Ġlive":3736,"Ġvarer":3737,"stein":3738,"stede":3739,"Ġsport":3740,"Ġprofesjon":3741,"Ġsites":3742,"Ġoverra":3743,"Ġvedlike":3744,"yrer":3745,"ĠForhÃ¥nd":3746,"ĠNorske":3747,"Ġnettsider":3748,"Ġnettapotek":3749,"Ġeier":3750,"Ġeksp":3751,"Ġdeleg":3752,"vendelser":3753,"ĠhÃ¸yt":3754,"loggen":3755,"Ġtreffe":3756,"Ġbestille":3757,"atemati":3758,"ĠnivÃ¥er":3759,"Ġvalgte":3760,"ĠblÃ¥":3761,"stillinger":3762,"Ġbereg":3763,"Ġteknolog":3764,"Ġkjempe":3765,"Ġdrar":3766,"gelsk":3767,"Ġprogramfag":3768,"Ġkonkurran":3769,"Ġoppstart":3770,"Ġraskt":3771,"ĠnÃ¦rmere":3772,"Ġopprinn":3773,"irasjon":3774,"Ġkonsekv":3775,"ĠDetaljvarer":3776,"Ġbronsealder":3777,"wegian":3778,".:":3779,"AM":3780,"Et":3781,"Med":3782,"SS":3783,"bin":3784,"bri":3785,"feltet":3786,"hvert":3787,"ive":3788,"kan":3789,"of":3790,"rom":3791,"sc":3792,"svis":3793,"ton":3794,"trykk":3795,"vs":3796,"vist":3797,"za":3798,"ãĤ":3799,"Ġ{":3800,"Ġsetter":3801,"Ġfjell":3802,"ane":3803,"ansi":3804,"ania":3805,"Ġmeter":3806,"Ġmateri":3807,"arder":3808,"Ã¸ve":3809,"ĠhÃ¸sten":3810,"tivitet":3811,"tivt":3812,"Ġit":3813,"Ġide":3814,"Ġporn":3815,"Ġnab":3816,"rael":3817,"Ġtilrett":3818,"stud":3819,"Ġavtale":3820,"Ġenten":3821,"ĠSen":3822,"ĠSve":3823,"ĠSÃ¸k":3824,"ĠDel":3825,"Ġutfor":3826,"sep":3827,"Ġopplys":3828,"ĠNasjonalt":3829,"Ġgjeld":3830,"ĠAle":3831,"ĠVir":3832,"ĠPC":3833,"sikker":3834,"Ġelev":3835,"Ġcasino":3836,"ĠForfatter":3837,"Ã¸kene":3838,"ktivitet":3839,"merik":3840,"Ġreiser":3841,"Ġhaha":3842,"Ġmeget":3843,"Ġbillig":3844,"dres":3845,"ĠâĢ¢":3846,"Ġsexy":3847,"late":3848,"Ġresultater":3849,"Ġtreff":3850,"ĠProsed":3851,"ĠÃ¸v":3852,"ĠÃ¸st":3853,"Ġsmak":3854,"Ġdatabas":3855,"mannen":3856,"Ġnordmenn":3857,"dals":3858,"Ġstyrke":3859,"Ġkjemp":3860,"Ġfree":3861,"Ġstandard":3862,"Ġdriver":3863,"ĠKontakt":3864,"Ġescort":3865,"Ġaktuelle":3866,"ĠINF":3867,"Ġinteressant":3868,"ĠkjÃ¸kken":3869,"ĠOffentlige":3870,"Ġopphavsrett":3871,"Ġtilrettel":3872,"27":3873,"Her":3874,"MS":3875,"bon":3876,"cir":3877,"dater":3878,"ix":3879,"ich":3880,"ming":3881,"oo":3882,"renn":3883,"sagt":3884,"Ã¶":3885,"Ġsende":3886,"Ġsjel":3887,"Ġsats":3888,"Ġoper":3889,"Ġoven":3890,"inter":3891,"Ġfang":3892,"ork":3893,"Ġdist":3894,"Ġmel":3895,"Ġbi":3896,"Ġveg":3897,"Ġkurs":3898,"Ġpapp":3899,"Ġgis":3900,"Ġtime":3901,"ĠÃ¥nd":3902,"Ġtilskudd":3903,"Ġural":3904,"Ġavhengig":3905,"ĠtÃ¥":3906,"Ġtri":3907,"Ġru":3908,"Ġuts":3909,"aksjon":3910,"ĠHe":3911,"ĠHau":3912,"ĠHusk":3913,"Ġdeb":3914,"ĠNew":3915,"iker":3916,"ĠAgentur":3917,"ĠLÃ¦rings":3918,"ĠPer":3919,"avanger":3920,"Ġunna":3921,"mmene":3922,"Ġprosjekter":3923,"ĠÃ¥rlig":3924,"ĠÃ¥rsyn":3925,"ĠJÃ¸r":3926,"ity":3927,"Ġkons":3928,"ĠIngen":3929,"Ġnettles":3930,"lager":3931,"Ġbegre":3932,"Ġkvinnene":3933,"Ġtilby":3934,"Ġarrange":3935,"Ġbedriften":3936,"Ġhjemm":3937,"jelp":3938,"ĠÃ¥pnet":3939,"Ġpluss":3940,"Ġaktive":3941,"Ġmaskin":3942,"raftig":3943,"Ġkrever":3944,"parten":3945,"Ġstarter":3946,"Ġverdt":3947,"Ġfullt":3948,"ĠsnÃ¸":3949,"ĠforelÃ¸p":3950,"Ġprakti":3951,"Ġboka":3952,"âĢĻâĢĻ":3953,"Ġoffentlige":3954,"Ġnettsteder":3955,"ibliote":3956,"Ġfremme":3957,"ĠThea":3958,"legge":3959,"OLL":3960,"Ġoppgave":3961,"Ġinteresser":3962,"ĠforhÃ¥ndssensur":3963,"Ġfysisk":3964,"Ġcellepr":3965,"ĠGaming":3966,"Ġforrige":3967,"Ġfantastisk":3968,"Ġpublisert":3969,"Ġalternativ":3970,"Ġprosessen":3971,"Ġpublikum":3972,"circa":3973,"--":3974,"NS":3975,"Som":3976,"barn":3977,"delt":3978,"jene":3979,"lin":3980,"lend":3981,"oder":3982,"punkt":3983,"rel":3984,"tar":3985,"uft":3986,"Ġ;":3987,"Ġ..":3988,"Ġop":3989,"Ġdomm":3990,"Ġminn":3991,"Ġmandag":3992,"Ġbyr":3993,"Ġveil":3994,"Ġpap":3995,"Ġpassas":3996,"liste":3997,"Ġforklar":3998,"lever":3999,"Ġtilkn":4000,"Ġtilsvar":4001,"aland":4002,"unst":4003,"ĠSh":4004,"ĠSol":4005,"ĠDra":4006,"ĠDamer":4007,"older":4008,"ĠMeg":4009,"ektiv":4010,"Ġalvor":4011,"ĠEg":4012,"Ġsamene":4013,"Ġsamiske":4014,"ĠkjÃ¸rer":4015,"ĠPorno":4016,"Ġvarier":4017,"Ġinstit":4018,"odet":4019,"Ġelem":4020,"behandling":4021,"spunktet":4022,"veil":4023,"ynt":4024,"ĠÃ¥rs":4025,"ĠUl":4026,"Ġkonf":4027,"Ġklasse":4028,"Ġhelgen":4029,"engene":4030,"Ġbrukte":4031,"Ġlager":4032,"Ġkunder":4033,"ĠÂ©":4034,"Ġbegrens":4035,"bruks":4036,"Ġenklere":4037,"klus":4038,"film":4039,"Ġadcirca":4040,"2015":4041,"2016":4042,"Ġtenkt":4043,"Ġvannfor":4044,"Ġtype":4045,"Ġstarte":4046,"Ġbygger":4047,"akken":4048,"Ġpolitisk":4049,"Ġbenytter":4050,"sÃ¸kt":4051,"Ġetablere":4052,"Ġabonne":4053,"Ġgleder":4054,"vrig":4055,"Ġbekre":4056,"Ġuttry":4057,"Ġuttrykk":4058,"Ġerotiske":4059,"rapport":4060,"ulering":4061,"Ġgenet":4062,"ĠKjÃ¸pe":4063,"sjekk":4064,"Ġkoselig":4065,"Ġpriori":4066,"Ġeuropeiske":4067,"undersÃ¸kelse":4068,"Ġrefle":4069,"ernbane":4070,"speri":4071,"ĠinnebÃ¦rer":4072,"Ġomsorg":4073,"Ġmobbing":4074,"Ġskandinaviske":4075,"ĠâĢĺâĢĻ":4076,"Ġuavhengig":4077,"ĠKOMM":4078,"Ġpassasjer":4079,");":4080,"DE":4081,"Hva":4082,"IG":4083,"des":4084,"gere":4085,"kost":4086,"kast":4087,"mb":4088,"mper":4089,"nÃ¦r":4090,"part":4091,"Ġ[":4092,"Ġ00":4093,"ĠÃ¸ker":4094,"Ġsven":4095,"Ġfest":4096,"Ġfeir":4097,"ĠdÃ¸d":4098,"ĠmÃ¸r":4099,"Ġmeste":4100,"Ã¸tt":4101,"Ġhopp":4102,"Ġheter":4103,"lim":4104,"Ġgu":4105,"Ġur":4106,"Ġukrainske":4107,"Ġtom":4108,"Ġengang":4109,"ase":4110,"Ġlen":4111,"unde":4112,"isert":4113,"ĠSu":4114,"olf":4115,"ĠstrÃ¥":4116,"ĠHa":4117,"ĠFort":4118,"Ġomt":4119,"ekn":4120,"ĠKap":4121,"forandringer":4122,"ĠVann":4123,"Ġnot":4124,"Ġlille":4125,"ĠkjÃ¸re":4126,"ĠPh":4127,"ĠPris":4128,"ĠGrunn":4129,"ĠmÃ¥ten":4130,"Ġbarns":4131,"Ġellers":4132,"ital":4133,"varet":4134,"Ġ31":4135,"Ġnettsted":4136,"holdt":4137,"delingen":4138,"Ġtids":4139,"Ġselvsagt":4140,"eskommun":4141,"altning":4142,"Ġsammenlig":4143,"Ġflyttet":4144,"elding":4145,"Ġfremover":4146,"stendig":4147,"smess":4148,"Ġbedrift":4149,"Ġfaglig":4150,"Ġutdanningen":4151,"ERS":4152,"ĠlÃ¸pe":4153,"Ġplaner":4154,"urdering":4155,"Ġgenerisk":4156,"Ġmatch":4157,"Ġbrann":4158,"Ġgammel":4159,"Ġskaper":4160,"Ġhandle":4161,"Ġglatt":4162,"Ġledelse":4163,"Ġoffisi":4164,"Ġfisket":4165,"kraft":4166,"Ġfunksjoner":4167,"arbeidere":4168,"ĠDerfor":4169,"Ġpassord":4170,"Ġmarkedet":4171,"Ġtetthet":4172,"Ġforumet":4173,"Ġungdoms":4174,"Ġhehe":4175,"Ġkopiere":4176,"Ġshopping":4177,"skolel":4178,"Ġdessverre":4179,"sprÃ¥klige":4180,"Ġressur":4181,"anelet":4182,"atematikk":4183,"Ġovenfor":4184,"ĠÃ¥rsyngel":4185,"Ġnettleser":4186,"ĠKOMMUN":4187,"29":4188,"AG":4189,"IT":4190,"RE":4191,"ROT":4192,"mar":4193,"ril":4194,"rene":4195,"summer":4196,"vne":4197,"ãĥ":4198,"Ġing":4199,"eres":4200,"Ġsil":4201,"Ġsek":4202,"Ã¥de":4203,"Ġfat":4204,"ĠfÃ¸re":4205,"Ġme":4206,"Ġmodell":4207,"Ġmyndig":4208,"aran":4209,"Ã¸tte":4210,"Ã¸mme":4211,"Ġhev":4212,"Ġasi":4213,"Ġil":4214,"Ġple":4215,"ege":4216,"skrift":4217,"alog":4218,"Ġtap":4219,"ĠDess":4220,"Ġutover":4221,"Ġskrives":4222,"Ġetc":4223,"etten":4224,"ĠNKR":4225,"ĠBra":4226,"ĠBloggen":4227,"ĠTIL":4228,"ĠEk":4229,"Ġint":4230,"Ġinfo":4231,"Ġelva":4232,"ĠOn":4233,"ĠOx":4234,"....":4235,"avt":4236,"ĠmÃ¥let":4237,"osisjon":4238,"Ġnyheter":4239,"ĠfÃ¸rer":4240,"ĠtrÃ¥":4241,"yret":4242,"Ġlevit":4243,"Ġgjennomgang":4244,"ĠÃ©":4245,"Ġregn":4246,"Ġslikt":4247,"Ġmenneskene":4248,"tteratur":4249,"ĠAnvendelse":4250,"Ġ2003":4251,"Ġbestemt":4252,"Ġvanlige":4253,"ĠUniversitet":4254,"Ġwww":4255,"ĠlÃ¸per":4256,"tillingen":4257,"Ġskjolder":4258,"aksin":4259,"trent":4260,"Ġstudent":4261,"Ġ09":4262,"ENN":4263,"ĠOrd":4264,"stillingen":4265,"Ġsvart":4266,"Ġsnakker":4267,"Ġklokke":4268,"ĠmÃ¥neder":4269,"lÃ¸pet":4270,"Ġkarakter":4271,"Ġvideoer":4272,"akteristikk":4273,"Ġregistrere":4274,"Ġbygget":4275,"Ġrammeverket":4276,"ĠKanskje":4277,"OKOLL":4278,"Ġinspir":4279,"Ġtilpass":4280,"ĠGratis":4281,"ĠHvorfor":4282,"Ġmoderne":4283,"ĠHÃ¥per":4284,"Ġarrang":4285,"PLAN":4286,"Ġkonkurranse":4287,"Ġytterligere":4288,"Ġgytefisk":4289,"Ġattra":4290,"achelor":4291,"Ġteknologien":4292,"Ġabonnement":4293,"ĠKOMMUNE":4294,"ROTOKOLL":4295,"Ġlevitra":4296,".\"":4297,".)":4298,"04":4299,"US":4300,"bas":4301,"bord":4302,"fol":4303,"gene":4304,"ider":4305,"kor":4306,"king":4307,"relse":4308,"ress":4309,"ype":4310,"Ġ)":4311,"Ġsal":4312,"Ġsand":4313,"Ġsid":4314,"Ġstille":4315,"Ġsverige":4316,"Ġfler":4317,"Ġfakt":4318,"ansert":4319,"Ġbon":4320,"ĠbÃ¦re":4321,"Ġves":4322,"Ġkil":4323,"Ġkry":4324,"ska":4325,"skiner":4326,"skoler":4327,"rale":4328,"als":4329,"Ġavsl":4330,"Ġth":4331,"Ġtor":4332,"Ġtas":4333,"illet":4334,"Ġlover":4335,"ath":4336,"ppen":4337,"Ã¸ring":4338,"ĠSil":4339,"ĠDan":4340,"ttp":4341,"rienter":4342,"Ġskyl":4343,"Ġstund":4344,"ĠFell":4345,"ĠFred":4346,"rukt":4347,"Ġomfatter":4348,"Ġoppfyl":4349,"ĠNo":4350,"ekom":4351,"urset":4352,"ĠBjÃ¸rn":4353,"former":4354,"ĠLek":4355,"ĠPakistan":4356,"okum":4357,"Ġinteg":4358,"ordin":4359,"senter":4360,"unnen":4361,"ĠmÃ¥ter":4362,"irma":4363,"Ġco":4364,"ktig":4365,"Ġrefer":4366,"Ġminer":4367,"vide":4368,"Ġkombin":4369,"Ġdelen":4370,"Ġvises":4371,"Ġsystemet":4372,"esider":4373,"ĠkjÃ¸per":4374,"Ġhjelper":4375,"gift":4376,"ollen":4377,"torer":4378,"rank":4379,"ĠÃ¥pent":4380,"region":4381,"Ġperf":4382,"Ġmusik":4383,"ĠKarakteristikk":4384,"Ġglass":4385,"Ġbenyttet":4386,"grupper":4387,"Ġforskjellig":4388,"itivt":4389,"ĠUndersÃ¸k":4390,"Ġjuli":4391,"Ġrettes":4392,"Ġsentrum":4393,"www":4394,"Ġbutikker":4395,"ĠunngÃ¥":4396,"ĠFormannskap":4397,"Ġbanen":4398,"Ġcelleforandringer":4399,"Ġnormalt":4400,"Ġinspirasjon":4401,"Ġredusere":4402,"Ġsannsynligvis":4403,"ĠlÃ¦ringsutbyttebeskriv":4404,"gjÃ¸re":4405,"ĠFlash":4406,"Ġgave":4407,"Ġbeskriver":4408,"ĠbesÃ¸ke":4409,"Ġavsluttet":4410,"habilitering":4411,"ĠoppfÃ¸lging":4412,"Ġgjensid":4413,"ĠÃ¥ndsverk":4414,"ĠOxford":4415,"ĠÃ©n":4416,"Har":4417,"Hvis":4418,"Noen":4419,"bes":4420,"borg":4421,"hjem":4422,"mod":4423,"ts":4424,"vinn":4425,"vest":4426,"vatnet":4427,"xt":4428,"yer":4429,"ĠÃ¦r":4430,"Ġ01":4431,"Ļ¥":4432,"enen":4433,"Ġsem":4434,"Ġslet":4435,"Ġslekt":4436,"Ġol":4437,"ors":4438,"Ã¸se":4439,"Ġhy":4440,"Ġvant":4441,"Ġversjon":4442,"Ġpek":4443,"ĠgrÃ¥":4444,"onn":4445,"Ġtitt":4446,"alp":4447,"Ġleter":4448,"Ġlurer":4449,"Ġmedisin":4450,"amar":4451,"Ġren":4452,"Ġrolle":4453,"Ġutform":4454,"ĠutgjÃ¸r":4455,"Ġutlandet":4456,"Ġstart":4457,"ĠstrÃ¸m":4458,"ĠHot":4459,"Ġomg":4460,"ĠBy":4461,"ĠBeste":4462,"ĠAV":4463,"Ġinntil":4464,"Ġinnov":4465,"ĠKra":4466,"ĠEM":4467,"ĠEuropa":4468,"kers":4469,"angen":4470,"ĠPa":4471,"ada":4472,"Ġ2000":4473,"estene":4474,"ĠmÃ¥ler":4475,"ĠJa":4476,"sstil":4477,"ita":4478,"allen":4479,"ĠIng":4480,"ĠIntroduksjon":4481,"ktiv":4482,"tilskudd":4483,"Ġreal":4484,"Ġreind":4485,"Ġnettsiden":4486,"ĠStat":4487,"ĠCar":4488,"laget":4489,"Ġegner":4490,"Ġsammenh":4491,"grad":4492,"Ġaren":4493,"Ġarbeidspl":4494,"handler":4495,"siktige":4496,"Ġresp":4497,"likevel":4498,"ĠÃ¸ver":4499,"prosjekt":4500,"ĠAll":4501,"Ġplanen":4502,"2012":4503,"Ġstudenter":4504,"Ġendte":4505,"!!!!":4506,"Ġfunger":4507,"Ġgenerelt":4508,"Ġselskapet":4509,"ĠomrÃ¥dene":4510,"samling":4511,"Ġverdier":4512,"Ġledd":4513,"Ġsnakket":4514,"SKAP":4515,"treff":4516,"Ġsof":4517,"ĠsÃ¸knad":4518,"Ġbetydelig":4519,"Ġerotisk":4520,"Ġhuske":4521,"kalte":4522,"Ġgrunnlaget":4523,"Ġfortsetter":4524,"sjef":4525,"Ġforresten":4526,"Ġlegges":4527,"lÃ¸sning":4528,"Ġtrygghet":4529,"Ġslags":4530,"Ġprivate":4531,"Ġbevisst":4532,"Ġdefinitivt":4533,"Ġfylkeskommun":4534,"adresse":4535,"atistikk":4536,"ĠFastsatt":4537,"ĠProsedyre":4538,"Ġsjelden":4539,"Ġpappa":4540,"Ġtilsvarende":4541,"Ġreindrift":4542,"02":4543,"LÃ¦replan":4544,"ST":4545,"Vel":4546,"dommen":4547,"fjell":4548,"hver":4549,"ipp":4550,"jed":4551,"lt":4552,"oog":4553,"panelet":4554,"restad":4555,"yst":4556,"enk":4557,"enet":4558,"ĠsÃ¸te":4559,"etak":4560,"Ã¥te":4561,"Ġful":4562,"organis":4563,"Ġdans":4564,"Ġdrift":4565,"Ġdommer":4566,"anter":4567,"anlegg":4568,"Ġmon":4569,"Ġmaster":4570,"Ġhap":4571,"Ġvente":4572,"tegi":4573,"Ġkrist":4574,"Ġkamera":4575,"Ġpunkt":4576,"Ġpedagog":4577,"Ġpizz":4578,"edrag":4579,"Ġforhandling":4580,"Ġforbered":4581,"sken":4582,"ree":4583,"ĠnÃ¸":4584,"Ġneg":4585,"alske":4586,"sta":4587,"Ġtriv":4588,"Ġlar":4589,"atene":4590,"atch":4591,"ĠSosi":4592,"igh":4593,"Ġrom":4594,"Ġrim":4595,"Ġstengt":4596,"ĠHos":4597,"ĠHÃ¸g":4598,"ĠFil":4599,"ĠFlere":4600,"ĠMus":4601,"ĠMic":4602,"ekon":4603,"enting":4604,"ĠTha":4605,"ĠVis":4606,"Ġsamle":4607,"Ġsamler":4608,"Ġsammens":4609,"annonser":4610,"ĠPerson":4611,"ĠGa":4612,"ĠGu":4613,"Ġprof":4614,"Ġoverord":4615,"jenesten":4616,"ĠJu":4617,"ĠJan":4618,"otensi":4619,"ogen":4620,"ĠFormÃ¥l":4621,"elvis":4622,"Ġdagene":4623,"Ġevt":4624,"Ġeiendom":4625,"Ġmerket":4626,"Ġhjer":4627,"ĠStr":4628,"ĠStavanger":4629,"ĠCS":4630,"ĠgjennomfÃ¸re":4631,"Ġbeach":4632,"dring":4633,"Ġstemmer":4634,"lubb":4635,"ansvar":4636,"Ġkommunens":4637,"logrupp":4638,"smÃ¸te":4639,"ĠbesÃ¸ker":4640,"imot":4641,"produksjon":4642,"gifter":4643,"strikk":4644,"Ġpersonlige":4645,"iserte":4646,"ĠmÃ¸tt":4647,"Ġleser":4648,"2014":4649,"Ġtrolig":4650,"Ġselve":4651,"ĠomrÃ¥de":4652,"Ġoppdatere":4653,"Ġkulturm":4654,"Ġendret":4655,"Ġopplevelser":4656,"Ġoffentlig":4657,"ĠundersÃ¸kelser":4658,"Ġbursdag":4659,"Ã¦rerutdanning":4660,"afe":4661,"ĠamatÃ¸r":4662,"ĠBruker":4663,"Ġevne":4664,"Ġklubben":4665,"ĠHenvendelser":4666,"Ġtrykk":4667,"Ġthai":4668,"Arbeid":4669,"Ġjevn":4670,"Ġeksisterende":4671,"Ġoppmerksomhet":4672,"Ġartikkelen":4673,"ĠFoto":4674,"direktoratet":4675,"Ġtilbakem":4676,"Ġfagskoleutdanning":4677,"Ġtvers":4678,"21":4679,"23":4680,"25":4681,"45":4682,"Av":4683,"BB":4684,"Om":4685,"SE":4686,"dyr":4687,"fikk":4688,"ikke":4689,"imm":4690,"ips":4691,"kob":4692,"mester":4693,"mÃ¸tet":4694,"okk":4695,"our":4696,"pin":4697,"pass":4698,"ykker":4699,"ÃĨ":4700,"ĠQ":4701,"ĠsÃ¸nn":4702,"Ġfu":4703,"Ġfle":4704,"Ġfro":4705,"Ġfik":4706,"Ġfyr":4707,"Ġfacebook":4708,"ĠdÃ¸r":4709,"anen":4710,"ande":4711,"Ġmis":4712,"arving":4713,"Ġhor":4714,"tic":4715,"Ġbal":4716,"Ġventer":4717,"Ġim":4718,"Ġivaret":4719,"Ġph":4720,"Ġpre":4721,"Ġpga":4722,"Ġparken":4723,"omsÃ¸":4724,"Ġforp":4725,"terte":4726,"ald":4727,"aljer":4728,"stoff":4729,"Ġengelsk":4730,"Ġlyd":4731,"atabas":4732,"ung":4733,"ish":4734,"Ã¸rt":4735,"amme":4736,"ĠDere":4737,"Ġutn":4738,"ĠutfÃ¸rt":4739,"Ġskriv":4740,"akne":4741,"akten":4742,"aktig":4743,"ĠHol":4744,"ĠFj":4745,"rus":4746,"Ã¥rs":4747,"Ġoppgaver":4748,"ĠNR":4749,"ĠNatur":4750,"ĠBolog":4751,"Ġgjeng":4752,"ussen":4753,"Ġallikevel":4754,"ĠEm":4755,"Ġliste":4756,"stead":4757,"Ġinform":4758,"ellet":4759,"lov":4760,"ĠGi":4761,"ĠGl":4762,"ĠGre":4763,"spolitikk":4764,"oster":4765,"Ġnyt":4766,"iten":4767,"Ã¸nne":4768,"Ġleker":4769,"Ġleken":4770,"ĠCam":4771,"ĠCir":4772,"ĠgjennomfÃ¸ring":4773,"deles":4774,"atikk":4775,"abell":4776,"drene":4777,"Ġannonse":4778,"ĠennÃ¥":4779,"sjÃ¸":4780,"ledes":4781,"Ġviss":4782,"Ġarke":4783,"Ġgrunner":4784,"Ġnede":4785,"ĠfÃ¸lelser":4786,"smodell":4787,"Ġenkle":4788,"knikk":4789,"yttelse":4790,"Ġ80":4791,"Ġturer":4792,"Ġholdt":4793,"Ġlesb":4794,"ĠmÃ¥lene":4795,"ÃĺR":4796,"!!!":4797,"Ġonsdag":4798,"ampstead":4799,"Ġsupp":4800,"Ġstrikk":4801,"ĠOrrestad":4802,"ows":4803,"gruppe":4804,"iteen":4805,"Ġstyret":4806,"Ġklikke":4807,"Ġlokal":4808,"ĠStudent":4809,"Ġsosialfag":4810,"ĠMÃ¥let":4811,"Ġamb":4812,"Ġresultatene":4813,"ĠoppstÃ¥r":4814,"Ġenerg":4815,"Ġanbefale":4816,"Ġanbefaler":4817,"Ġutfordringer":4818,"Ġluft":4819,"Ġpasient":4820,"ĠResultat":4821,"Ġarranger":4822,"omantikk":4823,"Ġinnsats":4824,"ĠBarnehagen":4825,"ĠavgjÃ¸rende":4826,"poeng":4827,"oterape":4828,"Ġforutset":4829,"Ġoptim":4830,"Ġsildenafil":4831,"Ġhaplogrupp":4832,"ĠOrrestadvatnet":4833,",-":4834,"22":4835,"BE":4836,"EG":4837,"SL":4838,"UL":4839,"ai":4840,"bed":4841,"fe":4842,"ham":4843,"itet":4844,"ju":4845,"nelsen":4846,"oc":4847,"ood":4848,"sutvikling":4849,"selva":4850,"ting":4851,"tene":4852,"vensjon":4853,"engen":4854,"Ġsat":4855,"Ġsmer":4856,"Ġsaks":4857,"Ġorienter":4858,"ines":4859,"Ġfris":4860,"Ġfjern":4861,"orer":4862,"Ġmill":4863,"elem":4864,"armer":4865,"Ġbla":4866,"Ġvind":4867,"Ġamerik":4868,"Ġkul":4869,"Ġpu":4870,"Ġplu":4871,"skj":4872,"Ġgull":4873,"Ġtider":4874,"Ġerst":4875,"Ġumu":4876,"Ġumiddel":4877,"Ġendre":4878,"Ġenige":4879,"iland":4880,"Ã¸rte":4881,"ĠSc":4882,"ĠSvar":4883,"ĠSch":4884,"verks":4885,"Ġros":4886,"Ġrester":4887,"Ġrussisk":4888,"Ġutred":4889,"rike":4890,"Ġskad":4891,"Ġstol":4892,"Ġstyre":4893,"ĠHal":4894,"ĠHell":4895,"ĠHans":4896,"ĠHampstead":4897,"ĠFisk":4898,"ĠMod":4899,"Ġoppg":4900,"ĠNM":4901,"urtig":4902,"ĠBli":4903,"ĠBon":4904,"ĠBok":4905,"Ġinnv":4906,"ĠKl":4907,"ĠKle":4908,"forening":4909,"ĠEx":4910,"ĠLille":4911,"annia":4912,"Ġinstru":4913,"Ġspr":4914,"Ġspis":4915,"bevis":4916,"veis":4917,"Ġsitte":4918,"ĠJernbane":4919,"alifik":4920,"ject":4921,"tilbud":4922,"Ġ38":4923,"Ġrek":4924,"Ġnettverk":4925,"Ġepost":4926,"Ġgodkjenning":4927,"Ġteam":4928,"Ġgjennomsnitt":4929,"delen":4930,"opplev":4931,"Ġstede":4932,"ĠâĢ¦":4933,"grammer":4934,"ĠhÃ¸ye":4935,"ektor":4936,"gangen":4937,"Ġarb":4938,"Ġbetale":4939,"Ġneder":4940,"ĠlÃ¦rere":4941,"Ġvirke":4942,"Ġvirksom":4943,"ĠUtvik":4944,"Ġ197":4945,"indows":4946,"ologiske":4947,"Ġutdanningsprogram":4948,"Ġ70":4949,"Ġskjema":4950,"Ġpersonlig":4951,"ĠArk":4952,"Ġtenkte":4953,"Ġdatama":4954,"Ġparti":4955,"feranse":4956,"ristine":4957,"ÃĺY":4958,"Ġspilte":4959,"Ġselge":4960,"Ġmotiv":4961,"ĠfullfÃ¸rt":4962,"ĠKvinn":4963,"Ġinnholdet":4964,"ĠstÃ¸tter":4965,"Ġprosentand":4966,"virkning":4967,"Ġjobben":4968,"klubb":4969,"Ġteknisk":4970,"ause":4971,"Ġsamfunnet":4972,"Ġforny":4973,"Ġpartene":4974,"struktur":4975,"Ġdrink":4976,"Ġlavere":4977,"Ġerotikk":4978,"Ġoppgavene":4979,"ĠRegion":4980,"ĠpopulÃ¦re":4981,"ĠpopulÃ¦rt":4982,"ĠBruk":4983,"Ġekteskap":4984,"ĠÃ¸konomiske":4985,"Ġperiode":4986,"Ġsituasjoner":4987,"Ġeuropeisk":4988,"Ġaksep":4989,"ristians":4990,"ĠNettdating":4991,"Ġrisiko":4992,"ĠUtdanningsdirektoratet":4993,"ĠuralsprÃ¥klige":4994,"ĠDrammen":4995,"ĠBologna":4996,"ITE":4997,"Inn":4998,"RA":4999,"RU":5000,"To":5001,"Ut":5002,"bra":5003,"bal":5004,"bÃ¸ker":5005,"fon":5006,"histor":5007,"ksi":5008,"kraftig":5009,"mene":5010,"mek":5011,"ose":5012,"son":5013,"sliv":5014,"tannia":5015,"ube":5016,"vÃ¥":5017,"Ġ#":5018,"ĠÐ":5019,"Ġfes":5020,"Ġdann":5021,"Ġdelvis":5022,"anne":5023,"Ġment":5024,"ele":5025,"elÃ¸p":5026,"Ã¸ter":5027,"ĠhÃ¥r":5028,"Ġhodet":5029,"Ġas":5030,"Ġau":5031,"Ġkob":5032,"Ġir":5033,"Ġprem":5034,"esenter":5035,"omad":5036,"Ġforbe":5037,"Ġforfatter":5038,"skland":5039,"Ġgro":5040,"Ġnaken":5041,"ĠtilnÃ¦r":5042,"alene":5043,"alafil":5044,"Ġtv":5045,"ĠtÃ¸":5046,"Ġens":5047,"Ġlange":5048,"unne":5049,"ĠSn":5050,"ĠSing":5051,"ĠSak":5052,"ĠSlik":5053,"Ġjf":5054,"igrupp":5055,"ĠDire":5056,"ennet":5057,"ligst":5058,"Ġryd":5059,"Ġutro":5060,"Ġutvid":5061,"Ġuteliv":5062,"risk":5063,"Ġskiller":5064,"Ġskader":5065,"andra":5066,"ĠFjell":5067,"ĠMu":5068,"ĠMon":5069,"ĠMann":5070,"ĠMÃĺTE":5071,"Ġomtrent":5072,"Ġoppf":5073,"ĠNasjonal":5074,"ekte":5075,"ĠBeg":5076,"ĠBÃ¥de":5077,"Ġgjent":5078,"ĠAvis":5079,"Ġinnled":5080,"ĠKong":5081,"ush":5082,"ĠTekn":5083,"ĠEd":5084,"ĠLik":5085,"ĠLÃ¦replan":5086,"Ġsamhandling":5087,"Ġkjenne":5088,"adalafil":5089,"Ġvare":5090,"Ġvarm":5091,"steder":5092,"sendt":5093,"Ġmening":5094,"Ã¸ya":5095,"Ã¸yt":5096,"vei":5097,"isten":5098,"Ġettersom":5099,"Ġtran":5100,"alie":5101,"Ġderimot":5102,"Ġkonser":5103,"ygt":5104,"Ġreis":5105,"Ġgodkj":5106,"Ġhelhet":5107,"Ġtemper":5108,"Ġminim":5109,"Ġundergrunn":5110,"ĠgjennomgÃ¥tt":5111,"ĠVictor":5112,"Ġbruken":5113,"vente":5114,"Ġordre":5115,"Ġflest":5116,"Ġgrunnskolel":5117,"Ġnedenfor":5118,"Ġtrekke":5119,"ĠkjÃ¸pte":5120,"Ġbestemmer":5121,"Ġbestil":5122,"Ġfaglige":5123,"ĠÃ¸vrig":5124,"ica":5125,"prosjektet":5126,"somhet":5127,"Ġplanlagt":5128,"ĠMedlem":5129,"Ġretten":5130,"entligvis":5131,"2013":5132,"Ġ189":5133,"Ġstudier":5134,"Ã¸rsmÃ¥let":5135,"Ġtrodde":5136,"Ġtyp":5137,"Ġfarge":5138,"Ġsukker":5139,"Ġklarte":5140,"Ġhandling":5141,"styret":5142,"styring":5143,"agram":5144,"ĠKari":5145,"sprosessen":5146,"Ġoppdateringer":5147,"Ġsnakk":5148,"kommende":5149,"ĠEldre":5150,"own":5151,"Ġvurdert":5152,"Ġsaker":5153,"Ġendring":5154,"Ġfilmene":5155,"Ġjurid":5156,"ussland":5157,"ĠsÃ¸rge":5158,"ĠundersÃ¸kelse":5159,"Ġorganisasjon":5160,"legger":5161,"ĠÃ¸yeb":5162,"ĠlÃ¦rerutdanning":5163,"Ġklubber":5164,"ĠRegistrer":5165,"Ġunntak":5166,"Ġsykdom":5167,"Ġinteresse":5168,"Norsk":5169,"Ġrammeverk":5170,"ĠtilhÃ¸rer":5171,"ĠFinnmark":5172,"utselig":5173,"Ġrepresent":5174,"Ã¥pentligvis":5175,"ĠThor":5176,"ĠÃ¸konomi":5177,"Ġsituasjonen":5178,"gÃ¥rd":5179,"Ġprim":5180,"ĠpÃ¥virker":5181,"Ġtegn":5182,"pleier":5183,"Ġterr":5184,"Ġkampen":5185,"Ġinteressante":5186,"Ġfantastiske":5187,"Ġtilpasse":5188,"Ġtanker":5189,"ĠlÃ¸se":5190,"Ġstudere":5191,"ĠAdministra":5192,"Ġaugust":5193,"personell":5194,"ĠDagens":5195,"Ġoppdaget":5196,"Ġbefolkning":5197,"Ġeksisterer":5198,"Ġtotalt":5199,"Ġskuesp":5200,"ĠFÃ¸lgende":5201,"tikler":5202,"Ġprinsipper":5203,"messig":5204,"Ġkirke":5205,"Ġsteinaldermennesker":5206,"Ġdokumenter":5207,"ĠVoksen":5208,"TrÃ¸ndelag":5209,"gressi":5210,"Ġautomatisk":5211,"Ġigjennom":5212,"Ġoverrask":5213,"Ġdelegasjon":5214,"Ġkonsekvens":5215,"ĠAlex":5216,"Ġdommerne":5217,"Ġtilknyt":5218,"Ġsvenske":5219,"Ġtorsdag":5220,"Ġfungerer":5221,"oogle":5222,"Ġkristne":5223,"Ġumulig":5224,"ĠJernbaneverket":5225,"('":5226,".!":5227,".,":5228,"35":5229,"60":5230,"Dag":5231,"Ja":5232,"NING":5233,"SB":5234,"Sam":5235,"bÃ¦r":5236,"bibliotek":5237,"halsk":5238,"hjelp":5239,"kunnskap":5240,"kjente":5241,"lett":5242,"sess":5243,"sdepartementet":5244,"vol":5245,"Ã¤":5246,"ãĢ":5247,"ðŁ":5248,"Ġ}":5249,"Ġark":5250,"Ġsav":5251,"Ġsov":5252,"Ġswing":5253,"etning":5254,"Ã¥tt":5255,"inert":5256,"Ġfug":5257,"Ġdest":5258,"Ġdvs":5259,"anal":5260,"Ġmag":5261,"Ġmark":5262,"Ġhom":5263,"Ġhas":5264,"Ġhei":5265,"Ġbro":5266,"Ġbibliote":5267,"Ġvr":5268,"Ġass":5269,"Ġkandid":5270,"Ġpen":5271,"Ġpengene":5272,"omandra":5273,"Ġforuts":5274,"sko":5275,"skon":5276,"Ġne":5277,"Ġnavnet":5278,"ras":5279,"Ġul":5280,"Ġulik":5281,"stander":5282,"Ġavvik":5283,"Ġdetalj":5284,"illa":5285,"ĠlÃ¦rt":5286,"unkter":5287,"amper":5288,"Ġrus":5289,"Ġrelig":5290,"lerer":5291,"ĠutÃ¸v":5292,"Ġskade":5293,"ĠHus":5294,"ĠHER":5295,"ĠHei":5296,"ĠMet":5297,"ĠMag":5298,"iddo":5299,"Ġoppt":5300,"Ġoppfordr":5301,"ents":5302,"urte":5303,"ĠBare":5304,"ĠAD":5305,"ĠAktivitet":5306,"Ġinnsikt":5307,"ĠKlikk":5308,"foretak":5309,"ĠTre":5310,"ĠTsjekk":5311,"ĠVenn":5312,"ĠEnd":5313,"Ġlitteratur":5314,"ĠLa":5315,"ĠLiv":5316,"ĠPark":5317,"Ġspist":5318,"Ġspare":5319,"ĠGarn":5320,"spektiv":5321,"ĠUKE":5322,"ssalen":5323,"Ã¸nt":5324,"Ã¸nster":5325,"jekk":5326,"Ġnorges":5327,"Ġkonkret":5328,"ĠForslag":5329,"Ġnettside":5330,"holdet":5331,"Ġhjerte":5332,"ĠStine":5333,"ĠCialis":5334,"umet":5335,"essor":5336,"Ġstem":5337,"letter":5338,"Ġsliter":5339,"Ġlagres":5340,"ettes":5341,"Ġseri":5342,"rivil":5343,"ĠAnal":5344,"last":5345,"Ġfremst":5346,"ĠHvem":5347,"sikten":5348,"ubli":5349,"dio":5350,"Ġvirker":5351,"Ġvirksomhet":5352,"ĠUtrolig":5353,"Ġbedrifter":5354,"ick":5355,"Ġlandets":5356,"produ":5357,"toret":5358,"Ġdesig":5359,"Ġmorsom":5360,"Ġmannen":5361,"ibel":5362,"Ġstudentene":5363,"jema":5364,"Ġ07":5365,"ĠKvinne":5366,"Ġhvilket":5367,"kurs":5368,"Ġklokken":5369,"Ġfotob":5370,"logging":5371,"bilde":5372,"aften":5373,"ĠBarna":5374,"boka":5375,"Ġsterkt":5376,"Ġoppgaven":5377,"yngdals":5378,"Ġresultatet":5379,"Ġinteressert":5380,"Ġdeltakere":5381,"adem":5382,"Ġkoste":5383,"Ġtilgjeng":5384,"andrings":5385,"ĠhÃ¸rt":5386,"kalling":5387,"ĠlÃ¦replan":5388,"ĠtilhÃ¸rende":5389,"Ġfordelt":5390,"rosoft":5391,"ĠkjÃ¸ring":5392,"ĠTidspunkt":5393,"Ġstatus":5394,"ĠVelg":5395,"ĠGenerisk":5396,"Ġsesong":5397,"Ġpresentert":5398,"Ġbenyttes":5399,"Ġforventet":5400,"Ġavtaler":5401,"ĠParis":5402,"Ġhundre":5403,"ĠMidt":5404,"Ġutdanningssystemet":5405,"ĠnÃ¸yaktig":5406,"Ġregistrering":5407,"Ġrettigheter":5408,"Ġinvester":5409,"Ġeksamen":5410,"ĠStian":5411,"ĠmarkedsfÃ¸ring":5412,"britannia":5413,"ĠJÃ¸rgen":5414,"veiledning":5415,"Ġglattstrikk":5416,"Ġressurser":5417,"ĠlÃ¦ringsutbyttebeskrivelser":5418,"ĠEMU":5419,"smodellen":5420,"Ġtilknytning":5421,"halskreft":5422,"/-":5423,"Fra":5424,"TER":5425,"VA":5426,"aff":5427,"ble":5428,"bry":5429,"byen":5430,"databas":5431,"ee":5432,"fulle":5433,"grens":5434,"kse":5435,"kul":5436,"lut":5437,"lÃ¸st":5438,"port":5439,"pBB":5440,"rlighet":5441,"sÃ¸ker":5442,"ura":5443,"veks":5444,"valtning":5445,"eningen":5446,"Ġslo":5447,"Ã¥n":5448,"Ã¥re":5449,"instru":5450,"Ġfi":5451,"Ġfrist":5452,"Ġfaller":5453,"eland":5454,"Ġhurtig":5455,"Ġbri":5456,"Ġbad":5457,"Ġborte":5458,"ĠbÃ¸kene":5459,"Ġvand":5460,"Ġkol":5461,"Ġkatt":5462,"Ġkalt":5463,"Ġpe":5464,"Ġpol":5465,"Ġpus":5466,"Ġpotensi":5467,"omer":5468,"edmark":5469,"egÃ¥r":5470,"Ġforsv":5471,"skl":5472,"skud":5473,"Ġglo":5474,"reis":5475,"reening":5476,"teres":5477,"kka":5478,"alut":5479,"stÃ¸r":5480,"stav":5481,"start":5482,"Ġtal":5483,"Ġtog":5484,"Ġenhver":5485,"Ġlest":5486,"ppene":5487,"isp":5488,"isser":5489,"ĠSo":5490,"ĠSett":5491,"innlegg":5492,"deromantikk":5493,"ĠDi":5494,"ttet":5495,"Ġry":5496,"Ġutdann":5497,"Ġutlend":5498,"Ġskol":5499,"rog":5500,"Ġvit":5501,"akere":5502,"ĠHill":5503,"ĠHamar":5504,"ĠFord":5505,"ĠopplÃ¦r":5506,"ĠNov":5507,"ĠBu":5508,"ĠBef":5509,"ĠAP":5510,"ĠAp":5511,"Ġinnstilling":5512,"Ġinnvendig":5513,"ĠinngÃ¥tt":5514,"ĠKir":5515,"fort":5516,"ĠTan":5517,"ĠEli":5518,"ĠErik":5519,"Ġlisten":5520,"ĠLÃ¦r":5521,"ĠLys":5522,"ĠLeder":5523,"ĠLars":5524,"Ġsamisk":5525,"Ġsamsvar":5526,"ulti":5527,"ĠPoli":5528,"Ġiniti":5529,"emm":5530,"Ġspor":5531,"ĠRef":5532,"ĠGar":5533,"ĠGarns":5534,"lings":5535,"mmelser":5536,"Ġprote":5537,"Ġoverfor":5538,"ĠJenter":5539,"Ġbarnas":5540,"Ġnyte":5541,"Ġnyhet":5542,"Ġanke":5543,"Ġtreng":5544,"Ġtrener":5545,"alist":5546,"aliser":5547,"Ã¸nner":5548,"ĠForfall":5549,"rÃ¥ket":5550,"ktige":5551,"Ġ35":5552,"ĠNorway":5553,"ĠhjÃ¸r":5554,"Ġlev":5555,"Ġpriser":5556,"ĠCan":5557,"ĠundersÃ¸kt":5558,"ativitet":5559,"Ġbiler":5560,"drer":5561,"lub":5562,"Ġlagomandra":5563,"Ġ45":5564,"Ġutvikles":5565,"ĠSkal":5566,"yggende":5567,"Ġ2002":5568,"ĠinteriÃ¸r":5569,"Ġbrukernavn":5570,"ĠgÃ¥rd":5571,"Ġbestilling":5572,"Ġ194":5573,"Ġ195":5574,"ĠÃ¸del":5575,"ĠÃĺy":5576,"ice":5577,"Ġfineste":5578,"protokoll":5579,"Ġhjemmel":5580,"Ġ90":5581,"Ġwh":5582,"olleg":5583,"Ġprosed":5584,"klare":5585,"ĠÃħr":5586,"Ġplutselig":5587,"Ġdeltag":5588,"Ġadmin":5589,"Ġbeskjed":5590,"ĠOgsÃ¥":5591,"Ġlevere":5592,"INN":5593,"ĠTilstede":5594,"ĠSprÃ¥k":5595,"Ġlykke":5596,"Ġkreves":5597,"Ġyou":5598,"Ġsenior":5599,"ĠOppdater":5600,"gÃ¥ende":5601,"Ġboken":5602,"setting":5603,"Ġvurderes":5604,"ĠSammen":5605,"asitet":5606,"Ġandel":5607,"Ġkornet":5608,"befolk":5609,"Ġorganisasjoner":5610,"Ġorganisasjonen":5611,"Ġinternasjonalt":5612,"ĠDeretter":5613,"Ġ,-":5614,"ETT":5615,"ĠnÃ¸dvendigvis":5616,"Ġbutikken":5617,"rapporten":5618,"Ġsendes":5619,"2007":5620,"Ġkapittel":5621,"Ġrammeplan":5622,"Ġkontin":5623,"Ġkontaktannonse":5624,"Ġdisku":5625,"tifisering":5626,"vanza":5627,"Ġeventuelt":5628,"morhalskreft":5629,"plassering":5630,"melding":5631,"Ġhotel":5632,"Ġpositiv":5633,"Ġdokumentet":5634,"Ġsesongen":5635,"Ġgrus":5636,"Ġlove":5637,"cial":5638,"ĠMye":5639,"ĠBestille":5640,"ĠprÃ¸vd":5641,"Ġretningslinjer":5642,"Ġproduktene":5643,"ĠDalegarn":5644,"Ġbodde":5645,"Ġrestaurant":5646,"Ġturist":5647,"Ġutforske":5648,"Ġgjeldende":5649,"Ġelevene":5650,"ĠLÃ¦ringsutb":5651,"ĠforelÃ¸pige":5652,"Ġpapir":5653,"ĠMegiddo":5654,"ĠFortsett":5655,"Ġingenting":5656,"ĠDessuten":5657,"ĠtrÃ¥den":5658,"ĠOrdfÃ¸rer":5659,"ĠFormannskapssalen":5660,"Ġgjensidig":5661,"Ġfulgt":5662,"ĠSosial":5663,"Ġrimelig":5664,"ĠgrunnskolelÃ¦rerutdanning":5665,"26":5666,"=Â»":5667,"AK":5668,"EK":5669,"Ikke":5670,"NU":5671,"PP":5672,"Selv":5673,"Stor":5674,"Un":5675,"bili":5676,"cy":5677,"cri":5678,"delig":5679,"day":5680,"eh":5681,"een":5682,"europe":5683,"ften":5684,"hel":5685,"jent":5686,"kar":5687,"kultur":5688,"nok":5689,"nelse":5690,"ness":5691,"poli":5692,"rÃ¸rende":5693,"rommet":5694,"sopp":5695,"setter":5696,"sutvalget":5697,"vurdering":5698,"yskland":5699,"Ġsang":5700,"Ġsunn":5701,"Ġsla":5702,"Ġstilling":5703,"Ġfry":5704,"Ġfrukt":5705,"Ġfrivil":5706,"ĠdÃ¸de":5707,"Ġmak":5708,"eleder":5709,"Ġhente":5710,"Ġhentet":5711,"tiet":5712,"tivis":5713,"Ġvell":5714,"Ġvegg":5715,"Ġvond":5716,"Ġvinner":5717,"Ġvassdraget":5718,"Ġvaksin":5719,"Ġkafe":5720,"ĠifÃ¸lge":5721,"Ġplag":5722,"esh":5723,"eske":5724,"omp":5725,"ĠforsÃ¸ke":5726,"skv":5727,"onal":5728,"rep":5729,"teren":5730,"Ġufor":5731,"Ġuly":5732,"Ġenig":5733,"unger":5734,"Ġjernban":5735,"iga":5736,"ĠrÃ¥":5737,"ĠrÃ¸r":5738,"Ġrart":5739,"Ġrunde":5740,"olke":5741,"Ġsko":5742,"akse":5743,"Ġstab":5744,"Ġstoff":5745,"ĠFolk":5746,"ĠMiljÃ¸":5747,"ĠMatematikk":5748,"Ġdef":5749,"Ġdekke":5750,"etting":5751,"Ġomk":5752,"entral":5753,"ĠBod":5754,"ĠBegge":5755,"nevn":5756,"Ġinntrykk":5757,"ĠKn":5758,"ĠKort":5759,"ĠKurset":5760,"ĠVg":5761,"ĠVenner":5762,"ĠLang":5763,"ĠLou":5764,"annen":5765,"Ġhvite":5766,"Ġkjennet":5767,"ĠPr":5768,"ikken":5769,"ĠRapp":5770,"Ġmenings":5771,"ĠGoogle":5772,"veit":5773,"osjon":5774,"irsdag":5775,"Ġcont":5776,"its":5777,"Ġetterhvert":5778,"Ġant":5779,"Ġtrygt":5780,"alisert":5781,"Ġnorwegian":5782,"vard":5783,"ffet":5784,"Ġklasser":5785,"Ġnettbutikk":5786,"Ġep":5787,"assage":5788,"ativet":5789,"vider":5790,"opplÃ¦ring":5791,"Ġstemme":5792,"ketÃ¸y":5793,"ĠâĢĶ":5794,"Ġregler":5795,"Ġslippe":5796,"Ġutvikler":5797,"Ġflink":5798,"Ġsextreff":5799,"Ġserver":5800,"ĠEngeb":5801,"Ġbetong":5802,"Ġfremdeles":5803,"eside":5804,"Ġtrekk":5805,"Ġbestevenn":5806,"smÃ¸tet":5807,"ĠvÃ¥ren":5808,"ĠWitt":5809,"ĠWindows":5810,"ĠÃĺkt":5811,"Ġlandene":5812,"Ġbytte":5813,"active":5814,"Ġbegynt":5815,"Ġsynlig":5816,"fÃ¸lgende":5817,"Ġadvok":5818,"2010":5819,"plassen":5820,"Ġleveres":5821,"ĠTromsÃ¸":5822,"Ġsamtlige":5823,"ĠmÃ¸tes":5824,"system":5825,"Ġspillere":5826,"Ġfylles":5827,"frika":5828,"ĠKvalitet":5829,"Ġblomster":5830,"usjonen":5831,"likter":5832,"iverse":5833,"Ġfolkegrupp":5834,"Ġgruppen":5835,"Ġsvare":5836,"Ġsvarte":5837,"Ġkvalitets":5838,"ĠEller":5839,"ĠEllers":5840,"Ġvurderer":5841,"Ġshow":5842,"Ġteknologi":5843,"Ġopplevelsen":5844,"Ġtilfel":5845,"Ġtemaer":5846,"Ġdrin":5847,"ĠStudie":5848,"Ġvindu":5849,"Ġvanligvis":5850,"Ġinternasjonal":5851,"Ġtjenesten":5852,"ĠArbeidet":5853,"ĠÃ¸ynene":5854,"Ġsoker":5855,"ĠfÃ¸le":5856,"ĠAvdeling":5857,"vidt":5858,"Ġkapital":5859,"Ġstrand":5860,"ĠlÃ¸sning":5861,"ĠlÃ¸sninger":5862,"Ġkostnad":5863,"ĠAlta":5864,"ext":5865,"Ġmeldinger":5866,"ĠoppnÃ¥d":5867,"Ġopprette":5868,"Ġnormal":5869,"Ġkoster":5870,"Ġeventuelle":5871,"Ġredusert":5872,"Ġpasienter":5873,"Ġinstaller":5874,"Ġsannsynlig":5875,"Ġstuder":5876,"ĠspÃ¸rre":5877,"Ġpositive":5878,"Ġforetak":5879,"Ġopprettet":5880,"Ġbefolkningen":5881,"ĠgrÃ¸nnsaker":5882,"Ġbeskrive":5883,"Ġoppmerksom":5884,"Ġartikkel":5885,"Ġengasjem":5886,"ĠKunnskapsdepartementet":5887,"Ġhindre":5888,"ĠskjÃ¸nner":5889,"Ġhovedsakelig":5890,"Ġsterkere":5891,"ĠIKT":5892,"Ġobserv":5893,"Ġblandings":5894,"Ġfiguren":5895,"ĠleverandÃ¸r":5896,"ĠleverandÃ¸rer":5897,"ĠâĻ¥":5898,"birske":5899,"utepunkt":5900,"Ġdobbelt":5901,"Ġidentif":5902,"Ġforventninger":5903,"ĠFinland":5904,"ĠForhÃ¥nds":5905,"Ġkonkurransen":5906,"Ġopprinnelige":5907,"Ġopplysninger":5908,"Ġdistri":5909,"Ġdebatt":5910,"Ġgenetisk":5911,"smessig":5912,"summering":5913,"Ġasiatiske":5914,"folket":5915,"ĠbÃ¦rekraftig":5916,"Ġvesentlig":5917,"vinning":5918,"ĠÃ¦rlig":5919,"Ġolje":5920,"Ġpeker":5921,"Ġsofaen":5922,"Ġfylkeskommune":5923,"Ġpizza":5924,"Ġtrivsel":5925,"ĠHÃ¸gskolen":5926,"ÃĨR":5927,"BEID":5928,"armerende":5929,"Ġamerikanske":5930,"Ġumiddelbart":5931,"Ġresterende":5932,"Ġfestiv":5933,"Ġundergrunnen":5934,"Ġtilgjengelige":5935,"skuddet":5936,"Ġkontinuer":5937,"=Â»Â»":5938,",.":5939,"Bok":5940,"DR":5941,"DS":5942,"HO":5943,"LE":5944,"Min":5945,"MÃĺTE":5946,"PROTOKOLL":5947,"TNU":5948,"ben":5949,"bur":5950,"blem":5951,"brev":5952,"data":5953,"fak":5954,"fly":5955,"funksjon":5956,"hv":5957,"job":5958,"kle":5959,"kester":5960,"kunst":5961,"nsker":5962,"oger":5963,"sland":5964,"sgiver":5965,"to":5966,"Ã¨":5967,"Ð°":5968,"ĠðŁ":5969,"Ġsens":5970,"Ġsant":5971,"Ã¥l":5972,"inke":5973,"indel":5974,"instit":5975,"Ġfan":5976,"ĠfÃ¦r":5977,"Ġfjord":5978,"ĠdÃ¸":5979,"Ġdriv":5980,"anten":5981,"Ġminner":5982,"elskap":5983,"eldre":5984,"arte":5985,"Ġhenger":5986,"ĠhÃ¸g":5987,"Ġhttp":5988,"Ġbook":5989,"Ġbachelor":5990,"Ġvek":5991,"Ġkle":5992,"Ġkat":5993,"Ġkred":5994,"Ġkaller":5995,"Ġif":5996,"Ġpause":5997,"Ġforsiktig":5998,"Ġgay":5999,"ony":6000,"Ġnes":6001,"Ġnakne":6002,"kkelen":6003,"Ġtillit":6004,"alle":6005,"strem":6006,"Ġavdeling":6007,"ilsen":6008,"illere":6009,"unge":6010,"ĠSV":6011,"ĠSaks":6012,"verdig":6013,"ams":6014,"amet":6015,"ammen":6016,"Ġjus":6017,"iger":6018,"liggende":6019,"Ġring":6020,"Ġroman":6021,"Ġutarbeidet":6022,"Ġutgitt":6023,"Ġskrev":6024,"Ġvivanza":6025,"ĠstÃ¸y":6026,"Ġstasjonen":6027,"ĠHver":6028,"ĠHens":6029,"ĠHilde":6030,"ĠHedmark":6031,"ĠFar":6032,"ĠFigur":6033,"ĠFrank":6034,"ĠMÃ¸t":6035,"Ġdekker":6036,"ident":6037,"Ġoppe":6038,"Ġoppover":6039,"ĠNOK":6040,"ĠBet":6041,"ĠIt":6042,"ĠinnkjÃ¸p":6043,"user":6044,"Ġkant":6045,"kehus":6046,"ĠEro":6047,"ĠLeg":6048,"ĠLok":6049,"ĠLund":6050,"ĠLyngdals":6051,"Ġsamarbeide":6052,"Ġdug":6053,"ĠkjÃ¦re":6054,"ĠPri":6055,"ĠPrÃ¸":6056,"stemm":6057,"site":6058,"ĠsÃ¥kalte":6059,"Ġspiste":6060,"avgift":6061,"loven":6062,"ĠRett":6063,"ĠGj":6064,"Ġunike":6065,"Ġsies":6066,"ĠÃ¥rsak":6067,"ĠUansett":6068,"Ġnylig":6069,"Ġnydelig":6070,"ssik":6071,"Ġankom":6072,"Ġtrygge":6073,"Ġkong":6074,"ĠInstall":6075,"tillit":6076,"ffer":6077,"Ġ34":6078,"Ġ36":6079,"Ġrekl":6080,"legges":6081,"vise":6082,"Ġunderlag":6083,"enget":6084,"Ġekster":6085,"Ġekstrem":6086,"ivid":6087,"oppgave":6088,"Ġregnet":6089,"Ġmennene":6090,"Ġmuse":6091,"yldig":6092,"Ġvisst":6093,"landsk":6094,"Ġsyklus":6095,"redning":6096,"ĠAnders":6097,"Ġfremtiden":6098,"ĠfÃ¸lte":6099,"Ġvirket":6100,"Ġgodtar":6101,"Ġkommersi":6102,"Ġ198":6103,"ERING":6104,"ĠnÃ¦rheten":6105,"Ġskjul":6106,"Ġpersonlighet":6107,"Ġpersonvern":6108,"resentasjon":6109,"faglig":6110,"Ġmilf":6111,"Ġferie":6112,"Ġdeltok":6113,"Ġsmil":6114,"Ġbeskrives":6115,"ĠtenÃ¥r":6116,"Ġparker":6117,"ferie":6118,"Ġlevert":6119,"Ġvannet":6120,"Ġstudiet":6121,"Ġlivmorhalskreft":6122,"Ġmestring":6123,"Ġrelativt":6124,"Ġfungere":6125,"ĠSpesi":6126,"ĠÃ¸kte":6127,"Ġfylket":6128,"Ġlykkelig":6129,"Ġselger":6130,"gaven":6131,"ĠKarls":6132,"Ġpresse":6133,"ower":6134,"Ġdrama":6135,"Ġsamarbeidet":6136,"Ġprisen":6137,"Ġsamfunns":6138,"Ġtilfred":6139,"Ġkorn":6140,"Ġklima":6141,"Ġvint":6142,"ĠsÃ¸ringer":6143,"Ġpasset":6144,"Ġsentrale":6145,"kvalitet":6146,"Ġscenen":6147,"Ġ+/-":6148,"OLS":6149,"Ġgjenopp":6150,"Ġdrikke":6151,"rapporter":6152,"Ġkunstner":6153,"Ġadministrasjon":6154,"Ġpraksisrapporter":6155,"Ġisrael":6156,"rikstad":6157,"Ġdigital":6158,"Ġkose":6159,"ĠnÃ¦rmeste":6160,"ĠlÃ¦ringsutbyttet":6161,"lÃ¥n":6162,"Ġstrateg":6163,"Ġstiller":6164,"Stud":6165,"Ġalderen":6166,"Ġtoppen":6167,"Ġanaly":6168,"Ġtanke":6169,"Ġlogge":6170,"ĠÃĺstfold":6171,"Ġdreier":6172,"ĠOversikt":6173,"Ġdessuten":6174,"Ġbordet":6175,"Ġvariert":6176,"Ġinviterer":6177,"stykket":6178,"ĠforhÃ¥pentligvis":6179,"Ġgulv":6180,"ĠIKKE":6181,"Ġdokumen":6182,"Ġrepresenterer":6183,"ĠPlay":6184,"Bruker":6185,"Ġregjeringen":6186,"ĠDalegarns":6187,"emiddel":6188,"Ġitali":6189,"ĠSvein":6190,"Ġkjempeg":6191,"Ġtilrettelegg":6192,"ĠHaugen":6193,"ĠcelleprÃ¸ve":6194,"Ġ;)":6195,"ĠbyrÃ¥":6196,"Ġoffisielle":6197,"ĠUniversitetet":6198,"Ġtilpasset":6199,"Ġrealkompetanse":6200,"Ġreindriftsn":6201,"ĠMicrosoft":6202,"Ġoverordnede":6203,"Ġhjertet":6204,"ĠQu":6205,"oterapeut":6206,"Ġtypisk":6207,"Ġomkring":6208,"ĠBodÃ¸":6209,"Ġkjenneteg":6210,"Ġkontinuerlig":6211,".Â»":6212,"500":6213,":)":6214,"Alt":6215,"DL":6216,"Han":6217,"Hun":6218,"JÃĺ":6219,"LU":6220,"Quer":6221,"SJ":6222,"SV":6223,"Soft":6224,"Vennskap":6225,"ain":6226,"best":6227,"ces":6228,"cookies":6229,"fast":6230,"ho":6231,"hund":6232,"hard":6233,"iat":6234,"ius":6235,"jul":6236,"ko":6237,"ksten":6238,"kninger":6239,"kningen":6240,"lf":6241,"mes":6242,"nen":6243,"rere":6244,"rert":6245,"rette":6246,"ssk":6247,"sene":6248,"sse":6249,"sere":6250,"val":6251,"voll":6252,"ykke":6253,"Ġset":6254,"Ġsor":6255,"Ġsur":6256,"inister":6257,"Ġfelt":6258,"Ġfran":6259,"Ġfvt":6260,"Ġfeltet":6261,"Ġfril":6262,"Ġdus":6263,"anje":6264,"Ġmm":6265,"Ġmik":6266,"Ġmili":6267,"arch":6268,"Ġhek":6269,"Ġbab":6270,"Ġkall":6271,"Ġkult":6272,"Ġkaffe":6273,"egjen":6274,"Ġforsik":6275,"Ġgaran":6276,"remm":6277,"Ġtide":6278,"Ġnom":6279,"Ġtilstand":6280,"Ġerob":6281,"Ġavis":6282,"Ġavdel":6283,"aser":6284,"ĠlÃ¸y":6285,"Ġlakse":6286,"unk":6287,"ppa":6288,"ppel":6289,"isme":6290,"ĠSj":6291,"ĠSem":6292,"ĠSommer":6293,"ĠjQuer":6294,"igg":6295,"light":6296,"Ġreder":6297,"ĠrÃ¸de":6298,"Ġutb":6299,"Ġutarbeide":6300,"sex":6301,"ric":6302,"rip":6303,"Ġskaffe":6304,"Ġstatistikk":6305,"ĠFikk":6306,"ĠFall":6307,"ĠFjern":6308,"Ġetn":6309,"ĠMad":6310,"ĠMÃ¸tet":6311,"Ã¥rig":6312,"Ġoppdrett":6313,"ĠNeste":6314,"ika":6315,"iken":6316,"ĠBro":6317,"ĠBlant":6318,"ĠII":6319,"asjonsmodellen":6320,"ĠinnrÃ¸":6321,"ĠKom":6322,"ĠKris":6323,"formen":6324,"foreningen":6325,"ĠTakk":6326,"ĠTrafikk":6327,"ĠTema":6328,"ĠVG":6329,"ĠVan":6330,"ĠVil":6331,"ĠVÃ¦r":6332,"ĠEsk":6333,"ĠEgen":6334,"ĠEvent":6335,"ĠLOS":6336,"kerne":6337,"Ġsamspill":6338,"Ġhvit":6339,"ĠPeder":6340,"aden":6341,"sim":6342,"sili":6343,"elling":6344,"ikker":6345,"load":6346,"utstyr":6347,"ĠRob":6348,"ĠRussisk":6349,"ĠRussland":6350,"Ġbruks":6351,"Ġunik":6352,"spesi":6353,"ĠmÃ¥le":6354,"ksess":6355,"Ġkommenter":6356,"irl":6357,"ĠJes":6358,"Ġanled":6359,"Ġanledning":6360,"Ġanvend":6361,"Ġanmeld":6362,"jef":6363,"mentering":6364,"ĠInst":6365,"mert":6366,"Ġ32":6367,"Ġ37":6368,"Ġklassi":6369,"undet":6370,"Ġrevisjon":6371,"vises":6372,"Ġteater":6373,"Ġtemp":6374,"ĠStar":6375,"ĠgjennomfÃ¸res":6376,"abler":6377,"dringer":6378,"dagen":6379,"eskolen":6380,"oppen":6381,"Ġutenom":6382,"Ġegnet":6383,"Ġordet":6384,"ĠhÃ¸yeste":6385,"Ġkvinnelige":6386,"eldinger":6387,"rede":6388,"Ġkommunest":6389,"lade":6390,"Ġ2004":6391,"maskin":6392,"tighet":6393,"Ġinterv":6394,"Ġbrukerkon":6395,"ĠbÃ¥t":6396,"Ã¸ds":6397,"Ġreser":6398,"Ġmotor":6399,"Ġbestemte":6400,"Ġbeslut":6401,"sjoner":6402,"ico":6403,"rÃ¸mmen":6404,"elset":6405,"Ġlands":6406,"Ġbyer":6407,"Ġgiftet":6408,"Ġallmenn":6409,"prosessen":6410,"somrÃ¥":6411,"Ġbegynnelsen":6412,"endene":6413,"klart":6414,"ĠÃ¥pning":6415,"asjonsdatabas":6416,"ĠÃħrets":6417,"Ġjourn":6418,"rettet":6419,"Ġspesif":6420,"kontakt":6421,"lesund":6422,"Ġmuligens":6423,"Ġaktivt":6424,"Ġlesere":6425,"lÃ¦rer":6426,"2011":6427,"Ġdato":6428,"Ġmoro":6429,"Ġmorsomt":6430,"sbas":6431,"ĠnivÃ¥et":6432,"isjoner":6433,"ĠSpekter":6434,"Ġspillet":6435,"ĠInteractive":6436,"arkedet":6437,"ĠOppdrag":6438,"hÃ¥ndssensur":6439,"TET":6440,"Ġegenskaper":6441,"Ġsnill":6442,"ĠKvalifik":6443,"ĠNordland":6444,"sharving":6445,"Ġpolitiske":6446,"Ġsjanse":6447,"Ġsjarmerende":6448,"omrÃ¥dene":6449,"ForhÃ¥ndssensur":6450,"Ġhender":6451,"Ġmidler":6452,"ANG":6453,"ĠEllen":6454,"revende":6455,"Ġoftest":6456,"Ġendrer":6457,"Ġtekniske":6458,"ĠSamtidig":6459,"ĠBerg":6460,"finansi":6461,"banen":6462,"SKR":6463,"Ġetablering":6464,"ĠspÃ¸rsmÃ¥lene":6465,"Ġdrive":6466,"Ġstimu":6467,"ensurmÃ¸te":6468,"Ġsommeren":6469,"2006":6470,"Ġhusk":6471,"ĠhÃ¸rings":6472,"Ġmetod":6473,"Ġutgangspunktet":6474,"ĠtilhÃ¸r":6475,"ĠHeldigvis":6476,"Ġkonto":6477,"Ġstraff":6478,"ĠdirektÃ¸r":6479,"Ġdiskusjon":6480,"Ġtrenere":6481,"fjorden":6482,"fullt":6483,"ĠINN":6484,"Ġinstall":6485,"undersÃ¸kelsen":6486,"Ġkommentarer":6487,"Ġtestet":6488,"sidene":6489,"Ġjevnt":6490,"Ġlunsj":6491,"Ġinvitere":6492,"Ġforebygge":6493,"ĠRelasjonsmodellen":6494,"Ġsteinaldermenneskene":6495,"Ġlinje":6496,"Ġrepresentert":6497,"Ġsentralt":6498,"Ġhumor":6499,"Ġvedlikehold":6500,"ĠForhÃ¥ndssensur":6501,"Ġkonkurranser":6502,"ĠSenere":6503,"ĠÃ¸vre":6504,"Ġfanget":6505,"Ġarrangement":6506,"Ġhjemmeside":6507,"ĠforhÃ¥ndssensurmÃ¸tet":6508,"ĠforhÃ¥ndssensurrapporten":6509,"Ġveiledning":6510,"leverand":6511,"Ġelementer":6512,"speriode":6513,"ĠDanmark":6514,"Ġperfekt":6515,"ĠPaul":6516,"Ġkameraet":6517,"immel":6518,"Ġdatamaskin":6519,"omadene":6520,"Ġtemperatur":6521,"Dagens":6522,"ĠAktiviteter":6523,"Ġstemning":6524,"Ġfotobok":6525,"ĠLÃ¦ringsutbytte":6526,"europeiske":6527,"nevnte":6528,"ĠForhÃ¥ndsensurmÃ¸te":6529,"BEIDS":6530,"Ġmilit":6531,"ĠjQuery":6532,"ForhÃ¥ndssensurrapport":6533,"!)":6534,"-/":6535,"31":6536,"57":6537,"??":6538,"AV":6539,"Alle":6540,"Bil":6541,"End":6542,"IP":6543,"Kj":6544,"Kan":6545,"KER":6546,"SF":6547,"bler":6548,"bak":6549,"cc":6550,"cam":6551,"fest":6552,"fot":6553,"fiske":6554,"glede":6555,"hav":6556,"helse":6557,"jt":6558,"lgÃ¥rd":6559,"mat":6560,"mak":6561,"pene":6562,"ringer":6563,"sberg":6564,"tÃ¸y":6565,"tjenester":6566,"ule":6567,"ual":6568,"ystem":6569,"Ã¼":6570,"erg":6571,"Ġsoli":6572,"eto":6573,"inen":6574,"inst":6575,"inde":6576,"Ġfm":6577,"Ġfart":6578,"Ġfaste":6579,"Ġfirma":6580,"Ġdam":6581,"Ġdir":6582,"Ġdiverse":6583,"Ġmakt":6584,"Ġmelder":6585,"arps":6586,"Ã¸mm":6587,"Ã¸tter":6588,"Ġhyl":6589,"Ġhemm":6590,"time":6591,"Ġblo":6592,"Ġvold":6593,"Ġvandrings":6594,"tekst":6595,"Ġaut":6596,"Ġafter":6597,"Ġkorte":6598,"Ġkolleg":6599,"Ġigang":6600,"Ġport":6601,"Ġpyn":6602,"Ġpic":6603,"Ġpast":6604,"omen":6605,"omet":6606,"inga":6607,"inget":6608,"Ġforedrag":6609,"skri":6610,"skjer":6611,"onde":6612,"Ġnei":6613,"rav":6614,"kkene":6615,"alelse":6616,"steng":6617,"stjern":6618,"Ġenhet":6619,"Ġenheter":6620,"ĠlÃ¸st":6621,"Ġlanser":6622,"Ġlaste":6623,"ĠSK":6624,"ĠSa":6625,"ĠSjekk":6626,"verd":6627,"verdi":6628,"aming":6629,"Ã¦Ã¦":6630,"Ġrut":6631,"Ġrolig":6632,"Ġsky":6633,"ĠHadde":6634,"ĠHMS":6635,"ĠFru":6636,"ĠFysi":6637,"rud":6638,"ĠMal":6639,"idrett":6640,"Ã¥rd":6641,"Ã¥rene":6642,"Ġoppbe":6643,"Ġoppgi":6644,"ĠNott":6645,"ĠNTNU":6646,"ĠAs":6647,"ĠApp":6648,"ĠAfrika":6649,"Ġinngang":6650,"ĠKr":6651,"ĠKri":6652,"ĠKomm":6653,"ĠKlag":6654,"ĠKOLS":6655,"ĠTom":6656,"ĠTirsdag":6657,"ĠER":6658,"Ġsamles":6659,"ulent":6660,"Ġkjrlighet":6661,"ĠPl":6662,"ĠPort":6663,"ĠPetter":6664,"ĠPorn":6665,"oks":6666,"okol":6667,"Ġele":6668,"ellene":6669,"ĠOSL":6670,"beh":6671,"ĠRh":6672,"Ġmengder":6673,"ĠGe":6674,"ĠGÃ¥":6675,"spar":6676,"Ġoverlev":6677,"Ġsees":6678,"ĠJam":6679,"Ġcam":6680,"ssam":6681,"Ġanvende":6682,"Ġkontor":6683,"yggen":6684,"ktivt":6685,"Ã¸len":6686,"Ġheldig":6687,"Ġheldigvis":6688,"ĠStÃ¸r":6689,"ĠStort":6690,"ĠCo":6691,"Ġvelg":6692,"Ġtidspunkt":6693,"Ġbef":6694,"Ġselvser":6695,"Ġselvtillit":6696,"Ġgravid":6697,"opper":6698,"Ġstedene":6699,"Ġregner":6700,"Ġregulering":6701,"Ġmennesk":6702,"Ġlagdommer":6703,"noon":6704,"Ġ500":6705,"Ġ48":6706,"Ġorkester":6707,"ĠhÃ¸yde":6708,"rerne":6709,"skerud":6710,"Ġservert":6711,"esterett":6712,"ĠAnn":6713,"ĠAntall":6714,"evel":6715,"mai":6716,"Ġresul":6717,"Ġnedover":6718,"Ġforskere":6719,"Ġforsknings":6720,"Ġfaget":6721,"ĠAller":6722,"Ġvoks":6723,"astet":6724,"ĠstÃ¸rrelse":6725,"Ġplante":6726,"filmer":6727,"2017":6728,"ferdig":6729,"ĠbestÃ¥ende":6730,"Ġvannregion":6731,"Ġendt":6732,"Ġlivs":6733,"systemer":6734,"Ġrelasjon":6735,"Ġkreative":6736,"Ġ08":6737,"Ġpornofilm":6738,"ĠgrÃ¸nne":6739,"Ġsuksess":6740,"Ġchatte":6741,"funnet":6742,"Ġmuslim":6743,"Ġkunnskaper":6744,"Ġblod":6745,"Ġforeles":6746,"Ġsjokol":6747,"Ġbrasili":6748,"Ġhendelser":6749,"Ġmiddel":6750,"Ġknutepunkt":6751,"kommun":6752,"Ġsikt":6753,"itim":6754,"Ġbergen":6755,"Ġopplevd":6756,"ĠMarie":6757,"ĠChristi":6758,"Ġfiskest":6759,"Ġdoktor":6760,"Ġkortere":6761,"ĠnÃ¸dt":6762,"ĠYork":6763,"Ġtemaet":6764,"ĠStudiet":6765,"sforbund":6766,"Ġfamilien":6767,"Ġhistorier":6768,"Ġkvelds":6769,"Ġvekk":6770,"Ġkortene":6771,"Ġbehovet":6772,"bilder":6773,"Ġtaket":6774,"splanen":6775,"boer":6776,"ernen":6777,"ĠnÃ¸dvendige":6778,"Ġjordbruker":6779,"Ġpakke":6780,"ĠnÃ¦rmest":6781,"matic":6782,"Ġkapasitet":6783,"Ġutvalgte":6784,"Ġutfordring":6785,"Ġkontra":6786,"Ġhalvparten":6787,"ĠSystem":6788,"ĠdrÃ¸mm":6789,"ĠEngland":6790,"vanlig":6791,"typer":6792,"Ġstasjonene":6793,"Ġanalyse":6794,"ĠVeldig":6795,"ĠGames":6796,"ĠFÃ¸rst":6797,"Ġmanglende":6798,"Ġhensikt":6799,"Ġpsykisk":6800,"omsorg":6801,"ĠkjÃ¸tt":6802,"ĠRÃ¥dhus":6803,"ĠRÃ¥dmannen":6804,"Ġprodusere":6805,"Ġprodusert":6806,"Ġskjedd":6807,"Ġmotta":6808,"Ġuniversiteter":6809,"ĠGrÃ¸nn":6810,"edagogikk":6811,"sfaglig":6812,"Ġoppdage":6813,"Ġopprettholde":6814,"Ġprofiler":6815,"Ġjazz":6816,"Ġbehandler":6817,"Ġfjerne":6818,"ĠslÃ¥tt":6819,"ĠKristoffer":6820,"Ġmobil":6821,"Ġplast":6822,"Ġutdanningssystem":6823,"ĠskjÃ¸nne":6824,"Ġholdninger":6825,"Ġvaske":6826,"oterapi":6827,"Ġinnbygger":6828,"Ġtusenvis":6829,"Ġinvol":6830,"Ġbeskrivelse":6831,"Ġpolitiet":6832,"IVERS":6833,"emidler":6834,"Ġfjellet":6835,"dresse":6836,"Ġdatabaser":6837,"Ġmelde":6838,"Ġkonsent":6839,"Ġpraktisk":6840,"ĠcelleprÃ¸ver":6841,"Ġvarierte":6842,"Ġinstitusjoner":6843,"Ġbegrenset":6844,"ĠstrÃ¥lende":6845,"Ġomtalt":6846,"Ġpleier":6847,"ĠOnline":6848,"ENNSKAP":6849,"Ġkombinasjon":6850,"Ġinnovasjon":6851,"kershus":6852,"ĠStatens":6853,"Ġarena":6854,"Ġarbeidsplasser":6855,"Velkommen":6856,"Ġprofessor":6857,"Arbeidsplan":6858,"ĠNRK":6859,"Ġinformatikk":6860,"Ġinnvand":6861,"ĠsprÃ¸y":6862,"ITETET":6863,"Ġgodkjennes":6864,"ĠAdministrasjon":6865,"Ġoverraskende":6866,"ĠAlexander":6867,"Ġsavner":6868,"ĠTsjekkisk":6869,"ĠBefolk":6870,"Ġprosedyrer":6871,"ĠLouise":6872,"Ġadvokat":6873,"Ġengasjement":6874,"stemmig":6875,"Ġtilrettelegging":6876,"Ġfriluft":6877,"ĠEskorte":6878,"ĠKvalifikasjonsramme":6879,"ĠNotting":6880,"ĠOSLO":6881,"IVERSITETET":6882,"%,":6883,"):":6884,"36":6885,"51":6886,"Bever":6887,"EF":6888,"EM":6889,"Id":6890,"LS":6891,"MÃ¥":6892,"ND":6893,"RO":6894,"VED":6895,"autom":6896,"bÃ¥":6897,"cont":6898,"felt":6899,"hÃ¸y":6900,"hammer":6901,"iel":6902,"jes":6903,"klo":6904,"lad":6905,"mag":6906,"makt":6907,"oke":6908,"pc":6909,"slig":6910,"sens":6911,"sund":6912,"tende":6913,"uru":6914,"vaks":6915,"Ġ$":6916,"Ġz":6917,"erledes":6918,"enhet":6919,"Ġsinn":6920,"Ġsve":6921,"Ġstikk":6922,"Ġsalt":6923,"Ġsub":6924,"Ġsektor":6925,"Ġfli":6926,"oret":6927,"Ġdikt":6928,"Ġmnd":6929,"ĠmÃ¸nster":6930,"elskapet":6931,"ara":6932,"Ã¸kt":6933,"Ã¸vere":6934,"Ġhd":6935,"ĠhÃ¸rer":6936,"ĠhÃ¥ret":6937,"tider":6938,"Ġba":6939,"Ġbunn":6940,"Ġventet":6941,"tekter":6942,"Ġaks":6943,"ĠkÃ¸":6944,"Ġkna":6945,"ĠkÃ¥te":6946,"Ġid":6947,"Ġpal":6948,"Ġpil":6949,"omst":6950,"ingelser":6951,"lie":6952,"litt":6953,"edlemmer":6954,"Ġforand":6955,"Ġformann":6956,"Ġforkant":6957,"Ġforretning":6958,"skriv":6959,"Ġgli":6960,"onym":6961,"repet":6962,"Ġtit":6963,"Ġner":6964,"Ġnummer":6965,"Ġnasjonal":6966,"lemm":6967,"lementering":6968,"radisjon":6969,"terier":6970,"kkere":6971,"kkert":6972,"Ġtilstre":6973,"Ġtilstede":6974,"ĠpÃ¥p":6975,"Ġtadalafil":6976,"astes":6977,"Ġlete":6978,"atus":6979,"ĠSv":6980,"ĠSteg":6981,"ĠSout":6982,"Ġjentene":6983,"igere":6984,"deren":6985,"ĠDelt":6986,"tten":6987,"Ġutle":6988,"ĠutfÃ¸res":6989,"Ġutbygging":6990,"Ġutveks":6991,"sevne":6992,"olin":6993,"Ġhardt":6994,"riske":6995,"riks":6996,"riette":6997,"Ġskil":6998,"ross":6999,"aksjonen":7000,"Ġatferd":7001,"Ġstakk":7002,"Ġstammer":7003,"ĠHF":7004,"ĠHjel":7005,"ĠFo":7006,"ĠFyl":7007,"ĠFamili":7008,"ĠFolke":7009,"Ã¦ren":7010,"rutter":7011,"ĠMS":7012,"ĠMand":7013,"ĠMens":7014,"ĠMart":7015,"ĠMaster":7016,"Ġdekning":7017,"idar":7018,"Ġomgang":7019,"Ġoppgra":7020,"ĠoppstÃ¥":7021,"ĠNes":7022,"ĠNivÃ¥":7023,"iki":7024,"ekret":7025,"ĠBE":7026,"ĠBa":7027,"ĠAR":7028,"ĠAk":7029,"ĠAsi":7030,"ĠAanen":7031,"ĠIS":7032,"nev":7033,"usdal":7034,"ĠTer":7035,"ĠVENNSKAP":7036,"ĠEner":7037,"Ġlikte":7038,"ĠLo":7039,"ĠLind":7040,"ĠLever":7041,"Ġsamling":7042,"Ġsamlinger":7043,"Ġkjennskap":7044,"ĠPÃħ":7045,"Ġvarme":7046,"Ġvarmt":7047,"sist":7048,"skaping":7049,"teten":7050,"estrÃ¸m":7051,"Ġelever":7052,"ĠOle":7053,"avid":7054,"ĠRune":7055,"ĠRagn":7056,"ĠGro":7057,"ĠGunn":7058,"ĠGrupp":7059,"ĠGjÃ¸r":7060,"spr":7061,"ĠvilkÃ¥r":7062,"ynter":7063,"Ġovern":7064,"attende":7065,"Ġseil":7066,"Ġsepar":7067,"otor":7068,"ĠUten":7069,"ĠUkra":7070,"Ġnytte":7071,"Ġvedkommende":7072,"Ġtrans":7073,"Ġkone":7074,"vart":7075,"varing":7076,"Ġ300":7077,"ĠNorwegian":7078,"Ġdags":7079,"Ġeien":7080,"viser":7081,"Ġteste":7082,"Ġteks":7083,"Ġteksten":7084,"ĠSto":7085,"oven":7086,"Ġpreg":7087,"Ġpress":7088,"ĠViagra":7089,"Ġtidlige":7090,"able":7091,"drende":7092,"dress":7093,"engde":7094,"Ġannerledes":7095,"Ġslipper":7096,"jerne":7097,"ansene":7098,"Ġdeles":7099,"fÃ¸rte":7100,"fÃ¸rings":7101,"opat":7102,"Ġorden":7103,"Ġkvinnen":7104,"Ġvisjon":7105,"Ġsykkel":7106,"Ġsymb":7107,"ĠEnkel":7108,"Ġartikler":7109,"Ġkommunene":7110,"Ġbeteg":7111,"ĠAnsvar":7112,"mail":7113,"Ġbrukeren":7114,"Ġbrukerne":7115,"Ġbrukeropplev":7116,"Ġarbeidsm":7117,"ĠHvil":7118,"Ġrad":7119,"pren":7120,"ĠgÃ¥rden":7121,"ĠfÃ¸lelse":7122,"Ġbestemme":7123,"sminister":7124,"illy":7125,"bruket":7126,"brudd":7127,"ĠProdu":7128,"ĠWe":7129,"ĠWil":7130,"ĠÃĺnsker":7131,"attes":7132,"Ġlangsiktig":7133,"mÃ¥lene":7134,"ĠUnn":7135,"Ġhjemmet":7136,"ytting":7137,"hage":7138,"ĠvÃ¥k":7139,"asjonsutvikling":7140,"valgte":7141,"ĠÃħs":7142,"ĠÃħlgÃ¥rd":7143,"gesund":7144,"Ġdeltar":7145,"Ġkvalifikasjonene":7146,"Ġligge":7147,"regel":7148,"Ġforbed":7149,"trol":7150,"plett":7151,"Ġsosialt":7152,"sbes":7153,"Ġforholdet":7154,"setning":7155,"INTE":7156,"Ġrelater":7157,"ĠÃ¸kes":7158,"ĠslÃ¥r":7159,"Ġvidereutvik":7160,"Ġfullstendig":7161,"inerende":7162,"Ġungene":7163,"brukere":7164,"nettet":7165,"appar":7166,"Ġbidrag":7167,"Ġhelsepersonell":7168,"Ġstrikkes":7169,"ĠHansen":7170,"Ġbokstav":7171,"Ġpresent":7172,"Ġmarker":7173,"ĠSec":7174,"Ġoppdatering":7175,"gjÃ¸ring":7176,"Ġkvalitetssik":7177,"vask":7178,"itive":7179,"itekt":7180,"Ġvideoen":7181,"snivÃ¥":7182,"ĠChat":7183,"Ġtilfelle":7184,"ssystemet":7185,"Ġklikk":7186,"Ġjulen":7187,"Ġhistorien":7188,"Ġspenning":7189,"ĠmiljÃ¸et":7190,"Ġbekym":7191,"Ġtjenestene":7192,"kveld":7193,"Ġscreening":7194,"igital":7195,"Ġlengst":7196,"ĠbesÃ¸kende":7197,"ĠÃ¸yne":7198,"Ġetablerte":7199,"boksen":7200,"fessi":7201,"festiv":7202,"Ġsterke":7203,"Ġdeltakerne":7204,"Ġproblemet":7205,"Ġproblemstillinger":7206,"ations":7207,"Ġutfordringene":7208,"ĠHele":7209,"rÃ¸ms":7210,"Ġemp":7211,"Ġemner":7212,"Ġstrategi":7213,"ĠfornÃ¸yde":7214,"Ġfysiske":7215,"ĠdÃ¥rligere":7216,"EDER":7217,"Ġdiskusjoner":7218,"Ġmeldt":7219,"standen":7220,"ĠpÃ¥virke":7221,"fullmek":7222,"beskrivelsene":7223,"Ġbredt":7224,"ĠHenriette":7225,"ĠFÃ¸rste":7226,"Ġtilbudet":7227,"Ġrelevante":7228,"ĠmÃ¥neden":7229,"Ġmangler":7230,"manakk":7231,"Ġtrykke":7232,"bladet":7233,"Ġpositivt":7234,"Ġshoppe":7235,"ĠnÃ¦ringsliv":7236,"Ġsjekkesider":7237,"Ġdokumentasjon":7238,"Ġtotal":7239,"Ġbehandlet":7240,"Ġavtalen":7241,"ĠbesÃ¸kt":7242,"ĠforeslÃ¥":7243,"Ġtallet":7244,"Ġressurs":7245,"ĠKristin":7246,"ĠMidd":7247,"forskning":7248,"Ġobservert":7249,"ĠIsrael":7250,"ĠStorbritannia":7251,"Ġkraftverk":7252,"Ġleiligheten":7253,"ĠVoksne":7254,"Ellers":7255,"Ġukene":7256,"Ġprofesjonsfaglig":7257,"Ġberegnet":7258,"Ġnabo":7259,"ĠKontaktannonser":7260,"ĠkjÃ¸kkenet":7261,"Ġsatsing":7262,"Ġinteresserte":7263,"Ġforklaring":7264,"Ġuttrykke":7265,"ĠEksemp":7266,"avtalen":7267,"baserte":7268,"ĠSilje":7269,"ekomsten":7270,"Ġseminar":7271,"Ġslette":7272,"Ġsammenhenger":7273,"Ġrespekt":7274,"ĠMusikk":7275,"Ġkulturminner":7276,"Ġfleksi":7277,"Ġhoris":7278,"Ġivareta":7279,"ĠFjeld":7280,"Ġarrangerer":7281,"Ġhaplogruppe":7282,"Ġsmerte":7283,"ristiansand":7284,"ĠLikevel":7285,"Ġminimum":7286,"ĠprimÃ¦r":7287,"Ġskuespiller":7288,"Ġreligion":7289,"ĠVennligst":7290,"ĠBuskerud":7291,"ĠTanav":7292,"Ġinitiativ":7293,"ĠRefer":7294,"befolkning":7295,"Ġvondt":7296,"ĠNOKUT":7297,"Ġdugnad":7298,"ĠInstallasjon":7299,"ĠKarlsÃ¸y":7300,"Ġitalien":7301,"remmende":7302,"ĠPedersen":7303,"ĠKommentar":7304,"Bevers":7305,"ĠSouth":7306,"39":7307,"99":7308,"?!":7309,"Ann":7310,"DF":7311,"EI":7312,"Mar":7313,"NB":7314,"Ny":7315,"Nasjonal":7316,"NKR":7317,"Or":7318,"Re":7319,"Sh":7320,"Side":7321,"SEN":7322,"Skal":7323,"The":7324,"UB":7325,"UG":7326,"UR":7327,"Var":7328,"ael":7329,"ask":7330,"band":7331,"bale":7332,"bÃ¥nd":7333,"fab":7334,"fic":7335,"foss":7336,"gh":7337,"kser":7338,"ll":7339,"lÃ¸y":7340,"my":7341,"nan":7342,"ned":7343,"nav":7344,"ool":7345,"plikt":7346,"parken":7347,"rt":7348,"rund":7349,"sor":7350,"sarbeid":7351,"samer":7352,"saks":7353,"sreg":7354,"somme":7355,"uter":7356,"uksjon":7357,"vek":7358,"ykket":7359,"zure":7360,"ï¼":7361,"Ġart":7362,"ero":7363,"Ġseng":7364,"eth":7365,"ettig":7366,"inene":7367,"Ġfam":7368,"Ġfett":7369,"Ġfunn":7370,"Ġfit":7371,"Ġded":7372,"ance":7373,"Ġmal":7374,"Ġmere":7375,"Ġmunn":7376,"eling":7377,"arv":7378,"aren":7379,"arter":7380,"arvik":7381,"Ã¸ftet":7382,"Ġho":7383,"Ġhell":7384,"Ġhigh":7385,"Ġhimmel":7386,"Ġbom":7387,"Ġblan":7388,"tekt":7389,"Ġky":7390,"Ġkak":7391,"ĠkÃ¥ret":7392,"Ġpund":7393,"Ġpensjon":7394,"esam":7395,"ometer":7396,"ington":7397,"edesign":7398,"Ġforvir":7399,"ĠforstÃ¥r":7400,"Ġforvente":7401,"ski":7402,"Ġge":7403,"Ġger":7404,"Ġgig":7405,"raksis":7406,"terende":7407,"kkende":7408,"kkup":7409,"Ġus":7410,"Ġuka":7411,"Ġtop":7412,"Ġtjene":7413,"ilj":7414,"ilder":7415,"ilbud":7416,"ason":7417,"ĠST":7418,"ĠSenter":7419,"vernet":7420,"verktÃ¸y":7421,"amm":7422,"ĠDy":7423,"ennende":7424,"Ġutarbeid":7425,"Ġutvendig":7426,"ĠutÃ¸ver":7427,"ologer":7428,"Ġhard":7429,"Ġharmon":7430,"Ġskru":7431,"Ġskoler":7432,"rot":7433,"Ġviten":7434,"Ġstk":7435,"Ġstod":7436,"Ġstasjoner":7437,"Ġstats":7438,"Ġstoffer":7439,"ĠHand":7440,"ĠHann":7441,"ĠFro":7442,"ĠFang":7443,"ĠMateri":7444,"ĠMelding":7445,"ettet":7446,"Ġomgiv":7447,"Ġopplegg":7448,"ĠNr":7449,"ĠNat":7450,"ikon":7451,"ekor":7452,"uren":7453,"urens":7454,"ĠBig":7455,"ĠBur":7456,"ĠBÃ¥rd":7457,"ĠAF":7458,"ĠAL":7459,"ĠAag":7460,"ĠAss":7461,"ĠAvt":7462,"april":7463,"ĠIC":7464,"ĠIvar":7465,"Ġinnplasser":7466,"forum":7467,"forhandling":7468,"ĠTNS":7469,"Ġalarm":7470,"ĠVik":7471,"Ġlikes":7472,"Ġliksom":7473,"ĠLin":7474,"ĠLed":7475,"ĠLag":7476,"ĠLev":7477,"okra":7478,"add":7479,"adiske":7480,"Ġvars":7481,"Ġvardenafil":7482,"serien":7483,"sibirske":7484,"estud":7485,"ods":7486,"ĠspÃ¸rsmÃ¥let":7487,"avdelingen":7488,"ĠRik":7489,"ĠRad":7490,"ĠRog":7491,"ĠRinger":7492,"Ġmeng":7493,"Ġmente":7494,"ĠGer":7495,"ĠGode":7496,"mmun":7497,"spiller":7498,"Ġsit":7499,"Ġoveralt":7500,"ĠUN":7501,"ĠUT":7502,"Ã¸pet":7503,"holm":7504,"Ġanbud":7505,"ĠtrÃ¸":7506,"ĠFormÃ¥let":7507,"Ġ->":7508,"Ġklager":7509,"Ġrep":7510,"Ġreaksjon":7511,"Ġrehabilitering":7512,"Ġrefinansi":7513,"Ġex":7514,"Ġdater":7515,"Ġtea":7516,"Ġteorier":7517,"ĠCon":7518,"artner":7519,"deler":7520,"ordane":7521,"ĠVide":7522,"Ġselvstendig":7523,"mÃ¥ling":7524,"Ġannon":7525,"Ġgrader":7526,"opplys":7527,"Ġutenland":7528,"peri":7529,"formid":7530,"Ġreguler":7531,"Ġreglene":7532,"Ġsliten":7533,"Ġmenneske":7534,"jerner":7535,"Ġlagene":7536,"Ġverste":7537,"Ġ51":7538,"fÃ¸ringen":7539,"ligheter":7540,"lighetene":7541,"ĠSkigrupp":7542,"Ġfortalte":7543,"Ġsystemer":7544,"retter":7545,"Ġbetaler":7546,"dereutdanning":7547,"ĠAnna":7548,"lay":7549,"Ġkvalif":7550,"Ġarbeidst":7551,"pris":7552,"Ġtrekker":7553,"Ġbedt":7554,"Ġvansk":7555,"kenes":7556,"ĠProfil":7557,"ĠProgram":7558,"ĠProfessi":7559,"ĠWi":7560,"indh":7561,"slene":7562,"slÃ¸ftet":7563,"jÃ¸ring":7564,"Ġgift":7565,"Ġallsid":7566,"Ġfinansi":7567,"ĠUniversi":7568,"klin":7569,"ĠnÃ¦rmer":7570,"oversikt":7571,"ĠÃħp":7572,"ĠÃħssen":7573,"Ġplanlegging":7574,"Ġplanlegge":7575,"ĠMedia":7576,"ronisk":7577,"Ġdesverre":7578,"Ġrettet":7579,"konser":7580,"Ġsmart":7581,"lesex":7582,"Ġbeskyttelse":7583,"Ġaktiv":7584,"troller":7585,"Ġmail":7586,"Ġmannlige":7587,"Ġparter":7588,"Ġforholdsvis":7589,"ĠTror":7590,"Ġsamtale":7591,"Ġfylle":7592,"Ġlykkes":7593,"Ġmaten":7594,"Ġkreativitet":7595,"Ġfarlig":7596,"Ġblogger":7597,"synsutvalget":7598,"Ġsender":7599,"Ġsup":7600,"ĠsÃ¸t":7601,"inerte":7602,"Ġbygninger":7603,"Ġkunnskapen":7604,"Ġhelsearbeid":7605,"ĠordfÃ¸rer":7606,"ORD":7607,"Ġboks":7608,"Ġhenvisning":7609,"Ġpresident":7610,"medisin":7611,"Ġknytte":7612,"sprosjekt":7613,"Ġansvaret":7614,"Ġ150":7615,"Ġsikte":7616,"Ġsikrer":7617,"Ġklokka":7618,"vilkÃ¥r":7619,"meldelser":7620,"Ġpartnere":7621,"ssystem":7622,"komiteen":7623,"que":7624,"quote":7625,"Ġjulet":7626,"ĠStudi":7627,"Ġfunksjonen":7628,"sforteg":7629,"Ġfremm":7630,"Ġveier":7631,"ĠsÃ¦rtilskudd":7632,"OLIT":7633,"Ġsove":7634,"Ġgjenv":7635,"Ġstift":7636,"Ġapps":7637,"Ġlave":7638,"Ġfastsatt":7639,"Ġmassevis":7640,"Ġnevne":7641,"ĠhÃ¥ndtere":7642,"Ġdiag":7643,"Ġhusker":7644,"Ġmilliarder":7645,"ELSE":7646,"ĠhÃ¸ring":7647,"Ġmetoder":7648,"Ġfokuserer":7649,"ĠFagskole":7650,"EST":7651,"vÃ¦ret":7652,"vÃ¦rende":7653,"Ġdeilige":7654,"Ã¥pen":7655,"Ġtillatt":7656,"ĠÃ¸konomisk":7657,"Ġsituasjon":7658,"Ġnormale":7659,"Ġfolket":7660,"UNIVERSITETET":7661,"beskrivelse":7662,"pleiere":7663,"Ġhyggelige":7664,"Ġidretts":7665,"aritet":7666,"ĠGenerelt":7667,"ĠRoad":7668,"ĠRÃ¥dhuset":7669,"Ġhverdagen":7670,"Ġmoderator":7671,"Ġorganisering":7672,"Ġeffektivt":7673,"vennlig":7674,"ĠPlanen":7675,"ĠGodkjent":7676,"outube":7677,"Ġugras":7678,"Ġsystematisk":7679,"Ġprivat":7680,"Ġkurset":7681,"messige":7682,"tures":7683,"Ġguttene":7684,"Ġengasjer":7685,"Ġstykker":7686,"ĠFotball":7687,"ĠKommune":7688,"loween":7689,"Ġanlegget":7690,"ografi":7691,"Ġforhistor":7692,"Ġplassert":7693,"Ġplasseres":7694,"ĠVidereutdanning":7695,"Ġbandet":7696,"Ġindivid":7697,"ĠoppnÃ¥s":7698,"IFT":7699,"gresjon":7700,"Ġregjering":7701,"Ġselskapets":7702,"Ġvinteren":7703,"ĠOlsen":7704,"Ġomfang":7705,"Ġomfattende":7706,"Ġvedlikeholde":7707,"Ġkonsekvenser":7708,"Ġmateriale":7709,"studenter":7710,"Ġbegreper":7711,"Ġarrangementer":7712,"ĠforelÃ¸pig":7713,"Ġbekrefter":7714,"Ġfeiret":7715,"Ġsekund":7716,"Ġhevder":7717,"Ġillu":7718,"kortet":7719,"Ġkilder":7720,"Ġmedisinsk":7721,"ĠHotel":7722,"Ġsammenhengen":7723,"ĠÃ¸verst":7724,"ĠÃ¸verste":7725,"Ġnegative":7726,"ĠThai":7727,"ĠGausdal":7728,"ĠStrand":7729,"ansvarlig":7730,"Ġtilbakemeldinger":7731,"pinion":7732,"Ġnyttig":7733,"ĠCirc":7734,"Ġforutsetninger":7735,"Ġrosa":7736,"Ġoppgir":7737,"ĠKvinners":7738,"fondet":7739,"Ġjfr":7740,"ĠVictoria":7741,"ĠÃ¸yeblikk":7742,"Ġdesigner":7743,"ĠJÃ¸rgenstad":7744,"ĠopplÃ¦rings":7745,"Under":7746,"cript":7747,"Ġkalles":7748,"ĠMÃ¸tetid":7749,"ĠEgenskaper":7750,"ĠJesus":7751,"Ġanvendes":7752,"Ġanmeldelse":7753,"Endelig":7754,"arpsborg":7755,"stjernene":7756,"Ġknutepunktutvikling":7757,"ĠKvalifikasjonsrammeverket":7758,"Ġtilstrekkelig":7759,"ĠRagnar":7760,"ĠMiddlesex":7761,"ĠUniversity":7762,"-,":7763,"32":7764,"43":7765,"67":7766,"79":7767,"85":7768,"AB":7769,"Bet":7770,"Dess":7771,"Dagen":7772,"Ent":7773,"Europa":7774,"Fin":7775,"FÃ¸r":7776,"FOR":7777,"GEN":7778,"HL":7779,"HS":7780,"Kristine":7781,"MÃ¸te":7782,"Oslo":7783,"Plan":7784,"POLIT":7785,"Ser":7786,"UD":7787,"VAL":7788,"ail":7789,"aas":7790,"bi":7791,"beste":7792,"besk":7793,"car":7794,"ep":7795,"fart":7796,"famili":7797,"gg":7798,"gin":7799,"gte":7800,"hop":7801,"iri":7802,"jeg":7803,"jort":7804,"jobb":7805,"ku":7806,"kende":7807,"ld":7808,"lok":7809,"mo":7810,"meter":7811,"ous":7812,"oper":7813,"pse":7814,"pesi":7815,"porno":7816,"su":7817,"sst":7818,"sord":7819,"sell":7820,"slige":7821,"scort":7822,"savtale":7823,"tas":7824,"ugen":7825,"vekt":7826,"work":7827,"ya":7828,"Ġ?":7829,"ĻĤ":7830,"ense":7831,"Ġsjen":7832,"ĠsÃ¸l":7833,"Ġsch":7834,"Ġsmin":7835,"Ġseksjon":7836,"Ġout":7837,"Ġokkup":7838,"ini":7839,"Ġfo":7840,"Ġfy":7841,"Ġfet":7842,"Ġfing":7843,"Ġflu":7844,"Ġfare":7845,"Ġfitte":7846,"ortert":7847,"Ġdm":7848,"Ġdog":7849,"Ġdoll":7850,"Ġdrevet":7851,"ĠdÃ¸g":7852,"anom":7853,"Ġmg":7854,"Ġmt":7855,"Ġmig":7856,"Ġmist":7857,"Ġmester":7858,"Ġmaling":7859,"Ġmatematikk":7860,"elys":7861,"arer":7862,"Ã¸mte":7863,"tiver":7864,"tifik":7865,"tips":7866,"Ġbist":7867,"ĠbÃ¸n":7868,"ĠbrÃ¸":7869,"Ġbuss":7870,"Ġvert":7871,"Ġka":7872,"Ġke":7873,"Ġku":7874,"Ġkilde":7875,"Ġkolle":7876,"Ġpor":7877,"estet":7878,"edme":7879,"edisjon":7880,"Ġforl":7881,"ĠforÃ¥r":7882,"Ġforber":7883,"ĠforsÃ¸ker":7884,"ĠforegÃ¥r":7885,"Ġforklare":7886,"skrevende":7887,"Ġgo":7888,"Ġglem":7889,"Ġgaten":7890,"Ġgutte":7891,"Ġglade":7892,"onger":7893,"rek":7894,"rekk":7895,"Ġtitte":7896,"lef":7897,"lemmene":7898,"Ġtilreis":7899,"Ġuen":7900,"Ġusikker":7901,"Ġavd":7902,"Ġtent":7903,"ĠtÃ¸y":7904,"Ġtyn":7905,"Ġtyr":7906,"Ġtonn":7907,"Ġtabell":7908,"Ġenor":7909,"Ġenstemmig":7910,"ilert":7911,"attet":7912,"atÃ¸rer":7913,"Ã¸ren":7914,"ĠSag":7915,"ĠSort":7916,"ĠSven":7917,"ĠSjÃ¸":7918,"ĠSeksjon":7919,"ĠSwing":7920,"innen":7921,"innkalling":7922,"Ġjur":7923,"ĠDo":7924,"ĠDrag":7925,"ĠDavid":7926,"Ġretter":7927,"Ġrede":7928,"Ġrente":7929,"Ġutmer":7930,"Ġutsatt":7931,"Ġutstilling":7932,"ĠutfÃ¸re":7933,"Ġutgave":7934,"Ġutbet":7935,"Ġutgiv":7936,"ĠutlÃ¸pet":7937,"Ġutgifter":7938,"Ġutsikten":7939,"riere":7940,"Ġskatte":7941,"Ġskrift":7942,"Ġskille":7943,"aktivitet":7944,"ĠHit":7945,"ĠHapp":7946,"ĠHigh":7947,"ĠFN":7948,"ĠFÃ¥":7949,"ĠFak":7950,"ĠFrem":7951,"Ã¦rende":7952,"ĠMA":7953,"ĠMÃ¸tt":7954,"ida":7955,"Ġombord":7956,"Ġopptil":7957,"Ġoppsett":7958,"ĠNO":7959,"ĠNV":7960,"ĠNÃ¦r":7961,"ĠNAT":7962,"ĠNext":7963,"iko":7964,"ektet":7965,"ĠBjÃ¸r":7966,"ĠAker":7967,"ĠIL":7968,"ĠIfÃ¸lge":7969,"Ġinnslag":7970,"ĠinngÃ¥r":7971,"ĠKa":7972,"ĠKjÃ¸r":7973,"forsker":7974,"ĠTot":7975,"ĠTusen":7976,"ĠTyskland":7977,"ĠVo":7978,"ĠVisjon":7979,"ĠVersjon":7980,"ĠEks":7981,"ĠLib":7982,"ĠsamvÃ¦r":7983,"Ġsamboer":7984,"uller":7985,"omma":7986,"Ġkje":7987,"Ġkjed":7988,"ĠPor":7989,"ĠPrem":7990,"ĠPink":7991,"ĠPROTOKOLL":7992,"ĠPubli":7993,"seres":7994,"stedet":7995,"steknikk":7996,"Ġindre":7997,"Ġinstitutt":7998,"Ġintroduksjon":7999,"teter":8000,"odt":8001,"Ġeld":8002,"ĠOR":8003,"ĠOla":8004,"ĠOpinion":8005,"Ġspiser":8006,"Ġspurte":8007,"ave":8008,"avas":8009,"avisen":8010,"ested":8011,"esteder":8012,"utning":8013,"ĠRon":8014,"Ġmeninger":8015,"ĠGeir":8016,"lingene":8017,"spir":8018,"sperson":8019,"spris":8020,"Ġprop":8021,"veen":8022,"veier":8023,"Ġsir":8024,"orth":8025,"Ġvill":8026,"atting":8027,"attform":8028,"Ġkommende":8029,"Ġcon":8030,"Ġcomm":8031,"Ġcum":8032,"ĠUi":8033,"ĠUke":8034,"ĠfÃ¸rte":8035,"Ġtrene":8036,"alia":8037,"alier":8038,"001":8039,"yren":8040,"ĠForsvar":8041,"varen":8042,"varme":8043,"rÃ¥dt":8044,"ffek":8045,"Ġklag":8046,"Ġklass":8047,"Ġrev":8048,"Ġmerkelig":8049,"Ġhjul":8050,"Ġheldige":8051,"Ġleie":8052,"ĠleketÃ¸y":8053,"ĠStra":8054,"ĠStyr":8055,"ĠClo":8056,"Ġminutt":8057,"Ġunderstre":8058,"Ġvenninne":8059,"genda":8060,"Ġherunder":8061,"lagte":8062,"Ġvelkommen":8063,"abel":8064,"berry":8065,"Ġbilled":8066,"Ġbilligere":8067,"Ġbillett":8068,"ebet":8069,"ebok":8070,"ebutikk":8071,"Ġmyk":8072,"oppgaver":8073,"Ġkomplett":8074,"Ġkunde":8075,"Ġ42":8076,"Ġ44":8077,"Ġ46":8078,"Ġ400":8079,"vender":8080,"ĠhÃ¸yskoler":8081,"Ġbegrunn":8082,"yllu":8083,"Ġfortsett":8084,"Ġsymp":8085,"redt":8086,"Ġkommunisere":8087,"Ġbetaling":8088,"Ġfremtid":8089,"Ġrac":8090,"Ġradi":8091,"Ġrespon":8092,"Ġgrunnen":8093,"Ġ65":8094,"kjÃ¸ring":8095,"bruken":8096,"ĠProject":8097,"Ġlegev":8098,"otes":8099,"ĠÃ¸vrige":8100,"Ġbyene":8101,"Ġ75":8102,"prosjekter":8103,"somrÃ¥det":8104,"jelder":8105,"ringe":8106,"ydende":8107,"Ġpersonalet":8108,"ĠstÃ¸rst":8109,"ĠÃħlesund":8110,"ĠMedlemmer":8111,"Ġspesielle":8112,"faget":8113,"Ġmilj":8114,"Ġfersk":8115,"kons":8116,"haug":8117,"Ġbeskytte":8118,"Ġdatter":8119,"feranser":8120,"Ġbesto":8121,"planen":8122,"ĠTrÃ¸ndelag":8123,"Ġsamtaler":8124,"Ġmestre":8125,"ĠÃ¸king":8126,"ĠÃ¸kning":8127,"faring":8128,"Ġfylt":8129,"Ġselskaper":8130,"Ġvennerel":8131,"Ġmulighetene":8132,"Ġskapende":8133,"saktivitet":8134,"Ġsingler":8135,"ampus":8136,"frid":8137,"frie":8138,"Ġstarten":8139,"ĠOppgave":8140,"ĠsÃ¸ster":8141,"Ġhandlinger":8142,"usjonene":8143,"ĠnyttÃ¥r":8144,"Ġsjeld":8145,"Ġeksempler":8146,"Ġordin":8147,"ORG":8148,"ningsundersÃ¸kelse":8149,"ĠKarl":8150,"Ġledende":8151,"Ġledelsen":8152,"Ġmidten":8153,"Ġframover":8154,"Ġsjef":8155,"Ġ1000":8156,"Ġansvarlighet":8157,"Ġkvaliteten":8158,"ANN":8159,"Ġfaktorer":8160,"Ġsakte":8161,"Ġdramati":8162,"alistisk":8163,"Ġnaturlige":8164,"Ġnaturligvis":8165,"Ġfotograf":8166,"oldninger":8167,"fordringer":8168,"ĠMarit":8169,"Ġbasis":8170,"Ġkrig":8171,"Ġandres":8172,"Ġkorre":8173,"Ġkortet":8174,"ssykehus":8175,"ontrakt":8176,"htag":8177,"Ġlokalt":8178,"sformer":8179,"sforhold":8180,"bane":8181,"fisket":8182,"ĠrÃ¥dhus":8183,"ĠDeres":8184,"Ġekstraordin":8185,"atorie":8186,"Ġriktige":8187,"âĢĿ.":8188,"Ã¦reren":8189,"Ġscener":8190,"Ġarbeidslivet":8191,"Ġarbeidsgiver":8192,"Ġmedlems":8193,"edager":8194,"2009":8195,"ĠhÃ¥ndverk":8196,"Ġraskere":8197,"espÃ¸rs":8198,"Ġseksuelle":8199,"Ġseksuell":8200,"Ġmetall":8201,"Ġbygges":8202,"ĠselvfÃ¸lelse":8203,"ĠInnholdsforteg":8204,"Ġutvalget":8205,"frastruktur":8206,"Ġinkluderer":8207,"Ġinkludering":8208,"Ġlure":8209,"ĠlÃ¸sningen":8210,"Ġkostnader":8211,"Ġmelding":8212,"IKK":8213,"ĠpÃ¥virket":8214,"Ġklubbene":8215,"Informasjon":8216,"ĠFÃ¸rde":8217,"ktoren":8218,"ĠResultater":8219,"ĠlÃ¸fte":8220,"Ġinstagram":8221,"ĠLogg":8222,"Ġrefusjon":8223,"Ġkopi":8224,"andinavia":8225,"Ġspilleautom":8226,"Ġmottatt":8227,"Ġuniversitetssykehus":8228,"sfaglige":8229,"Ġugrasharving":8230,"Ġpresentere":8231,"UTSKR":8232,"Ġbehandle":8233,"ĠLittle":8234,"tikere":8235,"Ġstoppet":8236,"ĠAndreas":8237,"Ġforebyggende":8238,"Ġengasj":8239,"andidaten":8240,"ĠKunnskapslÃ¸ftet":8241,"lowjob":8242,"Ġbryte":8243,"Ġregionale":8244,"Ġrapport":8245,"ĠJohansen":8246,"nivÃ¥ene":8247,"Ġdoser":8248,"Ġblanding":8249,"ĠAmund":8250,"adressen":8251,"Ġleiligheter":8252,"Ġmeksik":8253,"Ġmodeller":8254,"ĠSynes":8255,"ĠSynerg":8256,"ĠBox":8257,"Ġkontakte":8258,"Ġkontrollgruppen":8259,"Ġeksamens":8260,"Bruk":8261,"Ġhenholdsvis":8262,"ĠOlav":8263,"Ġkompetans":8264,"Ġdobbel":8265,"ĠbÃ¦rere":8266,"Ġkundene":8267,"Ġoverrasket":8268,"Ġnabol":8269,"ĠVirke":8270,"ichael":8271,"Ġvegger":8272,"Ġutslipp":8273,"Ġbegrepet":8274,"Ġpraktiske":8275,"relater":8276,"ĠSolberg":8277,"ĠSuper":8278,"ĠstrÃ¥le":8279,"ĠHaug":8280,"ĠKapittel":8281,"Ġsammenlignet":8282,"smessige":8283,"Ġmyndigheter":8284,"Ġarrangere":8285,"Ġsandnes":8286,"Ġsidene":8287,"Ġskyld":8288,"ĠFredrikstad":8289,"Ġoppfylle":8290,"ĠNoe":8291,"okumentasjon":8292,"Ġmineralske":8293,"Ġutformet":8294,"Ġutforming":8295,"ĠKraft":8296,"Ġforberedt":8297,"ĠThailand":8298,"kobling":8299,"Ġfrokost":8300,"andefjord":8301,"ĠphpBB":8302,"Ġutnytte":8303,"ĠCamden":8304,"Ġambass":8305,"ĠfrisÃ¸r":8306,"Ġstolt":8307,"ĠHellas":8308,"Ġvirksomheter":8309,"Ġvirksomheten":8310,"ĠArkiv":8311,"Ġprosentandel":8312,"Ġprosentandelen":8313,"Ġirri":8314,"ĠSingle":8315,"Ġtransport":8316,"Ġbestilt":8317,"Ġjuridisk":8318,"gressiv":8319,"etningslinjer":8320,"ĠMetode":8321,"Ġnyhetsb":8322,"Ġlevde":8323,"Ġvellykket":8324,"Ġkafeer":8325,"ĠKnut":8326,"Ġepis":8327,"ĠEngebÃ¸":8328,"ĠoppnÃ¥dd":8329,"Ġblandingsfolket":8330,"Ġidentifisere":8331,"ĠðŁĻĤ":8332,"ĠfÃ¦rre":8333,"ĠPrÃ¸v":8334,"Ġeksterne":8335,"Ġreindriftsnomadene":8336,"SJON":8337,"spesifikk":8338,"Ġkommentere":8339,"asjonsdatabasedesign":8340,"Ġjournali":8341,"Ġhemmelig":8342,"ĠFruBevers":8343,"VEDUTSKR":8344,"opatra":8345,"Ġkvalitetssikring":8346,"fullmektig":8347,"Ġhorisont":8348,"ĠProfessional":8349,"Ġallsidig":8350,"ĠDragvoll":8351,"ĠInnholdsfortegnelse":8352,"ĠSynergy":8353,"VEDUTSKRIFT":8354,"%.":8355,"%âĢĻâĢĻ":8356,".).":8357,"34":8358,"300":8359,"78":8360,"83":8361,"90":8362,":-)":8363,"Bygg":8364,"CA":8365,"DIG":8366,"EA":8367,"EV":8368,"Fyl":8369,"GT":8370,"IR":8371,"LAN":8372,"LOS":8373,"Mer":8374,"Mange":8375,"Siden":8376,"Takk":8377,"UM":8378,"air":8379,"bek":8380,"bert":8381,"busjon":8382,"bakken":8383,"corte":8384,"design":8385,"eed":8386,"eier":8387,"finn":8388,"fare":8389,"gikk":8390,"hl":8391,"har":8392,"hab":8393,"hyl":8394,"hinder":8395,"iens":8396,"iff":8397,"imer":8398,"ime":8399,"iber":8400,"jo":8401,"kr":8402,"katt":8403,"kalt":8404,"kommer":8405,"lass":8406,"melt":8407,"navnet":8408,"oser":8409,"pop":8410,"pbb":8411,"rg":8412,"rÃ¸r":8413,"rest":8414,"rings":8415,"relser":8416,"rollen":8417,"sleder":8418,"tred":8419,"uz":8420,"ualitet":8421,"vin":8422,"vort":8423,"wn":8424,"witter":8425,"zen":8426,"zing":8427,"}}":8428,"Ð¸":8429,"ÑĢ":8430,"Ġq":8431,"Ġï¿½":8432,"eren":8433,"Ġsw":8434,"Ġsenter":8435,"Ġsolen":8436,"Ġsavnet":8437,"Ġsunne":8438,"etÃ¸y":8439,"Ã¥s":8440,"insk":8441,"indre":8442,"inbur":8443,"Ġfange":8444,"Ġdis":8445,"Ġdyp":8446,"Ġdrives":8447,"anere":8448,"Ġmas":8449,"Ġmur":8450,"Ġmisjon":8451,"Ġmunnen":8452,"Ġmulti":8453,"Ġmassage":8454,"eled":8455,"elat":8456,"arrange":8457,"Ġhud":8458,"tit":8459,"Ġbus":8460,"Ġbens":8461,"ĠbÃ¸l":8462,"Ġbind":8463,"Ġblandet":8464,"Ġbibel":8465,"Ġveks":8466,"Ġvinne":8467,"teknikk":8468,"Ġasp":8469,"Ġkok":8470,"Ġkyl":8471,"Ġkret":8472,"Ġkaste":8473,"Ġkyst":8474,"Ġkamper":8475,"Ġidag":8476,"Ġpkt":8477,"Ġpikk":8478,"omo":8479,"likket":8480,"egnet":8481,"Ġformen":8482,"Ġforret":8483,"Ġforbruk":8484,"Ġforstad":8485,"Ġforbruks":8486,"Ġforenk":8487,"skrets":8488,"skrig":8489,"Ġgarn":8490,"onert":8491,"rekker":8492,"reise":8493,"Ġtitter":8494,"Ġnav":8495,"lep":8496,"radio":8497,"Ġtilt":8498,"Ġtilsyn":8499,"Ġtildelt":8500,"Ġermet":8501,"Ġukjent":8502,"alat":8503,"alse":8504,"stene":8505,"stÃ¸tte":8506,"ĠpÃ¥lit":8507,"Ġtun":8508,"Ġtol":8509,"Ġtus":8510,"Ġtlf":8511,"asm":8512,"Ġlat":8513,"Ġlette":8514,"atn":8515,"atsen":8516,"istiske":8517,"Ġmedia":8518,"ĠmedfÃ¸re":8519,"ĠmedfÃ¸rer":8520,"Ġmedvirkning":8521,"agne":8522,"agelse":8523,"ĠSan":8524,"ĠSal":8525,"ĠSpe":8526,"ĠSqu":8527,"ĠSorter":8528,"ĠSogn":8529,"verdag":8530,"amedlemmer":8531,"Ġjent":8532,"Ġjakten":8533,"igin":8534,"igger":8535,"igurer":8536,"ĠDom":8537,"ĠDate":8538,"ĠDame":8539,"Ġrenn":8540,"ĠrÃ¸d":8541,"Ġrommet":8542,"Ġrana":8543,"lerende":8544,"ĠutlÃ¸p":8545,"ola":8546,"Ġskjel":8547,"ands":8548,"Ġvidt":8549,"akelse":8550,"Ġstru":8551,"ĠHo":8552,"ĠHjelp":8553,"ĠHVA":8554,"ĠFer":8555,"rut":8556,"ĠMam":8557,"ĠMang":8558,"ĠMunt":8559,"ĠMichael":8560,"Ã¥ring":8561,"Ġoppgitt":8562,"Ġoppskrift":8563,"ĠNob":8564,"ĠBj":8565,"ĠBle":8566,"ĠBlu":8567,"ĠBRU":8568,"ĠBDS":8569,"ĠAb":8570,"ĠAc":8571,"ĠAnd":8572,"ĠAkershus":8573,"ĠImp":8574,"Ġfrakt":8575,"Ġinni":8576,"Ġinnt":8577,"Ġinnfri":8578,"ĠinngÃ¥":8579,"ĠinnfÃ¸ring":8580,"ĠKens":8581,"ĠKjell":8582,"ĠKlipp":8583,"ĠKristi":8584,"ĠKlubb":8585,"forslag":8586,"forbered":8587,"forvaltning":8588,"usi":8589,"ĠTu":8590,"ĠTro":8591,"ĠTrykk":8592,"Ġalb":8593,"ĠVeg":8594,"ĠEL":8595,"ĠElev":8596,"Ġlikn":8597,"Ġlidelser":8598,"ĠLine":8599,"ĠLill":8600,"ĠLegge":8601,"ĠLege":8602,"Ġsamenes":8603,"ullet":8604,"Ġhvitt":8605,"Ġkjend":8606,"ĠPP":8607,"ĠPR":8608,"ĠPu":8609,"ĠPower":8610,"administra":8611,"service":8612,"ĠsÃ¥Ã¥":8613,"ĠsÃ¥pass":8614,"ordning":8615,"ordaland":8616,"estre":8617,"ello":8618,"ellen":8619,"ĠOIK":8620,"Ġspeil":8621,"ava":8622,"avis":8623,"ĠRed":8624,"ĠRamme":8625,"ĠRetningslinjer":8626,"ĠREA":8627,"Ġmenyen":8628,"elsea":8629,"ĠGjÃ¸":8630,"ĠGPS":8631,"ĠGjelder":8632,"spÃ¸rsmÃ¥l":8633,"Ġsibir":8634,"ksikon":8635,"ĠÃ¥rhund":8636,"Ġseier":8637,"ĠJe":8638,"oth":8639,"oto":8640,"ĠUte":8641,"ssels":8642,"ĠfÃ¸rt":8643,"Ġvedtok":8644,"ĠvedrÃ¸rende":8645,"Ã¸pro":8646,"Ġettermid":8647,"Ġetterkomm":8648,"Ġansik":8649,"alific":8650,"Ġkonsert":8651,"ĠForeldre":8652,"ĠInform":8653,"ygirl":8654,"till":8655,"ffen":8656,"obsen":8657,"Ġreiste":8658,"vikt":8659,"Ġnettdate":8660,"holdes":8661,"Ġmerker":8662,"Ġtester":8663,"ĠCIN":8664,"Ġunderteg":8665,"Ġundervisning":8666,"Ġvennene":8667,"Ġgjennomsiktige":8668,"ativer":8669,"Ġbeina":8670,"Ġbilletter":8671,"ump":8672,"Ġekskl":8673,"altvort":8674,"Ġkompon":8675,"ksjonene":8676,"oph":8677,"Ġhvorav":8678,"Ġmusk":8679,"Ġmulige":8680,"ligheten":8681,"ledere":8682,"Ġflinke":8683,"ĠSkriv":8684,"tida":8685,"Ġfortalt":8686,"Ġfortsatte":8687,"rerte":8688,"rering":8689,"Ġsykt":8690,"Ġsyssels":8691,"Ġarmer":8692,"Ġkommuner":8693,"Ġkommunik":8694,"Ġbetalt":8695,"Ġbetrakt":8696,"lack":8697,"maskiner":8698,"Ġfremtidig":8699,"Ġrammer":8700,"Ġnedgang":8701,"Ġnedlast":8702,"ĠfÃ¸lelsen":8703,"Ġvirtu":8704,"imellom":8705,"imassasje":8706,"Ġlege":8707,"ĠfagmiljÃ¸":8708,"Ġutdannings":8709,"Ġfinsk":8710,"giften":8711,"tillings":8712,"ĠskjÃ¦r":8713,"minister":8714,"Ġdemon":8715,"Ġdemokra":8716,"iserer":8717,"ĠArm":8718,"kontoret":8719,"Ġsmaker":8720,"Ġsmarte":8721,"Ġmapper":8722,"feransen":8723,"ibir":8724,"sbygg":8725,"Ġperspektiv":8726,"Ġsvindel":8727,"ĠTroms":8728,"setninger":8729,"ÃĺS":8730,"sdagen":8731,"systemet":8732,"Ġfunker":8733,"Ġgenerasjoner":8734,"Ġlyse":8735,"Ġfellesskaps":8736,"neser":8737,"Ġtyder":8738,"Ġtyske":8739,"Ġtypen":8740,"Ġbarnehager":8741,"Ġfargen":8742,"Ġ02":8743,"Ġ04":8744,"Ġgrenser":8745,"Ġredd":8746,"Ġfullmakt":8747,"Ġbygningene":8748,"Ġhovedregel":8749,"Ġforelsket":8750,"Ġsju":8751,"Ġsjansen":8752,"Ġhelseforetak":8753,"Ġordentlig":8754,"Ġsluttet":8755,"Ġledere":8756,"Ġledige":8757,"Ġsjekket":8758,"Ġgruppene":8759,"sprosjektet":8760,"Ġoppdaterte":8761,"ĠRepres":8762,"Ġvanskeligere":8763,"gruppa":8764,"tulerer":8765,"ankene":8766,"itivitet":8767,"kludere":8768,"Ġshort":8769,"itektur":8770,"Ġvideok":8771,"Ġfritt":8772,"Ġfrihet":8773,"Ġloven":8774,"ĠSamarbeid":8775,"ĠSamfunn":8776,"strekk":8777,"ĠASA":8778,"ĠMarte":8779,"ĠMarket":8780,"ĠChristine":8781,"ĠChelsea":8782,"Ġkjemik":8783,"posten":8784,"iespesi":8785,"struksjoner":8786,"Ġjuleg":8787,"Ġfunksjonalitet":8788,"ĠhÃ¥pet":8789,"Ġgrep":8790,"ĠErg":8791,"Ġbekost":8792,"Ġbeklager":8793,"present":8794,"Ġmusikken":8795,"upId":8796,"Ġuttalt":8797,"Ġposte":8798,"ARN":8799,"ARLS":8800,"Ġsettes":8801,"Ġlengde":8802,"barne":8803,"barna":8804,"trepren":8805,"ypnings":8806,"Ġgjengen":8807,"Ġbetydningen":8808,"Ġrock":8809,"Ġunntatt":8810,"Ġsykdommer":8811,"Ġadministrasjonen":8812,"Ġnevnes":8813,"eskrivelse":8814,"Ġlekre":8815,"Norges":8816,"Ġpakket":8817,"Ġdataene":8818,"Ġdiett":8819,"Ġdialog":8820,"Ġdigitalt":8821,"ĠhÃ¸rte":8822,"ĠhÃ¸res":8823,"ouse":8824,"Ġseksuelt":8825,"ĠFagspesifikk":8826,"Ġantallet":8827,"Ġanbefales":8828,"Ġstress":8829,"Ġstraks":8830,"âĢ¦]":8831,"Ġescorte":8832,"byggere":8833,"Ġalders":8834,"Ġgeni":8835,"ĠkjÃ¸rt":8836,"ĠkjÃ¸rte":8837,"Ġkosthold":8838,"trollpanelet":8839,"Ġyrk":8840,"otten":8841,"Ingen":8842,"Ġpasienten":8843,"slinjene":8844,"Ġfavoritter":8845,"ĠlÃ¸nnsomhet":8846,"Ġbeveger":8847,"Ġpsykologi":8848,"Ġbudsjettet":8849,"gjort":8850,"Ġorganiske":8851,"klaring":8852,"Ġeffektiv":8853,"Ġriktignok":8854,"Ġxxx":8855,"ĠBehandling":8856,"ĠGjennomsnitt":8857,"ĠSkift":8858,"ĠlÃ¥n":8859,"ĠHÃ¸yesterett":8860,"ĠPlante":8861,"ĠGodt":8862,"ĠGodkjenning":8863,"ĠnÃ¦ringsfondet":8864,"Ġthailand":8865,"Ġtradisjonelle":8866,"Ġyngste":8867,"Ġforvaltning":8868,"Ġtydeligvis":8869,"Ġstopper":8870,"itteratur":8871,"Ġavsla":8872,"Ġprinsippet":8873,"belegg":8874,"Ġstyrem":8875,"fordypnings":8876,"Ġprosesser":8877,"Ġquotes":8878,"Ġmobilt":8879,"ĠTeam":8880,"Ġholdes":8881,"ĠprÃ¸vde":8882,"Ġrapporter":8883,"direktÃ¸r":8884,"ĠJohn":8885,"Ġinnblikk":8886,"Ġrettighetene":8887,"Ġfolkev":8888,"Ġindik":8889,"Ġbeskrivelser":8890,"rense":8891,"Ġformidling":8892,"ĠSelskapet":8893,"ĠSelfrid":8894,"Ġforskjellene":8895,"begyn":8896,"Ġnatten":8897,"Ġopprinnelig":8898,"Ġideer":8899,"Ġopplysningene":8900,"Ġsmakte":8901,"Ġdatabase":8902,"Ġfangst":8903,"Ġrukket":8904,"Ġhjemmesider":8905,"----":8906,"Ġforklarer":8907,"Ġvarierer":8908,"Ġgenetiske":8909,"Ġreflekter":8910,"sperioden":8911,"ĠGrunnleggende":8912,"Ġfattet":8913,"Ġfattig":8914,"Ġmyndighetene":8915,"avtaler":8916,"Ġinspirert":8917,"basert":8918,"Ġthis":8919,"okument":8920,"ordinator":8921,"Ġreferans":8922,"besÃ¸k":8923,"Ġhypp":8924,"sstiller":8925,"ipping":8926,"Ġpedagogikk":8927,"Ġforhandlingene":8928,"ekonvensjon":8929,"Ġkulturminne":8930,"Ġtilbakemelding":8931,"Ġarkeologer":8932,"Ġlesbisk":8933,"Ġsupport":8934,"ĠResultatet":8935,"Ġsatser":8936,"ĠModel":8937,"ĠLillehammer":8938,"Ġrekord":8939,"Ġrekrutter":8940,"Ġnederlandsk":8941,"ĠUtvikle":8942,"Ġforbehold":8943,"ĠMuse":8944,"ĠEdinbur":8945,"Ġjuridiske":8946,"Ġkonsekvensut":8947,"Ġdestin":8948,"Ġhashtag":8949,"Ġbiblioteket":8950,"Ġassosi":8951,"Ġpenis":8952,"product":8953,"Ġutlending":8954,"ĠNovember":8955,"ĠGarden":8956,"Ġprotein":8957,"Ġtrengte":8958,"ĠCanada":8959,"Ġmaksim":8960,"Ġveggen":8961,"skvalitet":8962,"Ġjernbanen":8963,"Ġtilfeldig":8964,"Ġvinduet":8965,"Ġinstallert":8966,"Ġobservatorie":8967,"faktor":8968,"institusjoner":8969,"ĠFrankrike":8970,"Ġreklame":8971,"Ġekstremt":8972,"Ġdokumentert":8973,"bestand":8974,"fasthet":8975,"Ġanledninger":8976,"Ġklassiske":8977,"Ġbrukerkontrollpanelet":8978,"sbasert":8979,"ĠOppdragsgiver":8980,"ĠtilhÃ¸righet":8981,"BEIDSPLAN":8982,"ĠmilitÃ¦r":8983,"Ġafternoon":8984,"Ġpictures":8985,"Ġeleven":8986,"behÃ¸r":8987,"ĠJames":8988,"Ġbrasilianske":8989,"ĠBefolkningsundersÃ¸kelse":8990,"Ġfriluftsliv":8991,"vaksine":8992,"ĠEnergi":8993,"Ġpreget":8994,"ĠarbeidsmiljÃ¸":8995,"trollere":8996,"apparat":8997,"ĠSecret":8998,"saksnr":8999,"Ġfitness":9000,"Ġgigan":9001,"Ġvitenskap":9002,"urensning":9003,"ĠRogaland":9004,"Ġutenlandske":9005,"Ġvanskelige":9006,"ĠCircus":9007,"ĠsÃ¸lv":9008,"Ġdollar":9009,"Ġtilreisende":9010,"ĠHappy":9011,"Ġeldste":9012,"Ġsympt":9013,"Ġsjeldent":9014,"ĠArkivsaksnr":9015,"Ġforstadier":9016,"ĠSquare":9017,"ĠMunthe":9018,"ĠKensington":9019,"ĠElevene":9020,"ĠGjÃ¸vik":9021,"ĠfellesskapsfÃ¸l":9022,"ĠRepresenter":9023,"ARLSÃĺY":9024,"#'":9025,"').":9026,"07":9027,"52":9028,"56":9029,"?.":9030,"?Â»":9031,"CK":9032,"Disse":9033,"Dersom":9034,"FF":9035,"Gen":9036,"Gra":9037,"HD":9038,"Hel":9039,"ISK":9040,"Kon":9041,"KjÃ¸r":9042,"Kommun":9043,"Lok":9044,"MEN":9045,"Nett":9046,"Os":9047,"PU":9048,"RET":9049,"SP":9050,"SÃ¸k":9051,"Tid":9052,"Ver":9053,"VIK":9054,"XX":9055,"[/":9056,"aa":9057,"az":9058,"aord":9059,"aard":9060,"ba":9061,"bÃ¸":9062,"byg":9063,"bind":9064,"back":9065,"bibliote":9066,"con":9067,"cke":9068,"cks":9069,"cket":9070,"che":9071,"core":9072,"dy":9073,"dra":9074,"dens":9075,"dende":9076,"fell":9077,"felle":9078,"fred":9079,"fÃ¸dt":9080,"fremmende":9081,"gn":9082,"gjennom":9083,"hall":9084,"hull":9085,"http":9086,"ih":9087,"ii":9088,"iÃ¸se":9089,"kre":9090,"kna":9091,"lÃ¸se":9092,"minn":9093,"mnd":9094,"malen":9095,"modell":9096,"mars":9097,"match":9098,"mfon":9099,"nden":9100,"nov":9101,"nytt":9102,"pte":9103,"rinn":9104,"resk":9105,"relsen":9106,"tra":9107,"uf":9108,"vig":9109,"vind":9110,"vurder":9111,"yk":9112,"ystemet":9113,"Ðµ":9114,"Ð½":9115,"enker":9116,"enskap":9117,"Ġsan":9118,"Ġslu":9119,"Ġstig":9120,"Ġsover":9121,"Ġsunt":9122,"Ġstillingen":9123,"Ġfe":9124,"Ġfr":9125,"Ġfen":9126,"Ġfalt":9127,"Ġfulle":9128,"Ġfoss":9129,"Ġfrig":9130,"ora":9131,"orm":9132,"oren":9133,"orsk":9134,"orge":9135,"orien":9136,"orld":9137,"Ġdanne":9138,"anu":9139,"anisk":9140,"Ġminne":9141,"elin":9142,"elli":9143,"elever":9144,"Ã¸e":9145,"Ã¸mmer":9146,"Ġhil":9147,"ĠhÃ¦":9148,"Ġhere":9149,"Ġhette":9150,"Ġhhv":9151,"Ġhendene":9152,"ties":9153,"tiker":9154,"tivert":9155,"Ġbut":9156,"Ġbatter":9157,"Ġbio":9158,"Ġbittel":9159,"Ġbadet":9160,"Ġvakk":9161,"Ġvunnet":9162,"Ġvogn":9163,"Ġvalut":9164,"tema":9165,"Ġadresse":9166,"Ġket":9167,"Ġkris":9168,"Ġkino":9169,"Ġkraftig":9170,"Ġih":9171,"Ġiste":9172,"Ġpers":9173,"Ġpassi":9174,"Ġposisjon":9175,"esla":9176,"esex":9177,"ome":9178,"oming":9179,"ompon":9180,"ingsk":9181,"lia":9182,"lis":9183,"lister":9184,"edia":9185,"egn":9186,"egning":9187,"egener":9188,"egion":9189,"Ġforf":9190,"Ġformer":9191,"Ġforfall":9192,"ĠforsÃ¸kt":9193,"Ġforstykket":9194,"Ġforekomsten":9195,"Ġgle":9196,"Ġgate":9197,"Ġgaller":9198,"Ġgyldig":9199,"oni":9200,"ondet":9201,"Ġtipse":9202,"Ġnet":9203,"ĠÃ¥tte":9204,"lektet":9205,"ray":9206,"Ġtilsi":9207,"Ġtilsendt":9208,"Ġern":9209,"Ġerme":9210,"Ġuv":9211,"Ġusi":9212,"Ġulov":9213,"ala":9214,"alarm":9215,"styre":9216,"ĠavlÃ¸p":9217,"Ġavansert":9218,"ĠpÃ¥ske":9219,"ĠpÃ¥meld":9220,"ĠpÃ¥vist":9221,"ĠpÃ¥fÃ¸lgende":9222,"Ġdetaljer":9223,"Ġtj":9224,"Ġtale":9225,"Ġtend":9226,"Ġtving":9227,"Ġeng":9228,"Ġendel":9229,"Ġenighet":9230,"dem":9231,"depon":9232,"ily":9233,"asje":9234,"Ġlam":9235,"Ġlede":9236,"ppy":9237,"isiner":9238,"Ġmedarbeidere":9239,"Ġmedlemmene":9240,"agas":9241,"ageste":9242,"Ã¸rings":9243,"ĠSP":9244,"ĠSÃ¦r":9245,"ĠSyl":9246,"ĠSaken":9247,"ĠSentral":9248,"amen":9249,"Ġjap":9250,"Ġjog":9251,"ĠDN":9252,"ĠDV":9253,"ĠDigital":9254,"ttps":9255,"Ġrum":9256,"Ġrull":9257,"ĠrÃ¸tter":9258,"Ġutel":9259,"Ġutfyl":9260,"Ġutvisning":9261,"Ġutsendt":9262,"ĠutÃ¸vere":9263,"seende":9264,"ria":9265,"ĠskjÃ¸r":9266,"Ġskilt":9267,"Ġskogen":9268,"Ġskigrupp":9269,"andel":9270,"Ġvib":9271,"akte":9272,"aktiv":9273,"ĠHy":9274,"ĠHÃ¥r":9275,"ĠHels":9276,"ĠHistor":9277,"ĠHard":9278,"ĠHammer":9279,"ĠFir":9280,"ĠFly":9281,"ĠFree":9282,"rue":9283,"ĠMulti":9284,"Ġdekk":9285,"Ġdekkes":9286,"idne":9287,"Ã¥rboka":9288,"Ġomsider":9289,"Ġomhandler":9290,"Ġoppi":9291,"Ġoppsummer":9292,"Ġoppvask":9293,"ĠNet":9294,"ĠNil":9295,"ĠNei":9296,"ĠNAV":9297,"ĠNEI":9298,"ikten":9299,"ĠBB":9300,"ĠBre":9301,"ĠBri":9302,"ĠBek":9303,"ĠBot":9304,"ĠBall":9305,"ĠByen":9306,"ĠBedre":9307,"ĠBachelor":9308,"Ġgjer":9309,"Ġgjest":9310,"ĠAu":9311,"ĠAan":9312,"ĠAas":9313,"ĠIP":9314,"Ġinnbyggere":9315,"ĠKS":9316,"ĠKol":9317,"ĠKlo":9318,"ĠKandidaten":9319,"forstÃ¥":9320,"forlÃ¸p":9321,"forkant":9322,"usse":9323,"ĠTinder":9324,"kehuset":9325,"ĠVad":9326,"ĠVinter":9327,"ĠVÃ¥re":9328,"ĠEi":9329,"ĠEir":9330,"ĠEika":9331,"ĠEscort":9332,"ĠEilert":9333,"Ġlikt":9334,"ĠLu":9335,"ĠLis":9336,"ĠLud":9337,"ĠLier":9338,"ĠLÃ¸nn":9339,"ĠLink":9340,"ĠLaer":9341,"ĠLive":9342,"ultet":9343,"Ġkjekt":9344,"Ġkjoler":9345,"Ġkjernen":9346,"ĠPet":9347,"ĠPal":9348,"ĠPum":9349,"ĠPriv":9350,"ĠPost":9351,"ĠPic":9352,"ĠPresentasjon":9353,"ĠPedagogikk":9354,"oku":9355,"serv":9356,"serte":9357,"stest":9358,"Ġinf":9359,"Ġinfrastruktur":9360,"skapende":9361,"tetÃ¸y":9362,"odeller":9363,"odegener":9364,"Ġelver":9365,"ĠOM":9366,"ĠOne":9367,"Ġspek":9368,"Ġspent":9369,"Ġspania":9370,"avdeling":9371,"send":9372,"lot":9373,"lott":9374,"ĠGri":9375,"ĠGur":9376,"ĠGate":9377,"ĠGran":9378,"ĠGard":9379,"ĠGame":9380,"Ġuni":9381,"Ġunges":9382,"sprÃ¥ket":9383,"Ġprotokoll":9384,"Ġprogrammer":9385,"Ġprogresjon":9386,"vev":9387,"Ġovergang":9388,"Ġoverfl":9389,"Ġoversikten":9390,"dighet":9391,"ĠÃ¥rlige":9392,"osene":9393,"osof":9394,"ĠJon":9395,"ĠJak":9396,"ĠJac":9397,"otter":9398,"Ġbarnel":9399,"Ġbarnets":9400,"Ġnyeste":9401,"Ġvedlegg":9402,"Ã¸per":9403,"Ġanonym":9404,"Ġanmeldelser":9405,"Ġkonver":9406,"ĠForm":9407,"ĠFormel":9408,"tiltak":9409,"Ġ33":9410,"Ġklin":9411,"Ġklassen":9412,"undans":9413,"obello":9414,"ĠNorm":9415,"Ġrepar":9416,"Ġrevol":9417,"Ġeu":9418,"Ġgodkjente":9419,"visningen":9420,"visnings":9421,"Ġhelses":9422,"Ġtext":9423,"Ġleir":9424,"ĠStasjon":9425,"ĠStrÃ¸m":9426,"ĠStore":9427,"ĠStyret":9428,"Ġprest":9429,"ĠCa":9430,"ĠCe":9431,"ĠCol":9432,"ingstid":9433,"fting":9434,"ittet":9435,"Ġhater":9436,"Ġhabili":9437,"Ġherlig":9438,"lagg":9439,"Ġtidspunktet":9440,"Ġbevil":9441,"Ġbeholde":9442,"iering":9443,"dage":9444,"umul":9445,"ĠnÃ¥dd":9446,"ebygg":9447,"Ġmyter":9448,"Ġgravide":9449,"ivir":9450,"oppgaven":9451,"Ġsteg":9452,"perties":9453,"formell":9454,"ansjen":9455,"Ġverk":9456,"Ġverken":9457,"Ġdelene":9458,"graden":9459,"gradige":9460,"ksjonen":9461,"opol":9462,"Ġorigin":9463,"ledd":9464,"ĠflÃ¸rt":9465,"ĠSkinn":9466,"ĠSkulle":9467,"ĠSkrevet":9468,"ĠSkageste":9469,"chn":9470,"yltetÃ¸y":9471,"Ġvisste":9472,"rerende":9473,"ĠkjÃ¦rester":9474,"Ġsertif":9475,"Ġsyv":9476,"ĠEngelsk":9477,"redundans":9478,"Ġartig":9479,"ondheim":9480,"Ġkommunal":9481,"Ġbetal":9482,"sloven":9483,"rykt":9484,"Ġtakke":9485,"ĠbÃ¥nd":9486,"ostad":9487,"Ã¸dsel":9488,"ĠDefin":9489,"ĠDepartementet":9490,"ĠkjÃ¸pet":9491,"ĠkjÃ¸pes":9492,"Ġbestemmelser":9493,"smund":9494,"ated":9495,"ĠProfesjon":9496,"Ġfagskol":9497,"ĠÃĺv":9498,"ical":9499,"slÃ¥tt":9500,"Ġbyttet":9501,"act":9502,"Ġlangsiktige":9503,"Ġ76":9504,"Ġfinske":9505,"knologi":9506,"programmet":9507,"Ġvokse":9508,"Ġvokser":9509,"eide":9510,"ĠlÃ¸ping":9511,"endal":9512,"ranker":9513,"klÃ¦r":9514,"klasse":9515,"yster":9516,"ysere":9517,"Ġfiler":9518,"Ġfilosof":9519,"Ġplanprogram":9520,"iseringen":9521,"Ġsynd":9522,"Ġspesial":9523,"Ġspesiell":9524,"Ġferske":9525,"Ġkvalifikasjon":9526,"Ġsmeltet":9527,"ugust":9528,"Ġligner":9529,"Ġadm":9530,"Ġgirls":9531,"Ġlesing":9532,"trinn":9533,"irektoratet":9534,"Ġinnleggene":9535,"Ġinnleggelse":9536,"Ġpara":9537,"Ġ:-":9538,"ferien":9539,"Ġstudi":9540,"Ġsamtykker":9541,"Ġlivsstil":9542,"Ġlivskvalitet":9543,"ĠÃ¸kende":9544,"ĠÃ¸kologisk":9545,"faringer":9546,"farging":9547,"Ġslutte":9548,"ĠMÃ¸teprotokoll":9549,"slaget":9550,"Ġtrodd":9551,"Ġfellesskapet":9552,"Ġmatlag":9553,"Ġkreativ":9554,"Ġskapet":9555,"Ġskapes":9556,"Ġblogge":9557,"Ġyte":9558,"Ġyoutube":9559,"ampagne":9560,"synet":9561,"synlig":9562,"samfunn":9563,"Ġgrens":9564,"Ġsengen":9565,"hÃ¥ndtering":9566,"ĠsÃ¸kt":9567,"inering":9568,"Ġhovedstad":9569,"Ġhandels":9570,"Ġferdighet":9571,"Ġblomst":9572,"styrke":9573,"ĠNordic":9574,"ĠstÃ¸tt":9575,"eiledning":9576,"Ġhelsefag":9577,"ORT":9578,"Ġstrid":9579,"Ġstrikket":9580,"Ġutesteng":9581,"ventninger":9582,"kurr":9583,"medlem":9584,"sprogrammet":9585,"settelse":9586,"kommune":9587,"Ġtingene":9588,"gruppene":9589,"sÃ¸ks":9590,"ĠberÃ¸rte":9591,"ĠKjÃ¦r":9592,"Ġfriske":9593,"Ġnaturen":9594,"Ġlovlig":9595,"Ġfoto":9596,"sesser":9597,"Ġtrav":9598,"ĠChrist":9599,"ĠServi":9600,"Ġverdenskrig":9601,"Ġkrang":9602,"Ġskjermen":9603,"lyst":9604,"Ġklikker":9605,"Ġhjelpepleiere":9606,"kompet":9607,"Ġgleden":9608,"ĠFram":9609,"ĠhÃ¥pe":9610,"istrert":9611,"Ġfremmer":9612,"ĠsÃ¸rger":9613,"ĠrÃ¥dmann":9614,"ĠpopupId":9615,"Ġorganisert":9616,"Ġtjener":9617,"âĢĿ,":9618,"SKJ":9619,"biler":9620,"bildet":9621,"ARBEIDSPLAN":9622,"ĠBilder":9623,"trekk":9624,"anserte":9625,"ĠsÃ¸ket":9626,"Ġkarriere":9627,"Ġkunstnere":9628,"Ġapplik":9629,"Ġsolgt":9630,"Ġmedlemskap":9631,"Ġnevner":9632,"Ġtettheter":9633,"Ġjorden":9634,"Ġpopularitet":9635,"espill":9636,"ĠBruke":9637,"ĠnÃ¦rmiljÃ¸":9638,"Ġmetode":9639,"Ġfokusere":9640,"Ġutgangen":9641,"Ġkropps":9642,"Ġflykt":9643,"ĠKunstÃ¥rboka":9644,"ĠdrÃ¸mmer":9645,"ĠdrÃ¸ftet":9646,"ĠTidlig":9647,"utslipp":9648,"Ġangitt":9649,"Ġstatsminister":9650,"ĠFORM":9651,"ĠaktÃ¸rer":9652,"Ġtegnet":9653,"Inter":9654,"pleie":9655,"Ġkalk":9656,"Ġkaldt":9657,"Ġkampanje":9658,"1300":9659,"Ġmangel":9660,"Ġbelegg":9661,"Ġtanken":9662,"Ġinstanser":9663,"manual":9664,"yting":9665,"arif":9666,"Ġbevegelse":9667,"lendere":9668,"Ġpsykiske":9669,"ridge":9670,"ĠRoy":9671,"Ġkommentarfeltet":9672,"Ġ1995":9673,"Ġ1999":9674,"Ġorganisk":9675,"Ġeffekten":9676,"Ġeffektive":9677,"blad":9678,"Ġakus":9679,"Ġanerkjent":9680,"Ġforetrekker":9681,"ĠHÃ¸yre":9682,"Ġalternativet":9683,"ĠOrganisasjon":9684,"Ġdrept":9685,"Ġdyrt":9686,"ĠvÃ¦ret":9687,"Ġthaimassasje":9688,"isitet":9689,"ĠSted":9690,"ĠStein":9691,"Ġpresenterer":9692,"ONF":9693,"Ġlunge":9694,"ĠModer":9695,"Ġfjerde":9696,"Ġimponer":9697,"Ġimplementering":9698,"Ġhavet":9699,"Ġkursen":9700,"Ġkurven":9701,"Ġstykke":9702,"Ġfylkest":9703,"Ġjulep":9704,"Ġhindrer":9705,"Ġboliger":9706,"egruppe":9707,"issene":9708,"ĠProsjektbeskrivelse":9709,"Ġkartlegging":9710,"Ġkartlegge":9711,"ĠtÃ¸rr":9712,"Ġlinken":9713,"Ġregional":9714,"programvare":9715,"ĠFril":9716,"ĠFrÃ¸yt":9717,"ĠAmalie":9718,"ĠIsland":9719,"Ġfolkebibliotek":9720,"Ġdyb":9721,"Ġmodne":9722,"Ġkontakter":9723,"Ġprosessene":9724,"Ġformidle":9725,"agnos":9726,"Elnan":9727,"Ġbodd":9728,"Ġkompetent":9729,"Ġtredjepart":9730,"Ġsignal":9731,"Ġidenti":9732,"Ġprofesjonell":9733,"kanten":9734,"Ġmaterialer":9735,"ĠSÃ¸knad":9736,"Ġavhengigheter":9737,"ĠtÃ¥ler":9738,"ĠHaugesund":9739,"Ġ;-)":9740,"Ġdommere":9741,"Ġveiled":9742,"levering":9743,"Ġalvorlig":9744,"Ġbekrefte":9745,"Ġbekreftet":9746,"Ġrefleksjon":9747,"kostnader":9748,"Ġ[âĢ¦]":9749,"Ġlenke":9750,"Ġmatcher":9751,"ĠDessverre":9752,"Ġintensjon":9753,"Ġinspirer":9754,"Ġinspirere":9755,"Ġarrangert":9756,"Ġattraktivt":9757,"bordet":9758,"Ġfakta":9759,"Ġfaktum":9760,"Ġcoach":9761,"video":9762,"Ġperfekte":9763,"Ġmusikalske":9764,"Ġsemester":9765,"ĠBydel":9766,"Ġarbeidsplass":9767,"fjellet":9768,"organisasjon":9769,"Ġjevnlig":9770,"Ġfuktig":9771,"Ġimot":9772,"Ġforplikt":9773,"ĠGlomma":9774,"ĠGreve":9775,"Ġforutsetning":9776,"ĠHalloween":9777,"ĠKleopatra":9778,"ĠExpl":9779,"ĠUtvikling":9780,"Ġmotivasjon":9781,"klubben":9782,"Ġfornybar":9783,"ĠRegional":9784,"Ġaksepterer":9785,"ristiansund":9786,"balanse":9787,"Ġforbeholder":9788,"ĠtilnÃ¦rm":9789,"ĠtÃ¸ff":9790,"Ġenslige":9791,"Ġryddet":9792,"Ġutelivet":9793,"ĠMona":9794,"Ġhelhetlig":9795,"Ġorganisasjonens":9796,"ĠÃ¸yeblikket":9797,"Ġterror":9798,"Ġterrenget":9799,"('#'":9800,"Ġarkitekt":9801,"rasil":9802,"Ġdetaljert":9803,"ĠutÃ¸vende":9804,"Ġoppfordrer":9805,"kulator":9806,"instruks":9807,"Ġfristende":9808,"Ġvandret":9809,"stÃ¸rrelse":9810,"Ġvitne":9811,"ĠhjÃ¸rnet":9812,"Ġadministrer":9813,"Ġfrykt":9814,"Ġfrivillig":9815,"ĠRapporten":9816,"vidert":9817,"Ġfolkegrupper":9818,"Ġdrinker":9819,"Ġdrinks":9820,"ĠStudiepoeng":9821,"ÃĨRING":9822,"flyt":9823,"Ġkreditt":9824,"ĠHensikt":9825,"Ġskjulte":9826,"Ġvintage":9827,"Ġkjennetegner":9828,"Ġmikro":9829,"ĠRobert":9830,"somrÃ¥de":9831,"Ġspesifikke":9832,"Ġinstallasjon":9833,"leverandÃ¸rer":9834,"making":9835,"Ġoppbevaring":9836,"Ġbefinner":9837,"Ġselvsertifisering":9838,"Ġorkesteret":9839,"ĠAllerede":9840,"ferdigheter":9841,"Ġsjokolade":9842,"ĠChristiania":9843,"Ġjordbrukerne":9844,"ĠpÃ¥pek":9845,"ĠHjelpe":9846,"ĠFamilien":9847,"ĠMandal":9848,"ĠMartin":9849,"ĠUkraina":9850,"Ġtekster":9851,"Ġsymbol":9852,"ĠEnkelte":9853,"INTEF":9854,"Ġempati":9855,"ĠKommentarer":9856,"ĠNatalie":9857,"ĠGerhard":9858,"ĠVideo":9859,"perioden":9860,"formidling":9861,"Ġfingrene":9862,"Ġdmredundans":9863,"Ġforberede":9864,"Ġenorme":9865,"ĠClove":9866,"Ġrespons":9867,"Ġspilleautomater":9868,"Ġmeksikanske":9869,"Ġhorisontale":9870,"Ġbensin":9871,"Ġkylling":9872,"radioundersÃ¸kelsen":9873,"Ġliknende":9874,"alifications":9875,"Ġundertegnede":9876,"Ġeksklus":9877,"altvortSk":9878,"Ġbekostning":9879,"barnehagen":9880,"Ġmobiltelefon":9881,"ĠEdinburgh":9882,"ĠRepresenterer":9883,"felles":9884,"Ġusikkert":9885,"odegenerering":9886,"ĠSkagestein":9887,"ĠFrÃ¸ytlog":9888,"Ġdmredundansfri":9889,"');":9890,"+)":9891,"47":9892,"48":9893,"49":9894,"55":9895,"65":9896,"68":9897,"71":9898,"77":9899,"98":9900,":.":9901,";)":9902,"At":9903,"Add":9904,"Agder":9905,"BS":9906,"Bl":9907,"Bo":9908,"Cart":9909,"FO":9910,"Fil":9911,"FÃ¸l":9912,"GS":9913,"Gu":9914,"HAN":9915,"HET":9916,"HOL":9917,"IC":9918,"IAL":9919,"KAL":9920,"Kurset":9921,"KARLSÃĺY":9922,"Litt":9923,"London":9924,"LING":9925,"Man":9926,"NL":9927,"Nord":9928,"NORG":9929,"OP":9930,"Off":9931,"Ph":9932,"Po":9933,"Person":9934,"Pris":9935,"Pakistan":9936,"Ro":9937,"RNA":9938,"Rapp":9939,"RÃħ":9940,"TS":9941,"Tor":9942,"ao":9943,"bÃ¸r":9944,"bers":9945,"bay":9946,"bÃ¥t":9947,"blemer":9948,"bÃ¸kene":9949,"casi":9950,"ds":9951,"dalen":9952,"ful":9953,"fla":9954,"fair":9955,"hm":9956,"hor":9957,"hetten":9958,"hallen":9959,"helset":9960,"iz":9961,"ied":9962,"ipt":9963,"jÃ¥":9964,"jok":9965,"jakk":9966,"juer":9967,"kene":9968,"kart":9969,"klag":9970,"kamp":9971,"kunder":9972,"lar":9973,"lske":9974,"mus":9975,"mart":9976,"materi":9977,"myndig":9978,"ns":9979,"nÃ¥":9980,"nÃ¸":9981,"nÃ©":9982,"plu":9983,"porte":9984,"puss":9985,"politikk":9986,"punkter":9987,"ringen":9988,"rige":9989,"rfaglig":9990,"sre":9991,"sub":9992,"selen":9993,"ua":9994,"uch":9995,"ution":9996,"vester":9997,"vaksin":9998,"wi":9999,"ware":10000,"worth":10001,"yme":10002,"yper":10003,"ypt":10004,"Ð¾":10005,"ÑĤ":10006,"âĻ¥":10007,"Ġē":10008,"Ġegg":10009,"ĠÃ¸l":10010,"Ġess":10011,"Ġarbeide":10012,"ĠsÃ¦":10013,"Ġsul":10014,"Ġsanger":10015,"Ġsaf":10016,"etninger":10017,"Ã¥det":10018,"inÃ¦r":10019,"inem":10020,"iness":10021,"institutt":10022,"Ġfa":10023,"Ġfel":10024,"Ġfru":10025,"Ġfab":10026,"Ġfei":10027,"orks":10028,"organ":10029,"ortere":10030,"Ġdan":10031,"Ġdna":10032,"Ġdrev":10033,"Ġdyre":10034,"ani":10035,"Ġmi":10036,"Ġmiste":10037,"Ġmht":10038,"Ġmassi":10039,"Ġmagen":10040,"ĠmRNA":10041,"eloven":10042,"arin":10043,"armen":10044,"aratet":10045,"Ġhann":10046,"Ġheste":10047,"Ġhull":10048,"Ġhode":10049,"Ġhytt":10050,"Ġhef":10051,"Ġhavn":10052,"Ġhttps":10053,"timer":10054,"Ġbb":10055,"Ġbam":10056,"Ġbussen":10057,"Ġbundet":10058,"Ġbivir":10059,"ĠvÃ¦":10060,"Ġvaks":10061,"Ġveter":10062,"Ġag":10063,"Ġama":10064,"Ġasf":10065,"Ġkake":10066,"Ġkrets":10067,"Ġkines":10068,"Ġimmun":10069,"Ġpan":10070,"Ġpent":10071,"Ġpul":10072,"Ġpisk":10073,"ĠpÃ¸l":10074,"Ġpunkter":10075,"Ġplikter":10076,"omene":10077,"omos":10078,"omiteen":10079,"lip":10080,"liten":10081,"listen":10082,"litteratur":10083,"edd":10084,"edal":10085,"egen":10086,"egrens":10087,"Ġforelig":10088,"Ġforsker":10089,"Ġforsvar":10090,"Ġforster":10091,"Ġforuten":10092,"Ġforsikring":10093,"Ġforandringer":10094,"Ġforbruker":10095,"ĠforespÃ¸rs":10096,"skere":10097,"Ġglipp":10098,"onen":10099,"Ġna":10100,"Ġni":10101,"Ġnasjon":10102,"ĠnÃ¸k":10103,"leie":10104,"raft":10105,"terings":10106,"Ġup":10107,"Ġuvanlig":10108,"allere":10109,"aldt":10110,"aldrende":10111,"stet":10112,"stan":10113,"stol":10114,"strÃ¸":10115,"stjenester":10116,"Ġavholdt":10117,"Ġavlegges":10118,"Ġtel":10119,"Ġtenn":10120,"Ġtab":10121,"Ġtalt":10122,"Ġteller":10123,"Ġtaler":10124,"Ġtrist":10125,"Ġender":10126,"ila":10127,"iler":10128,"ilkÃ¥r":10129,"asjer":10130,"astisk":10131,"Ġlm":10132,"Ġlomm":10133,"Ġlad":10134,"Ġlurte":10135,"Ġlastet":10136,"atning":10137,"unette":10138,"ages":10139,"ague":10140,"Ã¸rene":10141,"ĠSM":10142,"ĠSund":10143,"ĠSna":10144,"ĠSlike":10145,"ĠSyd":10146,"ĠSÃħ":10147,"ĠSander":10148,"ĠStillings":10149,"verte":10150,"verden":10151,"versjon":10152,"amin":10153,"ament":10154,"ammel":10155,"Ġjernbane":10156,"Ġjammen":10157,"Ġjavas":10158,"igbar":10159,"Ã¦v":10160,"ĠDat":10161,"ĠDyre":10162,"ĠDokumentasjon":10163,"ttene":10164,"Ġrent":10165,"Ġrommer":10166,"ĠrÃ¸dt":10167,"Ġrollen":10168,"Ġryggen":10169,"Ġutk":10170,"Ġutsikt":10171,"ĠutfÃ¸rer":10172,"olske":10173,"oline":10174,"olden":10175,"Ġharving":10176,"ritet":10177,"Ġskar":10178,"Ġskis":10179,"ĠskjÃ¸":10180,"roati":10181,"Ġvid":10182,"aki":10183,"Ġstaten":10184,"Ġstoler":10185,"Ġstabili":10186,"ĠHO":10187,"ĠHÃ¸":10188,"ĠHÃ¦":10189,"ĠHad":10190,"ĠHav":10191,"ĠHelt":10192,"ĠFire":10193,"Ġetikk":10194,"rugu":10195,"ĠMe":10196,"ĠMil":10197,"ĠMul":10198,"ĠMark":10199,"ĠMellom":10200,"ĠMjÃ¸":10201,"ĠMÃħ":10202,"Ġdejt":10203,"Ġoppvar":10204,"ĠoppfÃ¸r":10205,"ĠoppgjÃ¸r":10206,"ĠNB":10207,"ĠNam":10208,"ĠNev":10209,"ĠNSB":10210,"ĠNilsen":10211,"ĠNPU":10212,"ekj":10213,"ektive":10214,"ĠBan":10215,"ĠByg":10216,"ĠButikk":10217,"ĠBibliotek":10218,"ĠBack":10219,"Ġgjester":10220,"ĠAir":10221,"ĠAud":10222,"ĠAgder":10223,"ĠAmatic":10224,"ĠAzure":10225,"ĠAgenda":10226,"Ġfrases":10227,"Ġinnlogging":10228,"ĠKing":10229,"ĠKob":10230,"ĠKurs":10231,"ĠKlager":10232,"ĠKristiansand":10233,"forskriften":10234,"Ġkanadiske":10235,"ĠTF":10236,"ĠTar":10237,"ĠTra":10238,"ĠTry":10239,"ĠTim":10240,"ĠTekst":10241,"ĠTenk":10242,"ĠTveit":10243,"ĠTwitter":10244,"Ġalli":10245,"Ġalmanakk":10246,"ĠValg":10247,"Ġnoens":10248,"ĠEid":10249,"ĠEkte":10250,"ĠEva":10251,"ĠEIF":10252,"ĠEbay":10253,"Ġlil":10254,"ĠLK":10255,"ĠLav":10256,"ĠLaks":10257,"ĠLÃ¸rdag":10258,"Ġsamlede":10259,"Ġdukker":10260,"ular":10261,"annes":10262,"annonse":10263,"ommel":10264,"Ġkjerne":10265,"ĠPat":10266,"ĠPsyk":10267,"ĠPLAN":10268,"Ġvariere":10269,"server":10270,"sites":10271,"situ":10272,"Ġinkludere":10273,"hets":10274,"emer":10275,"emis":10276,"orden":10277,"ordnet":10278,"oda":10279,"Ġelv":10280,"ĠOdd":10281,"Ġspre":10282,"Ġspanske":10283,"Ġspurt":10284,"Ġspons":10285,"ĠsprÃ¥ket":10286,"behandler":10287,"utdann":10288,"ĠRom":10289,"ĠRÃ¸y":10290,"ĠRine":10291,"ĠRoms":10292,"Ã¸ye":10293,"ĠGO":10294,"ĠGÃ¥r":10295,"ĠGest":10296,"ĠGud":10297,"ĠGutter":10298,"Ġbrudd":10299,"Ġunger":10300,"ĠunÃ¸d":10301,"mming":10302,"spillere":10303,"ĠmÃ¥linger":10304,"Ġprov":10305,"geren":10306,"ĠovervÃ¥":10307,"ĠÃ¥rsti":10308,"ĠÃ¥rsaker":10309,"jenvinning":10310,"ĠJor":10311,"ĠJord":10312,"ots":10313,"Ġclub":10314,"Ġcampus":10315,"Ġbarndom":10316,"ĠUp":10317,"ĠUlike":10318,"ĠUkrainske":10319,"ĠUSB":10320,"ĠUrugu":10321,"ssel":10322,"ssjef":10323,"itz":10324,"itor":10325,"Ġetterkant":10326,"Ġansl":10327,"Ġantrekk":10328,"ĠtrÃ¸st":10329,"Ġtrenge":10330,"Ġtrondheim":10331,"alid":10332,"ogrupp":10333,"Ġkonkluder":10334,"Ġkontrollere":10335,"ĠForbruker":10336,"ĠForny":10337,"ĠInne":10338,"ĠIngeb":10339,"varig":10340,"tilskuddet":10341,"ffekter":10342,"merker":10343,"Ġreins":10344,"Ġrehabili":10345,"Ġnettverks":10346,"Ġhjalp":10347,"Ġteoret":10348,"Ġleksikon":10349,"ĠStrikke":10350,"ovies":10351,"ĠCont":10352,"artnere":10353,"Ġunderholdning":10354,"ĠundersÃ¸ke":10355,"Ġunderveis":10356,"ĠundertÃ¸y":10357,"ĠunderleverandÃ¸rer":10358,"Ġdatingsite":10359,"Ġdatingtjenester":10360,"Ġhaug":10361,"Ġvenninner":10362,"ĠgjennomgÃ¥ende":10363,"Ġherlige":10364,"Ġtida":10365,"Ġbevare":10366,"aby":10367,"abelt":10368,"dret":10369,"mÃ¥te":10370,"ĠÃ¨":10371,"Ġeksper":10372,"takene":10373,"takten":10374,"Ġregning":10375,"Ġregne":10376,"Ġregnes":10377,"Ġregister":10378,"lette":10379,"Ġlagde":10380,"Ġlagrer":10381,"Ġlagret":10382,"Ġkomfort":10383,"Ġverre":10384,"ateret":10385,"gratis":10386,"grammene":10387,"Ġgangene":10388,"head":10389,"ĠÂ£":10390,"Ġorgas":10391,"ĠhÃ¸yest":10392,"ĠhÃ¸yskole":10393,"Ġmust":10394,"ledelse":10395,"chat":10396,"tids":10397,"ĠfortlÃ¸p":10398,"Ġservi":10399,"ĠEndre":10400,"redde":10401,"Ġarti":10402,"Ġbety":10403,"ĠAnita":10404,"rykket":10405,"Ġfremste":10406,"Ġinternet":10407,"Ġbrukernavnet":10408,"Ġarbeidsv":10409,"ĠHvit":10410,"ĠbÃ¥ten":10411,"logger":10412,"Ġrammet":10413,"Ġradio":10414,"Ġnedre":10415,"Ġnedsatt":10416,"Ġvennskapet":10417,"priser":10418,"prÃ¸ver":10419,"prisen":10420,"kjenne":10421,"ĠfÃ¸lelses":10422,"dia":10423,"olek":10424,"Ġbesluttet":10425,"Ġbestillingen":10426,"Ġviktigere":10427,"ĠUtfordringer":10428,"Ġbedste":10429,"imensjon":10430,"ilie":10431,"ĠProtokoll":10432,"ĠProperties":10433,"ĠÃ¸nskelig":10434,"Ġlegemiddel":10435,"ĠWh":10436,"ĠWang":10437,"Ġinformasjonskap":10438,"ĠÃĺidne":10439,"slutning":10440,"sÃ¸konom":10441,"Ġlandbruk":10442,"Ġbydel":10443,"acts":10444,"Ġlangrenn":10445,"Ġfinalen":10446,"Ġ99":10447,"Ġwe":10448,"Ġvokst":10449,"ERN":10450,"endt":10451,"endes":10452,"tillinger":10453,"klÃ¦ring":10454,"ĠnÃ¦ring":10455,"ĠnÃ¦rliggende":10456,"strid":10457,"ysning":10458,"ysveen":10459,"ĠÃ¥pningen":10460,"Ġturister":10461,"ĠInnkalte":10462,"minar":10463,"Ġplanlegger":10464,"iseres":10465,"Ġplattform":10466,"resultat":10467,"ront":10468,"Ġspesifikk":10469,"uttalelse":10470,"Ġdessert":10471,"Ġdeltatt":10472,"Ġkvalifikasjons":10473,"ĠLondontips":10474,"Ġsmaken":10475,"filer":10476,"haugen":10477,"ĠmÃ¸bler":10478,"risiko":10479,"Ġbeskyttet":10480,"2018":10481,"Ġmappe":10482,"Ġtenk":10483,"Ġmoren":10484,"Ġparall":10485,"Ġparsell":10486,"sbyen":10487,"svol":10488,"svinger":10489,"sviten":10490,"ĠsvÃ¸mme":10491,"ĠTrenger":10492,"ĠTrening":10493,"Ġsamtykke":10494,"seth":10495,"INE":10496,"sdager":10497,"Ġtariff":10498,"sykkel":10499,"Ġrelasjonsdatabasedesign":10500,"ĠTilgang":10501,"ĠTilsynsutvalget":10502,"Ġvalget":10503,"ĠSpillet":10504,"Ġgenerelle":10505,"raften":10506,"aktÃ¸r":10507,"Ġslutter":10508,"ĠMÃ¸teinnkalling":10509,"Ġhjelpemidler":10510,"Ġbarnehagens":10511,"Ġbryr":10512,"Ġvirkeligheten":10513,"Ġkrevende":10514,"Ġfaren":10515,"Ġskapt":10516,"Ġ06":10517,"Ġblogging":10518,"Ġytre":10519,"ĠyDNA":10520,"ĠIntern":10521,"frik":10522,"Ġpornofilmer":10523,"sammen":10524,"Ġgrill":10525,"strasjon":10526,"stralske":10527,"Ġredning":10528,"Ġredigere":10529,"Ġredaksjonen":10530,"Ġreduksjon":10531,"ĠOpprett":10532,"ĠsÃ¸sken":10533,"ĠsÃ¸ppel":10534,"inerer":10535,"Ġbygning":10536,"Ġchampagne":10537,"ĠhovednivÃ¥ene":10538,"Ġsnar":10539,"grunnlag":10540,"ĠnyttÃ¥rs":10541,"Ġordningen":10542,"Ġstrikker":10543,"Ġutested":10544,"kurven":10545,"ĠKarin":10546,"Ġledet":10547,"Ġledig":10548,"Ġfantasi":10549,"ĠSep":10550,"angeren":10551,"Ġknulle":10552,"Ġknips":10553,"ĠKunne":10554,"virke":10555,"kommet":10556,"Ġtingrett":10557,"Ġforskjeller":10558,"Ġdratt":10559,"Ġsamarbeidsp":10560,"Ãħr":10561,"Ġvideos":10562,"Ġteknikk":10563,"Ġteknikker":10564,"Ġopplevde":10565,"ĠSÃ¥nn":10566,"ĠMaria":10567,"Ġhalvt":10568,"Ġtilfellet":10569,"Ġparty":10570,"ssystemer":10571,"onto":10572,"onering":10573,"Ġformelle":10574,"Ġproduktet":10575,"ĠhÃ¥nden":10576,"Ġfamilier":10577,"Ġhistorisk":10578,"Ġgrei":10579,"Ġgreie":10580,"ĠrÃ¥dmannen":10581,"Ġvanligste":10582,"geland":10583,"ĠbÃ¸rn":10584,"Ġtjenestet":10585,"Ġkravene":10586,"Ġposted":10587,"Ġscene":10588,"Ġstandarder":10589,"Ġ140":10590,"OLEN":10591,"splaner":10592,"ĠbesÃ¸kte":10593,"Ġsocial":10594,"roppen":10595,"box":10596,"Ġsosialpersonell":10597,"ĠsÃ¸kte":10598,"ĠForskrift":10599,"ĠNye":10600,"Ġsykle":10601,"Ġadministrative":10602,"budet":10603,"Ġsendte":10604,"Ġtettsted":10605,"Ġgradvis":10606,"ĠpopulÃ¦r":10607,"2005":10608,"Ġkoser":10609,"ĠsÃ¸keord":10610,"Ġbanene":10611,"Ġbaneb":10612,"vitenskap":10613,"ational":10614,"Ġtilhenger":10615,"Ġutfordrende":10616,"ĠHelene":10617,"ĠHelge":10618,"ioder":10619,"lÃ¥ing":10620,"Ġemosjon":10621,"Ġemail":10622,"âĢ¦.":10623,"Ġstill":10624,"Ġstilles":10625,"Ġsykehjem":10626,"ĠSyria":10627,"Ġ250":10628,"ĠkjÃ¸res":10629,"ĠdrÃ¸mmen":10630,"ĠTidligere":10631,"EDNING":10632,"Ġmeldes":10633,"vanlige":10634,"ĠangÃ¥r":10635,"Ġstatlige":10636,"ĠLanda":10637,"IKT":10638,"gÃ¥rden":10639,"ĠstÃ¥tt":10640,"Ġeventyr":10641,"Ġstrekningen":10642,"ĠVelkommen":10643,"Ġprosjektleder":10644,"Ġtegneser":10645,"Ġmorgenen":10646,"Ġtermin":10647,"Ġbrede":10648,"ĠRese":10649,"sgata":10650,"undersÃ¸kelser":10651,"Ġbevegelses":10652,"Ġpsykolog":10653,"Ġproduserer":10654,"ĠHÃ¥kan":10655,"ĠHÃ¥vard":10656,"ĠspÃ¸rresk":10657,"assdragets":10658,"industrien":10659,"Ġhotell":10660,"ĠverktÃ¸yet":10661,"Ġdomenet":10662,"Ġhittil":10663,"akistans":10664,"ĠMah":10665,"ĠOffentlig":10666,"Ġdrepte":10667,"Ġdyrere":10668,"ĠDagen":10669,"Ġtrafikksikker":10670,"isipl":10671,"ĠSteinar":10672,"Ġvedtaket":10673,"Ġrisikerer":10674,"Program":10675,"Ġinnstil":10676,"Ġinnsatsen":10677,"ĠTorsdag":10678,"Ġkonsept":10679,"ĠÃ¥penbart":10680,"ĠBarnehag":10681,"Ġfordeler":10682,"Ġtotale":10683,"Ġlunger":10684,"ognitive":10685,"Ġpartneren":10686,"right":10687,"strert":10688,"Ġtruser":10689,"Ġtruffet":10690,"ĠFÃ¸lgelig":10691,"Ġflyttes":10692,"ĠLeon":10693,"ISE":10694,"Ġforestillingen":10695,"ĠMindre":10696,"ĠpromotÃ¸rer":10697,"Ġhundene":10698,"Ġkirken":10699,"Ġforebygg":10700,"Ġgutta":10701,"stykke":10702,"ĠIdrettens":10703,"egruppen":10704,"Ġgaver":10705,"Ġholdning":10706,"vannet":10707,"Ġvask":10708,"Ġvakker":10709,"ĠSandnes":10710,"Ġregionen":10711,"Andre":10712,"Ġposten":10713,"onsene":10714,"ĠnÃ¸ye":10715,"Ġadministratorene":10716,"Ġfolkevalgte":10717,"ĠSynn":10718,"Ġkontaktet":10719,"Ġpolitikerne":10720,"guru":10721,"ĠVÃ¥rt":10722,"ĠVestfold":10723,"ĠEUs":10724,"ahl":10725,"begre":10726,"miljÃ¸et":10727,"Ġnatta":10728,"stallet":10729,"Ġgjenspe":10730,"Ġkompetansen":10731,"Ġstudiepoeng":10732,"Ġyrkesfag":10733,"Ġrestauranter":10734,"Ġrestauranten":10735,"norge":10736,"Ġhuman":10737,"Ġkundens":10738,"Ġekspedisjon":10739,"Ġkjempefin":10740,"Ġbronsealderen":10741,"AMM":10742,"arderm":10743,"ĠKontaktperson":10744,"Ġtilrettelagt":10745,"ĠtÃ¥le":10746,"ĠHehe":10747,"Ġmaskinen":10748,"Ġminnet":10749,"Ġminnem":10750,"ĠEgil":10751,"ĠEgypt":10752,"Ġelement":10753,"veileder":10754,"Ġkonflikt":10755,"Ġvannforvaltning":10756,"partner":10757,"ĠdÃ¸ds":10758,"ĠmÃ¸rk":10759,"ĠmÃ¸rke":10760,"Ġmesteparten":10761,"Ġtomt":10762,"Ġmatchmaking":10763,"Ġnettleseren":10764,"Ġpleie":10765,"Ġintens":10766,"Ġbonus":10767,"Ġkilometer":10768,"Ġkryss":10769,"skaar":10770,"ĠFelles":10771,"Ġintegritet":10772,"Ġmineral":10773,"Ġmusikalsk":10774,"ĠUndersÃ¸kelsen":10775,"ĠUndersÃ¸kelser":10776,"Ġgjensidige":10777,"Ġversjonen":10778,"Ġmedisinske":10779,"Ġrencont":10780,"Ġarenaer":10781,"Ġmonopol":10782,"Ġpedagogisk":10783,"Ġforhandlinger":10784,"ĠFilmen":10785,"ĠMicrog":10786,"ĠPersonalet":10787,"Ġeiendomsd":10788,"Ġfukt":10789,"Ġfikse":10790,"ĠlydbÃ¸ker":10791,"Ġskriving":10792,"ĠEmne":10793,"Ġarkeolog":10794,"Ġlesbiske":10795,"ĠStudentbarnehagen":10796,"Ġsosialfagarbeidet":10797,"ĠResultatene":10798,"Ġsatse":10799,"Ġsaksbehandling":10800,"Ġorientere":10801,"elementer":10802,"elemark":10803,"Ġplukket":10804,"Ġstolte":10805,"ĠHansnes":10806,"ĠBonderomantikk":10807,"Ġ1970":10808,"Ġskjemaet":10809,"ToCart":10810,"braham":10811,"Ġaustralske":10812,"ĠtilnÃ¦rming":10813,"ĠDirection":10814,"Ġutvidelse":10815,"Ġgjenta":10816,"Ġgjentatte":10817,"Ġinnledet":10818,"ownload":10819,"ĠtegnsprÃ¥k":10820,"Ġskuespillere":10821,"Ġswingers":10822,"Ġdesto":10823,"analy":10824,"ĠLivet":10825,"Ã¸ntgen":10826,"ĠAnaly":10827,"icked":10828,"produkter":10829,"Ġdesignet":10830,"grensning":10831,"Ġbritiske":10832,"Ġpotensielle":10833,"Ġforsvinner":10834,"Ġglobale":10835,"Ġutdannet":10836,"Ġutdannelse":10837,"Ġtrengs":10838,"aliserer":10839,"aliseringen":10840,"ĠÃĺyvind":10841,"Ġhjemmelaget":10842,"Ġdiskutert":10843,"poliklin":10844,"Ġfrivillige":10845,"Ġvaksinen":10846,"Ġplagg":10847,"skveld":10848,"Ġuforplikt":10849,"Ġkapitalkostnader":10850,"Ġkostnads":10851,"Ġstuderer":10852,"Ġfestival":10853,"Ġfantes":10854,"Ġnesen":10855,"ĠMÃ¸teleder":10856,"ĠtenÃ¥ringer":10857,"Ġvintag":10858,"kvaliteten":10859,"Ġstrategisk":10860,"DLP":10861,"Ġsetninger":10862,"Ġforsikre":10863,"Ġgarantert":10864,"Ġnomader":10865,"Ġerobrerne":10866,"Ġavdelinger":10867,"Ġetnisk":10868,"ĠinnrÃ¸mme":10869,"ĠStartet":10870,"Ġintervjuer":10871,"havet":10872,"Ġpynte":10873,"verdier":10874,"Ġrutiner":10875,"ĠPortobello":10876,"Ġforskningsdepartementet":10877,"Ġfiskestasjoner":10878,"sforbundet":10879,"Ġinnbyggerne":10880,"ĠsprÃ¸yte":10881,"MÃ¥let":10882,"ĠidÃ©":10883,"skrivning":10884,"ekretÃ¦rer":10885,"ĠBESKJ":10886,"nevnt":10887,"ĠGruppen":10888,"ĠAnsvarlig":10889,"ĠHvilke":10890,"sbestilling":10891,"ĠFjeldskaar":10892,"ĠTanavassdraget":10893,"Ġitaliensk":10894,"Ġdedik":10895,"ĠFangst":10896,"ĠAvtalen":10897,"Ġreaksjoner":10898,"Ġrefinansiering":10899,"opplysninger":10900,"indharving":10901,"ĠÃħpent":10902,"Ġgjenvunnet":10903,"Ġdiagr":10904,"Ġengasjerte":10905,"Ġforhistoriske":10906,"Finland":10907,"Ġsjenert":10908,"lefsen":10909,"ĠFakultet":10910,"ĠNextGen":10911,"ĠTotalt":10912,"ĠPublisert":10913,"spersoner":10914,"ebutikker":10915,"Ġlegevakt":10916,"Ġvennerelasjon":10917,"elatende":10918,"Ġforretnings":10919,"Ġstruktur":10920,"Ġsibirsk":10921,"Ã¸prosjektet":10922,"Ġetterkommerne":10923,"iespesialisering":10924,"ĠGjennomsnittlig":10925,"fordypningsoppgave":10926,"Ġindikerer":10927,"Ġkulturminnevern":10928,"Ġmaksimalt":10929,"aordfÃ¸rer":10930,"Ġisteden":10931,"Ġglemme":10932,"Ġulovlig":10933,"Ġtendens":10934,"deponi":10935,"Ġutelu":10936,"ĠHardcore":10937,"ĠNetEnt":10938,"ĠNAVN":10939,"ĠBotnav":10940,"ĠEilertsen":10941,"okumenter":10942,"Ġhabilitering":10943,"samfunnsfaglige":10944,"kurranse":10945,"ĠFriluft":10946,"ĠtilnÃ¦rminger":10947,"altvortSkolen":10948,"NORGES":10949,"portefÃ¸l":10950,"Ġamazing":10951,"ĠStillingsinstruks":10952,"Ġjavascript":10953,"ĠDyreparken":10954,"ĠunÃ¸dvendig":10955,"ĠUruguay":10956,"Ġreinsdyr":10957,"ĠStrikkefasthet":10958,"ĠfortlÃ¸pende":10959,"svitenskap":10960,"ĠnyttÃ¥rsaften":10961,"Ġtjenestetilbud":10962,"ĠMicrogaming":10963,"Ġuforpliktende":10964,"ĠBESKJEDER":10965,"!\"":10966,"!),":10967,"\"?":10968,"41":10969,"54":10970,"70":10971,"80":10972,"?)":10973,"AS":10974,"Ad":10975,"BU":10976,"Bar":10977,"Dating":10978,"Ditt":10979,"DER":10980,"EB":10981,"EE":10982,"Eg":10983,"Fag":10984,"Fri":10985,"Frank":10986,"Free":10987,"Gammel":10988,"HR":10989,"He":10990,"Hand":10991,"Holdninger":10992,"IB":10993,"IO":10994,"IPS":10995,"Jo":10996,"Kom":10997,"Kunnskap":10998,"LA":10999,"Les":11000,"Log":11001,"MM":11002,"Nasjonale":11003,"Per":11004,"PEL":11005,"RR":11006,"Res":11007,"Se":11008,"Ste":11009,"SÃ¸ker":11010,"Selskapet":11011,"Sibir":11012,"TA":11013,"TV":11014,"Ta":11015,"TTE":11016,"Tyskland":11017,"USA":11018,"VÃ¥r":11019,"YE":11020,"ainer":11021,"aane":11022,"bor":11023,"bling":11024,"batt":11025,"bit":11026,"byr":11027,"bake":11028,"blÃ¥":11029,"bjÃ¸rn":11030,"brettet":11031,"cel":11032,"city":11033,"ding":11034,"dik":11035,"domm":11036,"datter":11037,"dype":11038,"eu":11039,"fang":11040,"flow":11041,"flate":11042,"free":11043,"fekte":11044,"gre":11045,"gam":11046,"gens":11047,"gaten":11048,"gren":11049,"gress":11050,"hen":11051,"han":11052,"hun":11053,"hler":11054,"hjul":11055,"ias":11056,"itering":11057,"ija":11058,"jal":11059,"kro":11060,"kens":11061,"ksen":11062,"kake":11063,"katter":11064,"knings":11065,"kreft":11066,"lest":11067,"lund":11068,"mÃ¸":11069,"mas":11070,"mere":11071,"mentet":11072,"markedet":11073,"motor":11074,"ners":11075,"otiske":11076,"prem":11077,"piller":11078,"rine":11079,"rening":11080,"sr":11081,"sig":11082,"sent":11083,"sende":11084,"selig":11085,"selv":11086,"salg":11087,"sutvalg":11088,"slivet":11089,"srel":11090,"tal":11091,"tett":11092,"tjeneste":11093,"uere":11094,"uper":11095,"vene":11096,"vner":11097,"vinne":11098,"vÃ¥pen":11099,"we":11100,"yan":11101,"yke":11102,"¢Ð":11103,"¸ı":11104,"ÄĤ":11105,"Ðŀ":11106,"Ð¢Ð":11107,"Ñı":11108,"ï¸ı":11109,"Ġ>":11110,"Ġed":11111,"ĠÃ¦":11112,"ĠÃ¸re":11113,"Ġ).":11114,"ender":11115,"enings":11116,"enkte":11117,"Ġsvi":11118,"Ġsum":11119,"Ġsinne":11120,"Ġsorg":11121,"ĠsyltetÃ¸y":11122,"Ã¥h":11123,"Ġost":11124,"Ġoas":11125,"Ġone":11126,"inet":11127,"Ġfelle":11128,"ĠfrÃ¸":11129,"Ġfres":11130,"Ġfrom":11131,"Ġfoster":11132,"ĠfÃ¸ds":11133,"Ġfedme":11134,"orgen":11135,"ortering":11136,"Ġdon":11137,"ĠdÃ¸rer":11138,"Ġdommen":11139,"Ġdisp":11140,"Ġdimensjon":11141,"Ġdisipl":11142,"anvisning":11143,"Ġmem":11144,"Ġmmm":11145,"Ġmette":11146,"Ġmister":11147,"Ġmisten":11148,"Ġmynter":11149,"ary":11150,"arning":11151,"Ġhat":11152,"Ġhester":11153,"Ġhagen":11154,"Ġhilsen":11155,"Ġhyster":11156,"Ġbelig":11157,"Ġbos":11158,"Ġball":11159,"Ġblu":11160,"ĠbÃ¦rer":11161,"Ġback":11162,"Ġbunnen":11163,"Ġval":11164,"Ġvinn":11165,"Ġvalp":11166,"Ġap":11167,"Ġkg":11168,"Ġkne":11169,"Ġkatter":11170,"Ġkoffer":11171,"Ġkastet":11172,"Ġiph":11173,"ĠilÃ¸pet":11174,"Ġiverks":11175,"ĠiSoft":11176,"Ġpas":11177,"Ġpene":11178,"Ġpark":11179,"Ġpend":11180,"Ġpolen":11181,"Ġpenge":11182,"Ġpuss":11183,"Ġpian":11184,"Ġposter":11185,"ese":11186,"esn":11187,"oment":11188,"omader":11189,"lir":11190,"lian":11191,"edi":11192,"edy":11193,"edmatch":11194,"egler":11195,"egang":11196,"egant":11197,"egris":11198,"Ġfors":11199,"Ġforek":11200,"Ġforholde":11201,"Ġforlate":11202,"Ġforurensning":11203,"ĠforsÃ¸ks":11204,"skor":11205,"skar":11206,"skinn":11207,"skunst":11208,"skogen":11209,"skjema":11210,"skrav":11211,"Ġgal":11212,"Ġgri":11213,"Ġgud":11214,"ĠgrÃ¸":11215,"Ġgres":11216,"Ġgolf":11217,"onder":11218,"Ġtimene":11219,"Ġnu":11220,"Ġnis":11221,"Ġnark":11222,"Ġnight":11223,"Ġnektet":11224,"lex":11225,"leir":11226,"leketÃ¸y":11227,"rasjon":11228,"raels":11229,"rakte":11230,"teringer":11231,"Ġtils":11232,"Ġtillate":11233,"Ġtilskuddet":11234,"ĠtilbehÃ¸r":11235,"Ġuer":11236,"Ġubru":11237,"Ġubeg":11238,"alli":11239,"alens":11240,"allige":11241,"alformer":11242,"stor":11243,"stund":11244,"stma":11245,"statur":11246,"stron":11247,"stolen":11248,"store":11249,"stoffer":11250,"stjeneste":11251,"statistikk":11252,"status":11253,"strÃ¸ms":11254,"Ġavsk":11255,"Ġavgift":11256,"Ġavbry":11257,"Ġavanserte":11258,"ĠpÃ¥rÃ¸rende":11259,"Ġtenner":11260,"Ġtinder":11261,"Ġtone":11262,"Ġenden":11263,"Ġensomhet":11264,"asill":11265,"asjok":11266,"Ġlet":11267,"Ġline":11268,"Ġlook":11269,"aton":11270,"undig":11271,"ungen":11272,"ppes":11273,"isc":11274,"agere":11275,"ĠSi":11276,"ĠSl":11277,"ĠSm":11278,"ĠSes":11279,"ĠSann":11280,"ĠSunn":11281,"ĠSub":11282,"ĠSoli":11283,"ĠSeks":11284,"ĠSverre":11285,"ĠSMS":11286,"ĠSider":11287,"ĠSibel":11288,"ĠSarpsborg":11289,"ĠSINTEF":11290,"amanu":11291,"igolf":11292,"ĠDET":11293,"ĠDEL":11294,"enny":11295,"ttel":11296,"ĠrÃ¸y":11297,"Ġrund":11298,"Ġreng":11299,"Ġrop":11300,"Ġrogn":11301,"Ġutg":11302,"Ġutsp":11303,"Ġutgra":11304,"Ġutland":11305,"Ġutstillinger":11306,"Ġutkast":11307,"Ġutvide":11308,"Ġutseende":11309,"joner":11310,"sektoren":11311,"seminar":11312,"ollo":11313,"rikt":11314,"rive":11315,"Ġskre":11316,"Ġskinn":11317,"Ġskul":11318,"Ġskatt":11319,"Ġskit":11320,"Ġskog":11321,"Ġskred":11322,"Ġskudd":11323,"Ġskyte":11324,"Ġskadet":11325,"Ġskisser":11326,"andÃ¸r":11327,"andasjonen":11328,"andelen":11329,"room":11330,"rofag":11331,"Ġviet":11332,"aksen":11333,"aktive":11334,"aktige":11335,"akadem":11336,"aktivert":11337,"Ġatom":11338,"ĠstrÃ¸":11339,"Ġstavanger":11340,"Ġstjerner":11341,"ĠHA":11342,"ĠHi":11343,"ĠHu":11344,"ĠHem":11345,"ĠHund":11346,"ĠHvert":11347,"ĠHÃĺY":11348,"ĠHUB":11349,"ĠHordaland":11350,"ĠFA":11351,"ĠFS":11352,"ĠFe":11353,"ĠFre":11354,"ĠFinne":11355,"ĠFUS":11356,"ĠFirma":11357,"ĠFuru":11358,"ĠMr":11359,"ĠMac":11360,"ĠMasse":11361,"ĠMay":11362,"ĠMarked":11363,"ĠMassasje":11364,"ĠMoss":11365,"ĠMorten":11366,"ĠMassage":11367,"ĠMotor":11368,"ĠMDF":11369,"Ġdepartementet":11370,"Ġdekor":11371,"idi":11372,"ides":11373,"idens":11374,"Ã¥rige":11375,"Ġomlegging":11376,"ĠoppÃ¥":11377,"Ġopphold":11378,"Ġopply":11379,"ĠopplÃ¸sning":11380,"ĠNer":11381,"ĠNed":11382,"ĠNytt":11383,"ĠNÃ¦ring":11384,"ĠNidar":11385,"ekort":11386,"eksten":11387,"ĠBen":11388,"ĠBor":11389,"ĠBel":11390,"ĠBal":11391,"ĠBlo":11392,"ĠBjer":11393,"ĠBond":11394,"ĠBeskriv":11395,"ĠBrede":11396,"ĠBlack":11397,"Ġgjem":11398,"ereformen":11399,"ĠAB":11400,"ĠAli":11401,"ĠAge":11402,"ĠAks":11403,"ĠAdri":11404,"ĠAbo":11405,"ĠAins":11406,"ĠAmerik":11407,"ĠAND":11408,"ĠAbraham":11409,"apt":11410,"ĠID":11411,"ĠIdi":11412,"nem":11413,"asjonsperiode":11414,"Ġinnh":11415,"Ġinntak":11416,"Ġinnledning":11417,"Ġinnsamling":11418,"Ġinnvirkning":11419,"Ġinnimellom":11420,"ĠKor":11421,"ĠKli":11422,"ĠKre":11423,"ĠKost":11424,"ĠKommer":11425,"ĠKors":11426,"ĠKÃ¥te":11427,"formÃ¥l":11428,"fordeling":11429,"forbruket":11430,"uset":11431,"Ġkanaane":11432,"ĠTett":11433,"ĠTjeneste":11434,"ĠTips":11435,"ĠTabell":11436,"ĠTadalafil":11437,"ĠTesla":11438,"ĠVen":11439,"ĠVÃ¥":11440,"ĠVal":11441,"ĠVig":11442,"ĠVoll":11443,"ĠVurder":11444,"ĠViga":11445,"ĠVIP":11446,"ĠEÃĺS":11447,"Ġliden":11448,"Ġlista":11449,"ĠLÃ¸":11450,"ĠLÃ¦re":11451,"ĠLyn":11452,"ĠLaur":11453,"ĠLyst":11454,"ĠLÃ¥n":11455,"anner":11456,"ensis":11457,"Ġkjor":11458,"Ġkjapp":11459,"Ġkjennes":11460,"ĠPM":11461,"ĠPo":11462,"ĠPres":11463,"ĠPrag":11464,"ĠPeter":11465,"ĠPinne":11466,"ĠPasi":11467,"ĠPolitikk":11468,"ĠPors":11469,"ĠPraksis":11470,"ads":11471,"Ġvarsel":11472,"stegn":11473,"Ġins":11474,"Ġindi":11475,"Ġinformer":11476,"skapene":11477,"emale":11478,"ordet":11479,"ordninger":11480,"odd":11481,"odor":11482,"odkjent":11483,"ellingen":11484,"ĠOP":11485,"ĠOfte":11486,"ĠOpen":11487,"ĠOCA":11488,"Ġspar":11489,"Ġspir":11490,"Ġspekter":11491,"Ġspeed":11492,"uta":11493,"ĠRu":11494,"ĠRei":11495,"ĠResp":11496,"ĠRana":11497,"Ġmeny":11498,"Ã¸yd":11499,"Ã¸yer":11500,"Ã¸yde":11501,"ĠGlem":11502,"ĠGIL":11503,"ĠGarderm":11504,"Ġblikk":11505,"Ġblikket":11506,"spe":11507,"spil":11508,"spÃ¸rs":11509,"spital":11510,"sÃ¥vidt":11511,"Ġprog":11512,"Ġprogressiv":11513,"Ġsivil":11514,"Ġovert":11515,"Ġoversatt":11516,"jener":11517,"jenter":11518,"osa":11519,"osc":11520,"oselig":11521,"irken":11522,"ĠJava":11523,"Ġche":11524,"istene":11525,"Ġnyere":11526,"sselskap":11527,"ĠfÃ¸ringer":11528,"holt":11529,"Ġettertid":11530,"Ġettersyn":11531,"ĠetterpÃ¥":11532,"ĠetterfÃ¸lgende":11533,"Ġanti":11534,"Ġanim":11535,"Ġansatt":11536,"Ġantatt":11537,"Ġansikt":11538,"Ġantar":11539,"ĠtrÃ¦r":11540,"ality":11541,"Ã¸nning":11542,"udsjett":11543,"ogra":11544,"menk":11545,"meny":11546,"Ġkonkl":11547,"ĠForum":11548,"allup":11549,"ĠIniti":11550,"ĠIndia":11551,"Ã¸ken":11552,"Ã¸konom":11553,"ktive":11554,"ffekt":11555,"merk":11556,"observ":11557,"Ġrealitet":11558,"leggingen":11559,"Ġeuro":11560,"arbeiding":11561,"Ġteori":11562,"ovurdering":11563,"erty":11564,"ĠCeb":11565,"ĠCup":11566,"ingsanom":11567,"assene":11568,"Ġmini":11569,"Ġminus":11570,"artene":11571,"Ġhau":11572,"Ġhappy":11573,"Ġvennligst":11574,"genhet":11575,"delsen":11576,"ersund":11577,"Ġbehag":11578,"Ġbefaring":11579,"videreutdanning":11580,"Ġbillige":11581,"Ġbiletter":11582,"engsel":11583,"Ġannonsene":11584,"ebyggende":11585,"iva":11586,"iven":11587,"ivet":11588,"opping":11589,"ketter":11590,"remt":11591,"Ġlages":11592,"Ġlagre":11593,"Ġlagring":11594,"noe":11595,"Ġsammenlik":11596,"Ġverdig":11597,"Ġ55":11598,"Ġ58":11599,"Ġ59":11600,"amerater":11601,"Ġ47":11602,"anta":11603,"ĠhÃ¸yst":11604,"Ġhvorvidt":11605,"ĠSkisk":11606,"ĠSkolen":11607,"Ġstorby":11608,"Ġstorbyen":11609,"Ġvisse":11610,"Ġfortjener":11611,"rerer":11612,"Ġsykkelen":11613,"ĠEnov":11614,"Ġtilbringe":11615,"redningen":11616,"Ġargu":11617,"ondata":11618,"Ġkommunes":11619,"Ġbetales":11620,"Ġbetingelser":11621,"evin":11622,"Ġ2001":11623,"ieplan":11624,"Ġinterne":11625,"Ġtastatur":11626,"Ġbrukergrupper":11627,"ĠbÃ¥ter":11628,"ostnad":11629,"Ã¸direktoratet":11630,"handle":11631,"Ġhunder":11632,"Ġaltfor":11633,"Ġgrunnskole":11634,"ĠnedstrÃ¸ms":11635,"ĠDefekte":11636,"Ġmotstand":11637,"Ġmotsetning":11638,"prinsi":11639,"Ġ64":11640,"Ġ6000":11641,"ĠfÃ¸lg":11642,"ĠfÃ¸les":11643,"ĠfÃ¸lges":11644,"ĠlÃ¦rte":11645,"smu":11646,"Ġbeslektet":11647,"Ġvirk":11648,"ĠUtkast":11649,"ilips":11650,"ĠProsess":11651,"Ġ1900":11652,"ĠWar":11653,"ĠWal":11654,"ĠWest":11655,"ĠWeb":11656,"ĠWright":11657,"ĠWISE":11658,"Ġfagene":11659,"ĠfagomrÃ¥der":11660,"ĠÃ¸delag":11661,"ĠÃĺr":11662,"lantype":11663,"fikt":11664,"slam":11665,"elsens":11666,"ĠgÃ¥tur":11667,"Ġlandskap":11668,"Ġbytter":11669,"Ġlangvarig":11670,"Ġutdanninger":11671,"Ġfinlendere":11672,"project":11673,"programmer":11674,"Ġhjemover":11675,"Ġ92":11676,"Ġwill":11677,"jeller":11678,"Ġvokste":11679,"ERAN":11680,"eiere":11681,"ringene":11682,"ydningen":11683,"ĠÃ¥pnes":11684,"ederland":11685,"Ġturene":11686,"valget":11687,"ĠskjÃ¸nnhet":11688,"ĠÃħsh":11689,"ĠÃħsmund":11690,"Ġplus":11691,"Ġsynlige":11692,"Ġsyntes":11693,"retting":11694,"Ġmild":11695,"Ġferd":11696,"Ġferien":11697,"ĠArte":11698,"ĠArne":11699,"ĠArbe":11700,"konferanse":11701,"kontroller":11702,"Ġsmitte":11703,"fÃ¸lging":11704,"ugar":11705,"ĠmÃ¸t":11706,"Ġfelling":11707,"regn":11708,"registrer":11709,"Ġmaskiner":11710,"plus":11711,"Ġdatteren":11712,"Ġ1800":11713,"sbok":11714,"sbyg":11715,"Ġperler":11716,"Ġperioder":11717,"Ġleverte":11718,"planens":11719,"ĠvannfÃ¸ring":11720,"alender":11721,"ĠmÃ¥lt":11722,"Ġsvak":11723,"Ġsvanger":11724,"ĠTrans":11725,"ĠTrygg":11726,"jemp":11727,"ÃĺK":11728,"ÃĺN":11729,"ĠmÃ¸teplass":11730,"Ġendelige":11731,"talls":11732,"Ġspilt":11733,"ĠÃ¸kologiske":11734,"Ġfylker":11735,"Ġhjelpen":11736,"stige":11737,"stiske":11738,"nese":11739,"Ġvidereutvikling":11740,"Ġbarnehagene":11741,"Ġbryllu":11742,"Ġvirkelige":11743,"rammeverket":11744,"Ġfargel":11745,"Ġgames":11746,"Ġgammelt":11747,"saken":11748,"saket":11749,"Ġyour":11750,"ĠingeniÃ¸r":11751,"samene":11752,"Ġgrense":11753,"strasjoner":11754,"Ġredde":11755,"Ġreddet":11756,"Ġredaksjon":11757,"ĠOppland":11758,"ĠOppsummering":11759,"ĠOpprette":11760,"Ġverdien":11761,"Ġverdsatt":11762,"Ġsummen":11763,"TEL":11764,"TEN":11765,"TEDE":11766,"Ġbakover":11767,"Ġungdommen":11768,"Ġhandlet":11769,"Ġsnor":11770,"Ġkunnskaps":11771,"Ġferdighetene":11772,"styrrelser":11773,"ĠNorden":11774,"ĠNordsjÃ¸":11775,"shop":11776,"liktet":11777,"Ġforeldrene":11778,"Ġsjette":11779,"Ġprat":11780,"Ġpratet":11781,"Ġboksen":11782,"ĠKarasjok":11783,"Ġhenvender":11784,"Ġpresentasjon":11785,"Ġmaritim":11786,"angering":11787,"hengige":11788,"Ġknytter":11789,"Ġgruppa":11790,"Ġgruppesex":11791,"ĠHarry":11792,"ĠHarald":11793,"sprosesser":11794,"Ġoppdaterer":11795,"selskap":11796,"Ġsvarer":11797,"ĠReal":11798,"Ġnordlig":11799,"Ġ//":11800,"tual":11801,"Ġvurderte":11802,"Ġvurderinger":11803,"Ġkulturer":11804,"Ġshemale":11805,"ĠberÃ¸mte":11806,"ralt":11807,"ĠKjenne":11808,"ĠKjers":11809,"alisere":11810,"ĠVedlegg":11811,"Ġoppleves":11812,"Ġfrie":11813,"Ġinneholde":11814,"ĠSamt":11815,"Ġnoveller":11816,"Ġbeher":11817,"ĠbehÃ¸ver":11818,"Ġoffer":11819,"Ġstyrt":11820,"ĠBerlin":11821,"Ġsamfunnsfag":11822,"sesong":11823,"tidige":11824,"Ġskjerf":11825,"Ġskjerm":11826,"ĠYme":11827,"ĠYou":11828,"Ġklippet":11829,"Ġretur":11830,"gaard":11831,"Ġformater":11832,"vrÃ¸y":11833,"Ġlokaler":11834,"Ġlokalet":11835,"ĠStudiespesialisering":11836,"Ġfunksjonelle":11837,"sforum":11838,"istrere":11839,"Ġgreier":11840,"sporten":11841,"ĠmiljÃ¸er":11842,"ĠmiljÃ¸vennlig":11843,"Ġbekjente":11844,"ommunic":11845,"Ġorganisere":11846,"Ġuttalelse":11847,"ĠsprÃ¥klig":11848,"Ġkritikk":11849,"Ġpassende":11850,"lege":11851,"legen":11852,"marka":11853,"Ġburger":11854,"Ġstandpunkt":11855,"ĠprogramomrÃ¥de":11856,"Ġhjemmefra":11857,"Ġlengste":11858,"Ġskifte":11859,"Ġskiftet":11860,"Ġarbeidstid":11861,"Ġarbeidsoppgaver":11862,"Ġetableres":11863,"ĠForskriften":11864,"festet":11865,"Ġroom":11866,"Ġroligere":11867,"Ġstivt":11868,"Ġappen":11869,"Ġsykling":11870,"Ġlaveste":11871,"Ġdeltaker":11872,"renset":11873,"Ġoppstod":11874,"ĠoppstrÃ¸ms":11875,"Ġsommerferie":11876,"Ġjordskj":11877,"ĠjordbÃ¦r":11878,"ĠhÃ¥ndtering":11879,"Ġraskeste":11880,"Ġproblemstilling":11881,"Ġproblemstillingen":11882,"vidde":11883,"levelser":11884,"Ġfemte":11885,"Ġkontrakt":11886,"Ġekteskapet":11887,"Ġeiere":11888,"Ġsykepleier":11889,"Stine":11890,"Ġflyter":11891,"ESTER":11892,"ĠkjÃ¸retÃ¸y":11893,"Hvor":11894,"Hvem":11895,"ĠdrÃ¸mme":11896,"ĠAltsÃ¥":11897,"exico":11898,"uering":11899,"Ġtillater":11900,"ĠThom":11901,"Ġeval":11902,"Ġevig":11903,"Ġangir":11904,"Ġangrepet":11905,"Ġborger":11906,"litz":11907,"ĠopprÃ¸r":11908,"Ġanalysere":11909,"Ã¸velse":11910,"Ã¸vbl":11911,"ĠpÃ¥virkning":11912,"ĠstÃ¥sted":11913,"UNN":11914,"fullfÃ¸rt":11915,"Ġstreik":11916,"Ġreduseres":11917,"brÃ¸d":11918,"Ġkald":11919,"Ġidrettsfag":11920,"ĠHenrik":11921,"Ġrelevans":11922,"sgrund":11923,"Ġmangfol":11924,"Ġbelast":11925,"Ġkategorien":11926,"ĠlÃ¸ftet":11927,"Ġobj":11928,"ĠlÃ¸nns":11929,"ĠlÃ¸nnspolitikk":11930,"Ġstuen":11931,"ĠGenerell":11932,"Ġbevege":11933,"Ġsalgs":11934,"ĠRock":11935,"Ġproduserte":11936,"Ġkommentarene":11937,"Ġmodern":11938,"Ġlikhet":11939,"Â».[":11940,"ĠmÃ¸terom":11941,"Ġmottar":11942,"Ġeffektivis":11943,"Ġhotellet":11944,"Ġaksen":11945,"ĠBeat":11946,"ĠGjennomfÃ¸rt":11947,"Ġuniversitets":11948,"Ġuniversitetet":11949,"Ġslettet":11950,"Ġforetas":11951,"Ġforetatt":11952,"ĠlÃ¥ter":11953,"ĠOffice":11954,"Ġugraset":11955,"ĠHovedutvalg":11956,"ĠTelefonrÃ¥d":11957,"Ġtryggere":11958,"Ġsuperg":11959,"Ġdokument":11960,"Ġdokumentene":11961,"Ġtrafikken":11962,"Ġtrafikkskole":11963,"Ġopprettholder":11964,"ĠElektrofag":11965,"OTO":11966,"Produ":11967,"Protokoll":11968,"ĠhÃ¸stens":11969,"Ġgruve":11970,"Ġvariasjon":11971,"genting":11972,"Ġfordelene":11973,"Ġlunges":11974,"Ġproduksjonen":11975,"Vedlegg":11976,"ĠsjÃ¸Ã¸rret":11977,"ĠsjÃ¸samer":11978,"reftelse":11979,"strening":11980,"Ġskuff":11981,"ĠMoz":11982,"Ġinvitert":11983,"Ġsistnevnte":11984,"heretter":11985,"Ġfjernes":11986,"Ġstoppe":11987,"ĠLeague":11988,"IST":11989,"bukser":11990,"phpBB":11991,"Ġforesatte":11992,"ĠforsÃ¸ket":11993,"Ġtallene":11994,"Ġutstyret":11995,"ĠMerk":11996,"ĠMining":11997,"ĠVaramedlemmer":11998,"ĠMedisinsk":11999,"IDE":12000,"Ġforebygger":12001,"Ġtelefonnummer":12002,"Ġdefinert":12003,"ĠIdrettsfag":12004,"ĠIdrettskrets":12005,"ĠKunnskaper":12006,"ĠKommunikasjon":12007,"Ġanleggsteknikk":12008,"giving":12009,"Ġque":12010,"Ġqualifications":12011,"Ġmobili":12012,"ĠTechn":12013,"Ġplassering":12014,"Ġbakgrunnen":12015,"ĠtÃ¸rre":12016,"Ġlinker":12017,"ĠBrygge":12018,"Ġelektronisk":12019,"Ġrapporten":12020,"Ġrapportert":12021,"ĠJohan":12022,"Ġpostet":12023,"ĠIsraels":12024,"ĠVerdi":12025,"Ġregelverk":12026,"Ġregelmessig":12027,"Ġrettighet":12028,"ifi":12029,"Ġskandinavisk":12030,"Ġindiske":12031,"Ġkontakten":12032,"ĠgiftemÃ¥l":12033,"Ġbeskrivelsen":12034,"IFU":12035,"informasjonskapsler":12036,"Ġvestlige":12037,"Ġvestover":12038,"ĠSelskap":12039,"ights":12040,"ĠVestlandet":12041,"Ġhelgene":12042,"Ġtverrfaglig":12043,"atistisk":12044,"Ġstudieforbered":12045,"ĠfylkesÃ¥r":12046,"Ġsykehusene":12047,"ĠpromotÃ¸ren":12048,"norsk":12049,"norske":12050,"Ġsignatur":12051,"Ġignor":12052,"Ġforventningene":12053,"ĠFinans":12054,"ĠoppvekstvilkÃ¥r":12055,"ĠBlonde":12056,"Ġeksplo":12057,"scene":12058,"Ġutfordre":12059,"ĠAleks":12060,"Ġelevkunnskap":12061,"Ġtreffer":12062,"Ġescorts":12063,"Ġsatsning":12064,"Ġmelk":12065,"Ġmelod":12066,"Ġtrim":12067,"Ġrutil":12068,"Ġdebatter":12069,"Ġalternativene":12070,"ĠSharif":12071,"Ġinstitusjon":12072,"Ġkonfir":12073,"Ġkonflikter":12074,"Ġvannforskriften":12075,"Ġuttrykt":12076,"Ġuttrykker":12077,"Ġprioritere":12078,"ĠmÃ¸rket":12079,"Ġguiden":12080,"Ġengangsbestilling":12081,"Ġlenken":12082,"ĠHaha":12083,"Ġnotat":12084,"Ġnotasjon":12085,"ĠPrisene":12086,"Ġsammenligne":12087,"Ġbedriftens":12088,"Ġbrannen":12089,"Ġoffisiell":12090,"kraftverk":12091,"Ġtapte":12092,"Ġregnskap":12093,"Ġregnskaps":12094,"Ġsalat":12095,"Ġsideg":12096,"Ġbonderomantikk":12097,"Ġbondage":12098,"Ġkryp":12099,"Ġavslutter":12100,"Ġskyldes":12101,"ekomst":12102,"ĠLeken":12103,"Ġintegrere":12104,"Ġintegrert":12105,"regionen":12106,"modeller":12107,"ĠHotell":12108,"ĠIngunn":12109,"ĠIngrid":12110,"ĠnÃ¸kkel":12111,"ĠnÃ¸kkelen":12112,"ĠPersonlig":12113,"Ġoverordnet":12114,"Avdeling":12115,"mesterskapet":12116,"ĠsÃ¸nnen":12117,"Ġfikset":12118,"ĠdÃ¸ren":12119,"tics":12120,"Ġforpliktet":12121,"ĠFjordane":12122,"ĠNaturbruk":12123,"ĠCirque":12124,"Ġsupplerende":12125,"Ġoptimalisering":12126,"Ġpupper":12127,"Ġplukke":12128,"ĠSvart":12129,"Ġutredninger":12130,"Ġskadelige":12131,"ĠHalden":12132,"ĠFisket":12133,"Ġoppgis":12134,"ĠBlir":12135,"Ġspisesteder":12136,"bevisst":12137,"alifikasjoner":12138,"opplevelse":12139,"Ġdatamaskiner":12140,"Ġdanner":12141,"Ġdannet":12142,"Ġautis":12143,"Ġpremisser":12144,"Ġforfatteren":12145,"ĠMÃĺTET":12146,"Ġinnledende":12147,"ushi":12148,"Ġkonserten":12149,"Ġbestilte":12150,"ĠlÃ¦rerutdanningen":12151,"ĠRegistrering":12152,"Ġrepresentative":12153,"gressive":12154,"Ġkonsekvensene":12155,"kunnskaper":12156,"analyse":12157,"Ġmagisk":12158,"Ġhastighet":12159,"Ġbiblioteks":12160,"Ġkandidaten":12161,"Ġforutsetter":12162,"skonferanse":12163,"Ġrusse":12164,"ĠutÃ¸velse":12165,"ĠEndor":12166,"ĠEndelig":12167,"Ġkonkrete":12168,"ĠseriÃ¸st":12169,"jemaene":12170,"Ġinvestering":12171,"Ġfiolin":12172,"Ġbritisk":12173,"Ġkolon":12174,"Ġtoget":12175,"ĠopplÃ¦ringen":12176,"Ġinnstillingene":12177,"ĠElise":12178,"Ġankeutvalg":12179,"ĠÃ¸delagt":12180,"Ġdeltagelse":12181,"INNKAL":12182,"Storbritannia":12183,"Ġulykker":12184,"Ġstaben":12185,"Ġmeningsskaping":12186,"ĠEngebÃ¸prosjektet":12187,"Ġbetongkon":12188,"Ġkvalitetsstyring":12189,"Ġshowet":12190,"ĠoppnÃ¥dde":12191,"Ġdistribusjon":12192,"MÃĺTEPROTOKOLL":12193,"blemet":12194,"Ġsensitivitet":12195,"ĠhÃ¸gskoler":12196,"Ġifm":12197,"ĠHensikten":12198,"ĠItalia":12199,"Ġkantm":12200,"ĠLunden":12201,"Ġmuseum":12202,"Studieplan":12203,"Brukerveiledning":12204,"koordinator":12205,"Ġfranske":12206,"ppelrenn":12207,"Ġrederen":12208,"ĠFjernvarme":12209,"ĠBrooks":12210,"ĠinnrÃ¸mmer":12211,"ĠEventuelt":12212,"ĠInstagram":12213,"Ġkommunestyre":12214,"Ġbeslutning":12215,"Ġstimulere":12216,"Ġmetodikk":12217,"leverandÃ¸r":12218,"Ġvandringshinder":12219,"Ġkollega":12220,"Ġigangsatt":12221,"ĠMalvik":12222,"ĠKristen":12223,"ĠKriterier":12224,"ĠKlagen":12225,"ĠStortinget":12226,"Ġvoksnes":12227,"Ġchattesider":12228,"Ġmiddels":12229,"Ġdoktorav":12230,"ĠAdministrasjonens":12231,"ĠAlexanderteknikk":12232,"klokker":12233,"ĠkÃ¸en":12234,"Ġknappen":12235,"Ġpalest":12236,"Ġpilot":12237,"Ġnerv":12238,"Ġoppgrader":12239,"Ġoppgradere":12240,"ĠNivÃ¥beskrivelsene":12241,"ĠISO":12242,"ĠISU":12243,"ĠTerje":12244,"ĠvilkÃ¥rene":12245,"Ġovernatting":12246,"Ġseparat":12247,"Ġpresset":12248,"Ġbrukeropplevelse":12249,"Ġbrukeropplevelsen":12250,"ĠProdukt":12251,"ĠUnni":12252,"Ġvidereutvikle":12253,"Ġbokstavelig":12254,"Ġpresentasjonen":12255,"Ġbekymret":12256,"ĠforeslÃ¥tt":12257,"ĠEksempel":12258,"Ġsenga":12259,"Ġblande":12260,"Ġkysten":12261,"Ġforvirret":12262,"iljÃ¸direktoratet":12263,"Ġutarbeidelse":12264,"ĠHandels":12265,"ĠFrode":12266,"ĠAagaard":12267,"ĠLedelsen":12268,"ĠRiktig":12269,"Ġmengde":12270,"Ġannonsen":12271,"ĠSkigruppas":12272,"Ġkvalifiserte":12273,"Ġarbeidstakere":12274,"Ġsupers":12275,"Ġfremmed":12276,"MÃ¸teprotokoll":12277,"beskyttelse":12278,"carbon":12279,"lokalisering":12280,"Ġschool":12281,"Ġfetish":12282,"ĠdÃ¸gnet":12283,"Ġmistet":12284,"ĠforÃ¥rsaket":12285,"Ġglemt":12286,"Ġtynn":12287,"Ġtyrk":12288,"Ġutmerket":12289,"Ġutbetales":12290,"Ġskriftlig":12291,"ĠFNs":12292,"ĠNVE":12293,"ĠNATO":12294,"ĠVotering":12295,"ĠPorsgrund":12296,"Ġklagers":12297,"ĠStrategi":12298,"Ġracing":12299,"saktiviteter":12300,"ĠKarlsen":12301,"Ġdramatisk":12302,"ĠekstraordinÃ¦r":12303,"ĠFÃ¸rdefjorden":12304,"ĠAmundsen":12305,"Ġnabolaget":12306,"relaterte":12307,"Ġambassaden":12308,"Ġnyhetsbrevet":12309,"%âĢĻâĢĻ-":12310,"hylle":12311,"Ġhuden":12312,"Ġkokos":12313,"ĠforbrukslÃ¥n":12314,"Ġtilsynelatende":12315,"ĠpÃ¥litelig":12316,"Ġtolv":12317,"asmussen":12318,"Ġjenta":12319,"ĠManglende":12320,"ĠBDSM":12321,"ĠLillestrÃ¸m":12322,"ĠLegeforeningen":12323,"Ġkjendis":12324,"Ġspeilene":12325,"Ġettermiddag":12326,"Ġansiktet":12327,"Ġsysselsetting":12328,"Ġkommunikative":12329,"Ġkjemikali":12330,"Ġaldersgruppen":12331,"Ġgenialt":12332,"Ġyrkesk":12333,"ĠHÃ¸yesteretts":12334,"Ġreflekterer":12335,"Ġhashtags":12336,"Ġfitnessguru":12337,"ĠfellesskapsfÃ¸lelse":12338,"Gratis":12339,"KjÃ¸reskolen":12340,"biblioteket":12341,"Ġstigende":12342,"Ġkrise":12343,"Ġpassiv":12344,"omponent":12345,"ĠSylvi":12346,"ĠDNV":12347,"ĠHyde":12348,"ĠHelsegris":12349,"ĠMultimed":12350,"forkantm":12351,"ĠVadsÃ¸":12352,"Ġbarnelitteratur":12353,"ĠNormalformer":12354,"Ġeucarbon":12355,"ĠhelsesekretÃ¦rer":12356,"umulus":12357,"ĠÃĺvre":12358,"Ġmatlaging":12359,"ĠServices":12360,"Ġflyktninger":12361,"Ġimponerende":12362,"ĠExplorer":12363,"Rapport":12364,"helsetjenesten":12365,"klagede":12366,"vesteringer":12367,"Ġbivirkninger":12368,"ĠpÃ¸lser":12369,"Ġforeligger":12370,"ĠskjÃ¸t":12371,"roatia":12372,"ĠHOVEDUTSKRIFT":12373,"Ġnoensinne":12374,"ĠGestuz":12375,"Ġteoretiske":12376,"ĠÃ¨n":12377,"ĠarbeidsvilkÃ¥r":12378,"frikanske":12379,"Ġknipset":12380,"Ġsamarbeidspartnere":12381,"ĠResearch":12382,"ProgramomrÃ¥de":12383,"ĠSynnÃ¸ve":12384,"ĠAnalytics":12385,"poliklinikken":12386,"ĠBotnavatnet":12387,"Ġoasys":12388,"Ġbeliggenhet":12389,"ĠiSoftBet":12390,"Ġubegrenset":12391,"asillas":12392,"ĠSibelius":12393,"amanuensis":12394,"Ġutgrav":12395,"akademiet":12396,"ĠHÃĺYESTER":12397,"ĠHUBRO":12398,"ĠAbout":12399,"ĠAinsworth":12400,"ĠIdium":12401,"ĠPragmatic":12402,"ĠPinneforslag":12403,"observasjonsperiode":12404,"ĠCebakk":12405,"ingsanomalier":12406,"videreutdanningen":12407,"ĠWISEflow":12408,"ĠÃ¸delagte":12409,"ĠÃħshild":12410,"Ġjordskjelv":12411,"Ġstudieforberedende":12412,"INNKALLING":12413,"ĠAagaardselva":12414,"ĠHÃĺYESTERETT":12415,"!Â»":12416,"',":12417,".âĢĿ":12418,"/.":12419,"38":12420,"46":12421,"58":12422,"59":12423,"64":12424,"95":12425,";.":12426,"=\"":12427,"AD":12428,"Al":12429,"BY":12430,"Br":12431,"Bel":12432,"Bon":12433,"Bra":12434,"Beste":12435,"Barn":12436,"Bare":12437,"Beskrivelse":12438,"CI":12439,"Can":12440,"Cam":12441,"Cau":12442,"City":12443,"Der":12444,"Din":12445,"Del":12446,"Date":12447,"DAL":12448,"DAG":12449,"Download":12450,"EQF":12451,"Fas":12452,"Finn":12453,"Fikk":12454,"Fort":12455,"Fred":12456,"Facebook":12457,"Fysi":12458,"GR":12459,"GÃ¥":12460,"Gjennom":12461,"HF":12462,"Hvert":12463,"Husk":12464,"Hele":12465,"Hverdag":12466,"IE":12467,"KK":12468,"KT":12469,"Kl":12470,"Kr":12471,"Kar":12472,"Kultur":12473,"KOM":12474,"Kari":12475,"Kunst":12476,"Kaas":12477,"LF":12478,"LR":12479,"La":12480,"LER":12481,"Lurer":12482,"Laer":12483,"Loc":12484,"LEDNING":12485,"LÃĺN":12486,"ML":12487,"MAR":12488,"NR":12489,"NER":12490,"Nasjonalt":12491,"OF":12492,"On":12493,"Presentasjon":12494,"RI":12495,"Rik":12496,"SI":12497,"Sist":12498,"SÃ¸nner":12499,"TF":12500,"Th":12501,"Tom":12502,"Tube":12503,"UE":12504,"Vil":12505,"VER":12506,"VINN":12507,"Veiledning":12508,"Wh":12509,"YS":12510,"aver":12511,"bd":12512,"bt":12513,"bing":12514,"bang":12515,"bot":12516,"balt":12517,"blant":12518,"batter":12519,"brevet":12520,"bank":12521,"blikk":12522,"barns":12523,"bunnen":12524,"cen":12525,"cad":12526,"dtr":12527,"dÃ¸rs":12528,"ear":12529,"eist":12530,"fle":12531,"fug":12532,"fysi":12533,"firma":12534,"gs":12535,"gar":12536,"giske":12537,"grep":12538,"gmail":12539,"hu":12540,"hot":12541,"havn":12542,"hods":12543,"ilig":12544,"iell":12545,"iÃ¸s":12546,"iwi":12547,"jf":12548,"jan":12549,"jar":12550,"jab":12551,"jeksjon":12552,"kli":12553,"kol":12554,"kri":12555,"kne":12556,"kab":12557,"kode":12558,"kasser":12559,"ktere":12560,"kandid":12561,"kamera":12562,"lam":12563,"lelse":12564,"lÃ¸nn":12565,"lator":12566,"mang":12567,"mos":12568,"mot":12569,"mit":12570,"mÃ¸n":12571,"mpe":12572,"mÃ¸ter":12573,"mostad":12574,"nek":12575,"nne":12576,"nib":12577,"nhus":12578,"obe":12579,"okker":12580,"pli":12581,"pre":12582,"pas":12583,"pul":12584,"park":12585,"punktet":12586,"rol":12587,"rende":12588,"rant":12589,"sli":12590,"sat":12591,"sler":12592,"somm":12593,"sser":12594,"sbe":12595,"sjen":12596,"sorg":12597,"stille":12598,"sarbeidere":12599,"tatte":12600,"telefon":12601,"turer":12602,"ux":12603,"umer":12604,"vang":12605,"vÃ¦re":12606,"valt":12607,"vennskap":12608,"vold":12609,"yteg":12610,"yLoc":12611,"zy":12612,"Ðº":12613,"erat":12614,"erkort":12615,"enere":12616,"Ġsogn":12617,"Ġsangen":12618,"Ġsushi":12619,"eten":12620,"etasjon":12621,"etabler":12622,"Ã¥sen":12623,"Ã¥per":12624,"Ã¥fjord":12625,"Ġok":12626,"Ġoste":12627,"Ġoks":12628,"Ġovar":12629,"Ġosten":12630,"inasjon":12631,"Ġfks":12632,"Ġfos":12633,"Ġfir":12634,"Ġfinger":12635,"Ġfesten":12636,"Ġfind":12637,"Ġfigurer":12638,"Ġfengsel":12639,"oral":12640,"oris":12641,"Ġdens":12642,"Ġdansk":12643,"Ġdown":12644,"anp":12645,"analer":12646,"Ġmand":12647,"Ġmatt":12648,"Ġmess":12649,"Ġmaler":12650,"eles":12651,"elis":12652,"elag":12653,"elplan":12654,"arr":12655,"Ã¸Ã¸":12656,"Ã¸ks":12657,"Ã¸ft":12658,"Ã¸vet":12659,"Ã¸ster":12660,"Ġhet":12661,"Ġhent":12662,"Ġhytte":12663,"Ġhavnet":12664,"tivere":12665,"Ġbig":12666,"Ġbik":12667,"Ġbaks":12668,"Ġbrett":12669,"Ġbug":12670,"Ġballen":12671,"Ġbagas":12672,"Ġvs":12673,"Ġvre":12674,"Ġvod":12675,"Ġvelt":12676,"Ġvelv":12677,"Ġvink":12678,"tein":12679,"tester":12680,"Ġapper":12681,"Ġkam":12682,"Ġklem":12683,"ĠkÃ¥t":12684,"Ġkaster":12685,"Ġkaker":12686,"Ġkutte":12687,"Ġketo":12688,"Ġkopper":12689,"Ġkristiansand":12690,"Ġift":12691,"Ġidet":12692,"Ġiht":12693,"Ġille":12694,"Ġpakk":12695,"Ġpakist":12696,"Ġpunktet":12697,"Ġpynt":12698,"esjon":12699,"esse":12700,"esett":12701,"essi":12702,"esalen":12703,"esnes":12704,"omb":12705,"omne":12706,"ompetanse":12707,"inge":12708,"ingelsene":12709,"limer":12710,"lick":12711,"liams":12712,"eden":12713,"edalen":12714,"edelplan":12715,"egra":12716,"Ġforandre":12717,"Ġforven":12718,"Ġforkj":12719,"Ġformu":12720,"ĠformÃ¥let":12721,"ĠforsÃ¥vidt":12722,"Ġforerkort":12723,"skikk":12724,"skall":12725,"skink":12726,"skurs":12727,"Ġget":12728,"Ġglan":12729,"Ġgran":12730,"Ġgange":12731,"Ġgatene":12732,"oning":12733,"onia":12734,"ream":12735,"Ġnest":12736,"ĠnÃ¦re":12737,"Ġnyn":12738,"Ġnum":12739,"Ġnull":12740,"Ġnew":12741,"ĠnÃ¸t":12742,"ĠÃ¥re":12743,"leis":12744,"rak":12745,"ters":12746,"teret":12747,"kking":12748,"kkelt":12749,"kkelige":12750,"ĠtilfÃ¸r":12751,"Ġtiltre":12752,"Ġtilkobling":12753,"Ġerg":12754,"Ġust":12755,"Ġuro":12756,"Ġuser":12757,"Ġube":12758,"ĠuÃ¸n":12759,"Ġuend":12760,"Ġukra":12761,"Ġulikt":12762,"Ġuhel":12763,"alb":12764,"alje":12765,"alusi":12766,"stur":12767,"stÃ¸y":12768,"stjenesten":12769,"Ġavslag":12770,"Ġavfall":12771,"Ġavisen":12772,"Ġavsnitt":12773,"Ġavholdes":12774,"ĠpÃ¥stÃ¥":12775,"ĠpÃ¥stÃ¥r":12776,"ĠpÃ¥beg":12777,"ĠpÃ¥melding":12778,"Ġtind":12779,"Ġtoner":12780,"Ġtung":12781,"Ġtankene":12782,"Ġent":12783,"Ġentrepren":12784,"ilsynet":12785,"asp":12786,"asy":12787,"asar":12788,"asti":12789,"asia":12790,"asaki":12791,"asinet":12792,"Ġlur":12793,"Ġleste":12794,"Ġlytte":12795,"Ġlink":12796,"ĠlÃ¥t":12797,"Ġlansert":12798,"uni":12799,"unsj":12800,"unch":12801,"unjab":12802,"isure":12803,"Ġmedie":12804,"Ġmedisiner":12805,"agelig":12806,"ĠSE":12807,"ĠSar":12808,"ĠSÃ¸":12809,"ĠSig":12810,"ĠSens":12811,"ĠSit":12812,"ĠSten":12813,"ĠSandefjord":12814,"ĠSoph":12815,"ĠSTEDE":12816,"veri":12817,"verker":12818,"verner":12819,"versjonen":12820,"ami":12821,"amisk":12822,"inna":12823,"innholdet":12824,"Ġje":12825,"Ġjern":12826,"ĠjÃ¦v":12827,"igi":12828,"igner":12829,"igheten":12830,"igerer":12831,"dersen":12832,"Ã¦ter":12833,"ĠDin":12834,"ĠDem":12835,"ĠDit":12836,"ĠDub":12837,"ĠDrÃ¸":12838,"ĠDstr":12839,"ĠDAG":12840,"ĠDekor":12841,"ennelse":12842,"tta":12843,"lignende":12844,"Ġrun":12845,"Ġrene":12846,"Ġrand":12847,"Ġrob":12848,"Ġroller":12849,"lert":12850,"leranse":12851,"Ġutkant":12852,"Ġutdelingen":12853,"Ġutskrivning":12854,"Ġutdype":12855,"Ġutallige":12856,"olde":12857,"river":12858,"rimer":12859,"rime":12860,"Ġskor":12861,"ĠskrÃ¥":12862,"Ġskill":12863,"Ġskyen":12864,"andard":12865,"rop":12866,"rover":12867,"roken":12868,"rock":12869,"Ġvippe":12870,"aket":12871,"Ġstas":12872,"Ġstry":12873,"Ġstole":12874,"Ġstapp":12875,"ĠstjÃ¥":12876,"ĠHV":12877,"ĠHest":12878,"ĠHall":12879,"ĠHult":12880,"ĠHold":12881,"ĠHage":12882,"ĠHouse":12883,"ĠHLR":12884,"ĠFO":12885,"ĠFle":12886,"ĠFull":12887,"ĠFili":12888,"ĠFres":12889,"ĠFase":12890,"ĠFondet":12891,"Ġethvert":12892,"Ã¦rum":12893,"Ã¦rnhus":12894,"ruter":12895,"ĠMest":12896,"ĠMot":12897,"ĠMitt":12898,"ĠMeld":12899,"ĠMester":12900,"ĠMatte":12901,"ĠManger":12902,"ĠMott":12903,"ĠMAT":12904,"ĠMandag":12905,"ĠMagn":12906,"ĠMynt":12907,"ĠMÃ¸ter":12908,"ĠMEM":12909,"ĠMDLP":12910,"Ġ110":12911,"Ġdead":12912,"idas":12913,"Ã¥rer":12914,"Ã¥rlig":12915,"Ġomr":12916,"Ġoppsk":12917,"Ġoppuss":12918,"ĠoppfÃ¸re":12919,"Ġoppsummering":12920,"Ġoppspir":12921,"ĠNY":12922,"ĠNu":12923,"ĠNesten":12924,"ĠNOR":12925,"ĠNasjonale":12926,"ĠNakne":12927,"ĠNico":12928,"ĠNIB":12929,"ikere":12930,"ikerne":12931,"ikott":12932,"ekomster":12933,"ekanisk":12934,"entre":12935,"ĠBI":12936,"ĠBL":12937,"ĠBÃ¸":12938,"ĠBus":12939,"ĠBad":12940,"ĠBest":12941,"ĠBry":12942,"ĠBjell":12943,"ĠBorn":12944,"ĠBio":12945,"ĠBlÃ¥":12946,"ĠBush":12947,"ĠBlowjob":12948,"ĠBARN":12949,"ĠBysveen":12950,"ĠBlitz":12951,"ĠBÃ¦rum":12952,"ĠgjÃ¸dsel":12953,"ĠAU":12954,"ĠAsk":12955,"ĠAsker":12956,"ĠApr":12957,"ĠAsb":12958,"ĠAkkurat":12959,"ĠAften":12960,"ĠAstrid":12961,"aps":12962,"ĠIb":12963,"ĠIron":12964,"ĠIsak":12965,"ĠIsa":12966,"ney":12967,"nefoss":12968,"Ġinnse":12969,"Ġinnover":12970,"Ġinntatt":12971,"Ġinnvil":12972,"ĠinnfÃ¸re":12973,"ĠinnsjÃ¸":12974,"Ġinnplassering":12975,"Ġinnbrudd":12976,"Ġinntekt":12977,"Ġinnflyt":12978,"ĠKJ":12979,"ĠKy":12980,"ĠKal":12981,"ĠKat":12982,"ĠKvar":12983,"ĠKant":12984,"ĠKina":12985,"forn":12986,"forsikring":12987,"forny":12988,"forventninger":12989,"forebyggende":12990,"Ġkanal":12991,"ĠTA":12992,"ĠTO":12993,"ĠTj":12994,"ĠTel":12995,"ĠTok":12996,"ĠTem":12997,"ĠTest":12998,"ĠTve":12999,"ĠTop":13000,"ĠTost":13001,"ĠTina":13002,"ĠToft":13003,"ĠTana":13004,"ĠTurn":13005,"ĠTHL":13006,"ĠTotten":13007,"ĠTelemark":13008,"Ġaldre":13009,"Ġalpin":13010,"ĠVI":13011,"ĠVM":13012,"ĠVe":13013,"ĠVet":13014,"ĠVind":13015,"ĠVilde":13016,"ĠVoss":13017,"ĠVenstre":13018,"ĠEv":13019,"ĠEuro":13020,"ĠEvol":13021,"Ġlis":13022,"Ġlide":13023,"Ġliber":13024,"ĠLA":13025,"ĠLei":13026,"ĠLON":13027,"ĠLight":13028,"ĠLykke":13029,"ĠLarvik":13030,"ĠLigger":13031,"Ġsamtid":13032,"Ġsamferd":13033,"Ġdukke":13034,"Ġdumt":13035,"ula":13036,"uld":13037,"ulen":13038,"ommy":13039,"ensid":13040,"Ġkjipt":13041,"ĠPapp":13042,"ĠPDF":13043,"ĠPakistans":13044,"okt":13045,"ading":13046,"adra":13047,"adian":13048,"Ġ(=":13049,"Ġvarene":13050,"Ġvarighet":13051,"seren":13052,"serie":13053,"siske":13054,"Ġinde":13055,"Ġintet":13056,"Ġinkl":13057,"Ġinvit":13058,"Ġintro":13059,"skapslene":13060,"ĠsÃ¥vel":13061,"ĠsÃ¥nt":13062,"ĠsÃ¥klart":13063,"ĠsÃ¥nne":13064,"tete":13065,"emi":13066,"estÃ¥ende":13067,"odos":13068,"odset":13069,"Ġelbil":13070,"Ġelvest":13071,"Ġelegant":13072,"ĠOp":13073,"ĠOsl":13074,"ĠOtert":13075,"ĠOct":13076,"ĠOda":13077,"ĠOsc":13078,"ĠOPP":13079,"ĠONL":13080,"Ġspont":13081,"Ġspansk":13082,"Ġspredt":13083,"elighet":13084,"avhengig":13085,"utgifter":13086,"ĠRis":13087,"ĠRand":13088,"ĠRek":13089,"ĠRus":13090,"ĠRud":13091,"ĠRundt":13092,"ĠRÃ¸e":13093,"Ġmenes":13094,"ĠGlo":13095,"ĠGull":13096,"ĠGili":13097,"ĠGold":13098,"ĠGoo":13099,"ĠGaltvortSkolen":13100,"ĠGedmatch":13101,"ĠGallup":13102,"Ġungen":13103,"spor":13104,"sprÃ¸":13105,"spillet":13106,"vekkende":13107,"Ġsiton":13108,"Ġsibirske":13109,"Ġvilje":13110,"ynten":13111,"Ġoverle":13112,"ĠoverfÃ¸rt":13113,"ĠoverfÃ¸ring":13114,"Ġoversetter":13115,"Ġkva":13116,"Ġkvelder":13117,"Ġkvinder":13118,"irksomhet":13119,"Ġsec":13120,"ĠJer":13121,"ĠJensen":13122,"otte":13123,"otball":13124,"Ġcar":13125,"Ġcir":13126,"Ġcup":13127,"istan":13128,"Ġnyter":13129,"Ġnytter":13130,"Ġnyank":13131,"Ġnysg":13132,"ssiden":13133,"ĠfÃ¸rere":13134,"itlet":13135,"Ġetterskudd":13136,"Ġetternavn":13137,"Ġetterretning":13138,"Ġanvendelse":13139,"Ġtrer":13140,"Ġtrente":13141,"ĠtrÃ¸tt":13142,"ĠtromsÃ¸":13143,"Ã¸nsberg":13144,"uda":13145,"udo":13146,"udir":13147,"mentert":13148,"Ġkonst":13149,"Ġkonstru":13150,"Ġkontekst":13151,"Ġkonsist":13152,"allet":13153,"allenge":13154,"ĠInfo":13155,"ĠIngenting":13156,"Ġ--":13157,"ygen":13158,"varene":13159,"varebutikker":13160,"rÃ¥den":13161,"tiller":13162,"Ġ39":13163,"Ġklang":13164,"Ġklok":13165,"Ġklaget":13166,"ĠNorak":13167,"Ġreist":13168,"Ġreab":13169,"Ġrekker":13170,"Ġrektor":13171,"Ġrealistisk":13172,"Ġrevidert":13173,"ĠvÃ¦remÃ¥te":13174,"Ġnettsidene":13175,"Ġdaglige":13176,"Ġein":13177,"Ã¸lt":13178,"visninger":13179,"Ġhjernen":13180,"Ġhelga":13181,"Ġlekte":13182,"Ġlevende":13183,"Ġlearning":13184,"ĠStart":13185,"ĠStato":13186,"ĠStjern":13187,"ĠStrÃ¸mmen":13188,"ĠStatistisk":13189,"ĠCarn":13190,"ĠCross":13191,"ĠCumulus":13192,"ingsvalget":13193,"ftTo":13194,"Ġminister":13195,"Ġminigolf":13196,"artlegging":13197,"Ġunderskudd":13198,"ĠgjennomgÃ¥":13199,"deliver":13200,"Ġherfra":13201,"lagring":13202,"ĠVideregÃ¥ende":13203,"Ġvelges":13204,"Ġvelferd":13205,"Ġbefestet":13206,"enteret":13207,"entering":13208,"berettig":13209,"Ġbilene":13210,"ingeniÃ¸r":13211,"dren":13212,"drom":13213,"dretter":13214,"dagene":13215,"detaljer":13216,"essant":13217,"ĠnÃ¥s":13218,"ĠnÃ¥vÃ¦rende":13219,"Ġekstre":13220,"esken":13221,"eban":13222,"eblikk":13223,"taket":13224,"ĠgravrÃ¸y":13225,"ivt":13226,"opplÃ¦r":13227,"Ġsteiner":13228,"Ġutenkelig":13229,"Ġregi":13230,"Ġslit":13231,"jerrig":13232,"ansere":13233,"tikkelen":13234,"noser":13235,"Ġverst":13236,"Ġdels":13237,"Ġ53":13238,"Ġ56":13239,"Ġgangs":13240,"Ġ43":13241,"hei":13242,"opsi":13243,"ĠÂ½":13244,"arkitektur":13245,"Ġflater":13246,"Ġflytter":13247,"ĠflÃ¸rte":13248,"ĠSko":13249,"ĠSkien":13250,"ĠSkandinavia":13251,"Ġkvinnor":13252,"tidene":13253,"Ġvisum":13254,"ygga":13255,"ektrum":13256,"napp":13257,"ganger":13258,"Ġserien":13259,"lands":13260,"Ġsymfon":13261,"ĠEnger":13262,"ĠEndringer":13263,"Ġtoal":13264,"Ġtoleranse":13265,"rettig":13266,"reden":13267,"rivende":13268,"Ġkommunale":13269,"Ġkommunereformen":13270,"Ġbetalte":13271,"Ġbetingelsene":13272,"ryd":13273,"ieffek":13274,"Ġfremrag":13275,"ĠfremstÃ¥r":13276,"Ġbrukerens":13277,"Ġrader":13278,"Ġraske":13279,"sikter":13280,"Ġgrunnlagt":13281,"Ġgrunnskolen":13282,"Ġvennskapsrel":13283,"Ġmotsatt":13284,"press":13285,"kjole":13286,"kjenner":13287,"Ġforskningen":13288,"Ġforskrifter":13289,"ĠkjÃ¸pere":13290,"Ġbestemor":13291,"stendige":13292,"smid":13293,"smitte":13294,"smelding":13295,"smÃ¸ter":13296,"smegler":13297,"Ġviktigst":13298,"ĠUtbygging":13299,"jÃ¸en":13300,"jÃ¸tt":13301,"Ġvanvit":13302,"ates":13303,"ĠProdus":13304,"Ġ1960":13305,"Ġlegemidler":13306,"ĠWik":13307,"ĠWinter":13308,"ĠWicked":13309,"ĠWÃ¦rnhus":13310,"Ġfagstoff":13311,"ĠfÃ¸rsteamanuensis":13312,"ĠÃĺver":13313,"ics":13314,"sles":13315,"slÃ¸nn":13316,"ĠgÃ¥ing":13317,"sÃ¸kende":13318,"Ġlandbruks":13319,"jÃ¸rdal":13320,"Ġgifter":13321,"ace":13322,"acion":13323,"Ġ78":13324,"profil":13325,"prosess":13326,"ĠUni":13327,"Ġhjemreise":13328,"givere":13329,"ĠAlder":13330,"ĠAltern":13331,"Ġwik":13332,"ĠlÃ¸pt":13333,"ĠlÃ¸pere":13334,"torene":13335,"ĠvÃ¥t":13336,"ĠvÃ¥pen":13337,"klass":13338,"ĠnÃ¦rhet":13339,"ĠnÃ¦ringen":13340,"yson":13341,"Ġturner":13342,"valgt":13343,"Ġskjult":13344,"ĠskjÃ¸nn":13345,"Ġpersonen":13346,"Ġpersonal":13347,"Ġkontaktinformasjon":13348,"ĠInnlandet":13349,"ĠInnplassering":13350,"ĠÃħpen":13351,"Ġplak":13352,"Ġsynger":13353,"ronning":13354,"ronten":13355,"retten":13356,"Ġspesialisert":13357,"Ġspesifikt":13358,"Ġdesper":13359,"Ġdescri":13360,"Ġdeltager":13361,"Ġkvalifikasjonen":13362,"eferat":13363,"ĠArendal":13364,"kongen":13365,"konsert":13366,"kontroll":13367,"Ġsmykker":13368,"Ġsmittet":13369,"fÃ¸lgelig":13370,"haha":13371,"ugh":13372,"ugge":13373,"Ġliggende":13374,"Ġligget":13375,"ĠmÃ¸tene":13376,"Ġadgang":13377,"reguler":13378,"Ġaktivit":13379,"Ġforbud":13380,"Ġforbund":13381,"Ġforbundet":13382,"treng":13383,"trening":13384,"Ġmain":13385,"Ġmasker":13386,"Ġtenkes":13387,"irektÃ¸r":13388,"platt":13389,"pluss":13390,"Ġdatan":13391,"Ġmorsomme":13392,"Ġmannlig":13393,"luttvurdering":13394,"Ġbestand":13395,"Ġ188":13396,"sbeste":13397,"Ġperle":13398,"Ġpermalen":13399,"Ġleverings":13400,"planer":13401,"Ġforholdstallet":13402,"ĠvannfÃ¸rings":13403,"alenderen":13404,"ristin":13405,"Ġsvakt":13406,"Ġsviger":13407,"Ġstudenten":13408,"Ġsamtalen":13409,"Ãĺst":13410,"ionGS":13411,"Ġending":13412,"ĠTilfred":13413,"ĠTilbake":13414,"Ġvalgene":13415,"ĠSpÃ¸r":13416,"ĠSpill":13417,"ĠSpania":13418,"Ġgenerasjon":13419,"akta":13420,"aktÃ¸rer":13421,"faren":13422,"farge":13423,"Ġfylke":13424,"ĠMÃ¸testart":13425,"stÃ¥ende":13426,"stider":13427,"ktede":13428,"Ġtysk":13429,"Ġbrenn":13430,"Ġbrennende":13431,"snemnd":13432,"Ġkreve":13433,"Ġkreativt":13434,"Videreutdanning":13435,"gavene":13436,"Ġfarges":13437,"Ġfargene":13438,"Ġgambling":13439,"Ġalltids":13440,"sakene":13441,"Ġ03":13442,"Ġonly":13443,"Ġmotiver":13444,"Ã¸sninger":13445,"ampi":13446,"frihet":13447,"Ġpornost":13448,"Ġpornostjernene":13449,"samt":13450,"Ġgrillet":13451,"ĠgrÃ¸nt":13452,"Ġgrundig":13453,"jellen":13454,"ĠredaktÃ¸r":13455,"ĠOppsett":13456,"ĠOppstart":13457,"TEG":13458,"ĠsÃ¸vn":13459,"Ġkravet":13460,"Ġhovedrollen":13461,"alderen":13462,"nettverk":13463,"Ġsnu":13464,"grunnelementer":13465,"ĠNordre":13466,"Ġpolicy":13467,"Ġpolitikere":13468,"Ġforeldres":13469,"Ġsittet":13470,"Ġsittende":13471,"Ġsjokk":13472,"Ġsjalusi":13473,"ENS":13474,"Ġhelsefremmende":13475,"sjektering":13476,"Ġordne":13477,"Ġordnet":13478,"ĠHanne":13479,"ĠOrgan":13480,"utdanningen":13481,"Ġhvertfall":13482,"Ġfolkens":13483,"ĠKarsten":13484,"Ġhenvendelser":13485,"Ġgluten":13486,"Ġledelses":13487,"Ġpressen":13488,"ĠframstÃ¥r":13489,"Ġframtidige":13490,"ĠKunde":13491,"sprosess":13492,"Ġoppdateringen":13493,"Ġoppdateringene":13494,"settinger":13495,"virket":13496,"virksomhet":13497,"Ġjobbing":13498,"Ġansvarlige":13499,"selskaper":13500,"inkel":13501,"ĠRealisering":13502,"ĠRehabilitering":13503,"kommandasjonen":13504,"ultatet":13505,"Ġaktiviteten":13506,"ĠOmrÃ¥":13507,"ĠberÃ¸rer":13508,"ĠLesing":13509,"alisme":13510,"Ġprisene":13511,"ÃħL":13512,"Ġfilmet":13513,"Ġfrisk":13514,"Ġfritid":13515,"Ġnaturfag":13516,"aust":13517,"offert":13518,"offiser":13519,"ĠskoleÃ¥ret":13520,"Ġstyres":13521,"ĠBeregnet":13522,"cky":13523,"muligheter":13524,"snavn":13525,"ĠMary":13526,"ĠMarsh":13527,"sesongen":13528,"Ġbase":13529,"Ġtraumer":13530,"ĠChallenge":13531,"Ġfornuf":13532,"ssykehuset":13533,"ĠYgg":13534,"Ġabout":13535,"Ġkjemper":13536,"postadresse":13537,"Ġoftere":13538,"Ġformat":13539,"Ġproduct":13540,"Ġdress":13541,"Ġhusdyr":13542,"Ġlokalitet":13543,"Ġjulaften":13544,"ĠStudio":13545,"Ġfunksjonsevne":13546,"sforsk":13547,"ĠhÃ¥p":13548,"Ġvinden":13549,"Ġfamilieliv":13550,"Ġfamiliegjen":13551,"Ġhistoriske":13552,"ĠErfaringer":13553,"ĠrÃ¥dene":13554,"Ġbekreftelse":13555,"Ġorganisasjonsutvikling":13556,"ĠDermed":13557,"logget":13558,"Ġkritisk":13559,"Ġkriterier":13560,"Ġkritiker":13561,"Ġpoker":13562,"SKOLEN":13563,"ĠDatingsider":13564,"Ġprogramleder":13565,"Ġprogramvare":13566,"ART":13567,"Ġlengder":13568,"ĠSÃ¸rÃ¸st":13569,"ĠSÃ¸rlandet":13570,"ĠSÃ¸rensen":13571,"ĠBillig":13572,"ĠBildene":13573,"ĠArbeids":13574,"ĠArbeidsgiver":13575,"ĠÃ¸ya":13576,"fallet":13577,"Ġskift":13578,"Ġskiidrett":13579,"ĠBarnekonvensjon":13580,"Ġarbeidsliv":13581,"ĠsÃ¸knader":13582,"ĠfÃ¸de":13583,"ĠfÃ¸der":13584,"Ġkara":13585,"ĠgjenstÃ¥r":13586,"ĠForsknings":13587,"Ġplassene":13588,"ĠstÃ¸tteapparat":13589,"Ġdrikker":13590,"Ġbutikkene":13591,"Ġrolige":13592,"ĠKongen":13593,"Ġsterili":13594,"Ġuregistrert":13595,"Ġstik":13596,"Ġstikke":13597,"Ġstiftet":13598,"living":13599,"ĠRegent":13600,"Ġsykler":13601,"Ġsola":13602,"Ġsolgte":13603,"Ġlavt":13604,"Ġinteressen":13605,"budsjett":13606,"methods":13607,"rensel":13608,"Ġnevn":13609,"ĠAvhengig":13610,"ĠAvansert":13611,"ustav":13612,"Ġtettheten":13613,"Ġjorda":13614,"Ġjordmor":13615,"Ġkvalifikasjonsrammeverkene":13616,"2004":13617,"2008":13618,"ĠhÃ¥ndball":13619,"Ġraskest":13620,"Ġdipl":13621,"Ġkoord":13622,"andrere":13623,"ELSEN":13624,"Ġmetoden":13625,"Ġbygging":13626,"levÃ¥l":13627,"ALE":13628,"ALG":13629,"Ġsaft":13630,"Ġfemin":13631,"Ġfemten":13632,"ĠFagstoff":13633,"ationL":13634,"ĠselvfÃ¸lge":13635,"ILJÃĺ":13636,"ãģ«":13637,"ãģ®":13638,"ãģŁ":13639,"ĠFritt":13640,"ĠFrida":13641,"Ġkontrover":13642,"ategorier":13643,"Ġemnet":13644,"Ġstilt":13645,"Ġkontaktannons":13646,"byggende":13647,"byggingen":13648,"Ã©n":13649,"Ġhalvveis":13650,"Ġforslaget":13651,"ĠSyke":13652,"ĠMatch":13653,"Ġspilles":13654,"pakke":13655,"vÃ¦relse":13656,"Ġfysikk":13657,"ĠdrÃ¸fting":13658,"Ġkostbare":13659,"Ġkrone":13660,"Ġevnen":13661,"ints":13662,"spillbon":13663,"aterialer":13664,"Ġyrker":13665,"Ġbooke":13666,"bundet":13667,"Ġfjordane":13668,"partement":13669,"eiring":13670,"fylt":13671,"morgen":13672,"ĠGamle":13673,"Ġtegninger":13674,"Ġungdomsb":13675,"pleksi":13676,"Ġ%-":13677,"ĠbredbÃ¥nd":13678,"Ġkalkulator":13679,"ĠmÃ¥nedene":13680,"sglede":13681,"Ġbelysning":13682,"Ġkategori":13683,"Ġtiltakene":13684,"ĠGratulerer":13685,"kjennelse":13686,"slinjen":13687,"Ġsannsynlighet":13688,"ytelse":13689,"ĠlÃ¸nnsom":13690,"ĠAdobe":13691,"ĠLogge":13692,"ĠGeneral":13693,"Ġbevegelsen":13694,"Ġbevegelighet":13695,"ĠTrondheims":13696,"fokk":13697,"food":13698,"ĠRÃ¥dmann":13699,"Ġprodusenten":13700,"Ġ1997":13701,"Ġ1998":13702,"Ġlogg":13703,"Ġlogger":13704,"Ġlogget":13705,"Ġtrykker":13706,"Ġtesting":13707,"Ġorganer":13708,"Ġmottok":13709,"171":13710,"Ġ*,":13711,"Ġmamsen":13712,"Ġanerkjente":13713,"Ġwebsider":13714,"Ġpublisere":13715,"Ġdomin":13716,"Ġdominerende":13717,"Ġdomstol":13718,"ĠHÃ¸yere":13719,"ĠMaskin":13720,"Ġalternativer":13721,"ĠnÃ¦ringsutvikling":13722,"vnen":13723,"Ġthaid":13724,"ĠDaglig":13725,"Ġsuperfin":13726,"Ġgavekort":13727,"ĠtrafikkmÃ¥ling":13728,"ĠUSAs":13729,"Ġrisikovurdering":13730,"Art":13731,"Ġgruer":13732,"ĠHÃ¥ndball":13733,"Ġvariasjoner":13734,"Ġvariasjonen":13735,"Ġprofilen":13736,"Ġpresenteres":13737,"Ġtradisjoner":13738,"Ġtradisjonen":13739,"Ġfiskeforvaltning":13740,"ĠEiendoms":13741,"splassen":13742,"Ġbloggere":13743,"betont":13744,"ĠXxx":13745,"ĠsjÃ¸en":13746,"strand":13747,"strÃ¸k":13748,"Ġtrukket":13749,"Ġtrussel":13750,"Ġskumm":13751,"Ġskuffet":13752,"ĠTove":13753,"Ġoversiktlig":13754,"Ġtakknem":13755,"ĠmÃ¸ttes":13756,"Ġkristendate":13757,"PLÃĨRING":13758,"count":13759,"Ġfjernet":13760,"Ġvektlegges":13761,"Ġimponert":13762,"Ġinnebar":13763,"Ġbevisste":13764,"ĠAndrew":13765,"Ġkonkurrans":13766,"bukse":13767,"phina":13768,"phpbb":13769,"Ġhave":13770,"Ġhavner":13771,"ĠMykle":13772,"ĠKristine":13773,"ĠVara":13774,"Ġprinsipp":13775,"Ġytterste":13776,"message":13777,"Ġkirker":13778,"Ġgutten":13779,"ĠKommunen":13780,"ografiske":13781,"ĠInformasjonskapsler":13782,"Ġfylkene":13783,"Ġjulek":13784,"ĠavgjÃ¸relse":13785,"ĠBestill":13786,"ĠTeater":13787,"ĠRelasjoner":13788,"ĠProsjektledelse":13789,"Ġutdanningssystemer":13790,"ĠskjÃ¸nte":13791,"Ġretningslinjene":13792,"OgsÃ¥":13793,"Ġvekstforetak":13794,"Ġgulvet":13795,"ĠSandvik":13796,"ĠSandaler":13797,"ĠBrunette":13798,"ĠBakgrunnen":13799,"forholdet":13800,"forholdene":13801,"Ġelektrisk":13802,"Ansvar":13803,"butikker":13804,"butikken":13805,"ĠFrÃ¸ya":13806,"Ã¦ringens":13807,"ĠVerktÃ¸y":13808,"Ġtilbakebet":13809,"Ġkraftnettet":13810,"Spesi":13811,"ifisert":13812,"kretÃ¦ren":13813,"themis":13814,"Ġdypt":13815,"Ġdyktige":13816,"Ġmektig":13817,"Ġmektige":13818,"Ġmodel":13819,"Ġmobbet":13820,"Ġbibliotekar":13821,"ĠBooming":13822,"forbundet":13823,"ĠPlaygirl":13824,"ĠPlayson":13825,"Ġprosessfullmektig":13826,"Opplevelser":13827,"dannende":13828,"Ġforutinn":13829,"ĠStimu":13830,"ĠoppfÃ¸lg":13831,"Ġforskjellen":13832,"Â«Â«":13833,"Ġukjente":13834,"Ġfylkesbibliotek":13835,"stilt":13836,"vedt":13837,"Ġsignert":13838,"Ġkunden":13839,"Ġoppvekstfag":13840,"ĠBlod":13841,"ĠBlomster":13842,"Ġsportslig":13843,"Ġdelegater":13844,"Ġberegningene":13845,"ofak":13846,"screening":13847,"Ġ{{":13848,"studier":13849,"ĠSveits":13850,"ĠDele":13851,"ĠVirkelig":13852,"ĠVirtual":13853,"ĠÃ¸velse":13854,"ĠÃ¸stfold":13855,"Ġoperativt":13856,"ĠoperatÃ¸rer":13857,"Ġbiologiske":13858,"Ġvegne":13859,"Ġavhengighet":13860,"Ġtrippelrenn":13861,"Ġkonsul":13862,"Ġinteresserer":13863,"NSPOLIT":13864,"barnsm":13865,"Ġminnene":13866,"Ġbyrom":13867,"Ġtilknyttet":13868,"ĠShow":13869,"ĠPornostjernene":13870,"Ġvarierende":13871,"Ġelementet":13872,"ĠUlf":13873,"ĠUllevÃ¥l":13874,"Ġbegrensninger":13875,"Ġvannforvalt":13876,"Ġvannforekomster":13877,"sjekking":13878,"Ġprioritering":13879,"Ġreflektere":13880,"Ġomsorgsarbeidere":13881,"Ġsvensk":13882,"Ġfeiring":13883,"Ġfeiringen":13884,"Ġhoppe":13885,"Ġguess":13886,"Ġguide":13887,"Ġurl":13888,"Ġurbefolkning":13889,"Ġlenker":13890,"ĠFortsatt":13891,"Ġomtaler":13892,"ĠGrunnen":13893,"Ġbedriftene":13894,"Ġhandlekurven":13895,"Ġoffisielt":13896,"Ġungdomsarbeidere":13897,"Ġressurskrevende":13898,"marks":13899,"ãĥ¼":13900,"Ġsekv":13901,"Ġmyndighet":13902,"Ġhevde":13903,"Ġasiatisk":13904,"Ġild":13905,"alogboksen":13906,"Ġtapt":13907,
[...]
