{"version":"1.0","truncation":null,"padding":null,"added_tokens":[{"id":0,"special":true,"content":"<s>","single_word":false,"lstrip":false,"rstrip":false,"normalized":false},{"id":1,"special":true,"content":"<pad>","single_word":false,"lstrip":false,"rstrip":false,"normalized":false},{"id":2,"special":true,"content":"</s>","single_word":false,"lstrip":false,"rstrip":false,"normalized":false},{"id":3,"special":true,"content":"<unk>","single_word":false,"lstrip":false,"rstrip":false,"normalized":false},{"id":4,"special":true,"content":"<mask>","single_word":false,"lstrip":false,"rstrip":false,"normalized":false}],"normalizer":null,"pre_tokenizer":{"type":"ByteLevel","add_prefix_space":false,"trim_offsets":true},"post_processor":{"type":"ByteLevel","add_prefix_space":true,"trim_offsets":false},"decoder":{"type":"ByteLevel","add_prefix_space":true,"trim_offsets":true},"model":{"type":"BPE","dropout":null,"unk_token":null,"continuing_subword_prefix":null,"end_of_word_suffix":null,"fuse_unk":false,"vocab":{"<s>":0,"<pad>":1,"</s>":2,"<unk>":3,"<mask>":4,"!":5,"\"":6,"#":7,"$":8,"%":9,"&":10,"'":11,"(":12,")":13,"*":14,"+":15,",":16,"-":17,".":18,"/":19,"0":20,"1":21,"2":22,"3":23,"4":24,"5":25,"6":26,"7":27,"8":28,"9":29,":":30,";":31,"<":32,"=":33,">":34,"?":35,"@":36,"A":37,"B":38,"C":39,"D":40,"E":41,"F":42,"G":43,"H":44,"I":45,"J":46,"K":47,"L":48,"M":49,"N":50,"O":51,"P":52,"Q":53,"R":54,"S":55,"T":56,"U":57,"V":58,"W":59,"X":60,"Y":61,"Z":62,"[":63,"\\":64,"]":65,"^":66,"_":67,"`":68,"a":69,"b":70,"c":71,"d":72,"e":73,"f":74,"g":75,"h":76,"i":77,"j":78,"k":79,"l":80,"m":81,"n":82,"o":83,"p":84,"q":85,"r":86,"s":87,"t":88,"u":89,"v":90,"w":91,"x":92,"y":93,"z":94,"{":95,"|":96,"}":97,"~":98,"¡":99,"¢":100,"£":101,"¤":102,"¥":103,"¦":104,"§":105,"¨":106,"©":107,"ª":108,"«":109,"¬":110,"®":111,"¯":112,"°":113,"±":114,"²":115,"³":116,"´":117,"µ":118,"¶":119,"·":120,"¸":121,"¹":122,"º":123,"»":124,"¼":125,"½":126,"¾":127,"¿":128,"À":129,"Á":130,"Â":131,"Ã":132,"Ä":133,"Å":134,"Æ":135,"Ç":136,"È":137,"É":138,"Ê":139,"Ë":140,"Ì":141,"Í":142,"Î":143,"Ï":144,"Ð":145,"Ñ":146,"Ò":147,"Ó":148,"Ô":149,"Õ":150,"Ö":151,"×":152,"Ø":153,"Ù":154,"Ú":155,"Û":156,"Ü":157,"Ý":158,"Þ":159,"ß":160,"à":161,"á":162,"â":163,"ã":164,"ä":165,"å":166,"æ":167,"ç":168,"è":169,"é":170,"ê":171,"ë":172,"ì":173,"í":174,"î":175,"ï":176,"ð":177,"ñ":178,"ò":179,"ó":180,"ô":181,"õ":182,"ö":183,"÷":184,"ø":185,"ù":186,"ú":187,"û":188,"ü":189,"ý":190,"þ":191,"ÿ":192,"Ā":193,"ā":194,"Ă":195,"ă":196,"Ą":197,"ą":198,"Ć":199,"ć":200,"Ĉ":201,"ĉ":202,"Ċ":203,"ċ":204,"Č":205,"č":206,"Ď":207,"ď":208,"Đ":209,"đ":210,"Ē":211,"ē":212,"Ĕ":213,"ĕ":214,"Ė":215,"ė":216,"Ę":217,"ę":218,"Ě":219,"ě":220,"Ĝ":221,"ĝ":222,"Ğ":223,"ğ":224,"Ġ":225,"ġ":226,"Ģ":227,"ģ":228,"Ĥ":229,"ĥ":230,"Ħ":231,"ħ":232,"Ĩ":233,"ĩ":234,"Ī":235,"ī":236,"Ĭ":237,"ĭ":238,"Į":239,"į":240,"İ":241,"ı":242,"Ĳ":243,"ĳ":244,"Ĵ":245,"ĵ":246,"Ķ":247,"ķ":248,"ĸ":249,"Ĺ":250,"ĺ":251,"Ļ":252,"ļ":253,"Ľ":254,"ľ":255,"Ŀ":256,"ŀ":257,"Ł":258,"ł":259,"Ń":260,"er":261,"en":262,"Ġs":263,"et":264,"Ã¥":265,"Ġf":266,"Ġo":267,"in":268,"Ġd":269,"or":270,"an":271,"Ġm":272,"el":273,"Ã¸":274,"Ġt":275,"Ġh":276,"Ġa":277,"il":278,"Ġb":279,"Ġv":280,"Ġog":281,"ar":282,"st":283,"Ġi":284,"Ġk":285,"Ġp":286,"re":287,"om":288,"le":289,"li":290,"ing":291,"ed":292,"Ġfor":293,"te":294,"sk":295,"Ġg":296,"ĠÃ¥":297,"Ġn":298,"on":299,"Ġtil":300,"kk":301,"Ġer":302,"eg":303,"ra":304,"ter":305,"Ġav":306,"al":307,"Ġen":308,"Ġu":309,"de":310,"Ġdet":311,"ĠpÃ¥":312,"Ġsom":313,"at":314,"ig":315,"es":316,"id":317,"un":318,"ene":319,"Ã¸r":320,"pp":321,"Ġmed":322,"is":323,"kt":324,"Ġl":325,"as":326,"ver":327,"ler":328,"Ġst":329,"ag":330,"ne":331,"ĠD":332,"Ã¦":333,"tt":334,"Ġin":335,"ĠS":336,"lig":337,"am":338,"Ġat":339,"ol":340,"se":341,"Ġsk":342,"Ġut":343,"and":344,"ri":345,"Ġhar":346,"jon":347,"der":348,"Ġet":349,"Ġj":350,"ro":351,"kke":352,"Ġde":353,"Ã¥r":354,"Ġvi":355,"ste":356,"Ġom":357,"ru":358,"ke":359,"ang":360,"ett":361,"ning":362,"Ġopp":363,"Ġgj":364,"ent":365,"ere":366,"ĠH":367,"Ã¦r":368,"Ġden":369,"Ġikke":370,"ĠM":371,"Ġ1":372,"ks":373,"Ġre":374,"Ġfra":375,"ur":376,"ĠN":377,"isk":378,"ĠF":379,"Ġkan":380,"Ġvar":381,"gg":382,"Ġ2":383,"Ġmen":384,"Ġinn":385,"Ġno":386,"for":387,"ĠB":388,"Ġal":389,"Ġr":390,"it":391,"ĠA":392,"je":393,"ikk":394,"het":395,"ser":396,"ak":397,"ul":398,"ad":399,"ĠT":400,"ende":401,"Ġble":402,"ens":403,"ot":404,"ĠI":405,"Ġel":406,"mer":407,"Ġbe":408,"ĠV":409,"ĠE":410,"ik":411,"be":412,"ĠDet":413,"ĠK":414,"asjon":415,"us":416,"ap":417,"Ġjeg":418,"Ġli":419,"Ġhv":420,"Ġsp":421,"Ġdu":422,"Ġan":423,"Ġsam":424,"ge":425,"enn":426,"Ġkom":427,"Ġseg":428,"Ġe":429,"iv":430,"Ġbli":431,"Ġle":432,"Ã¸y":433,"elig":434,"Ġkj":435,"od":436,"sen":437,"ĠP":438,"ker":439,"Ġ(":440,"att":441,"Ã¦re":442,"ĠsÃ¥":443,"av":444,"ut":445,"sÃ¥":446,"ĠmÃ¥":447,"Ġvil":448,"ss":449,"elt":450,"ĠO":451,"ell":452,"ĠL":453,"ok":454,"Ġover":455,"Ġun":456,"eng":457,"Ġeller":458,"est":459,"Ġpro":460,"sp":461,"inn":462,"ist":463,"ling":464,"ord":465,"ort":466,"Ġ20":467,"Ġetter":468,"ir":469,"unn":470,"ĠogsÃ¥":471,"else":472,"âĢ":473,"me":474,"Ġbru":475,"art":476,"ĠR":477,"Ġbar":478,"yn":479,"lo":480,"Ġsi":481,"ĠG":482,"Ġskal":483,"ĠÃ¥r":484,"ft":485,"ĠfÃ¸r":486,"men":487,"yr":488,"Ġse":489,"Ġved":490,"Ã¸re":491,"Ã¸n":492,"ann":493,"ĠJ":494,"ud":495,"old":496,"beid":497,"ske":498,"ve":499,"Ġny":500,"Ã¸p":501,"Ġkon":502,"ant":503,"dig":504,"Ġder":505,"Ġar":506,"skap":507,"Ġtr":508,"gj":509,"Ã¸k":510,"Ġsel":511,"os":512,"Ġand":513,"ĠvÃ¦re":514,"ff":515,"all":516,"legg":517,"iske":518,"og":519,"Ġnoen":520,"net":521,"Ġmer":522,"Ã¸l":523,"Ġtid":524,"var":525,"..":526,"Ġdette":527,"ingen":528,"ert":529,"Ġhan":530,"ine":531,"Ã¦rt":532,"adde":533,"ov":534,"ĠfÃ¥":535,"00":536,"ĠC":537,"um":538,"Ġnoe":539,"und":540,"ale":541,"em":542,"ers":543,"Ġhadde":544,"Ġdag":545,"Ġc":546,"ob":547,"Ġ-":548,"lag":549,"Ġandre":550,"ennom":551,"ass":552,"Ġdat":553,"vis":554,"Ġunder":555,"akt":556,"Ġblir":557,"Ġman":558,"ier":559,"Ġhel":560,"itt":561,"sm":562,"lit":563,"del":564,"Ġ201":565,"hold":566,"Ġalle":567,"ĠU":568,"opp":569,"rem":570,"Ġkv":571,"lere":572,"lige":573,"ĠNor":574,"Ġha":575,"Ġgod":576,"du":577,"Ġkl":578,"ygg":579,"ktig":580,"Ġnor":581,"ange":582,"Ġmin":583,"jel":584,"ger":585,"Ġselv":586,"Ġgjennom":587,"rÃ¥":588,"Ġnett":589,"Ġkun":590,"jer":591,"ĠÂ":592,"ĠSt":593,"den":594,"Ġmot":595,"Ġpl":596,"ster":597,"tid":598,"ksjon":599,"Ġ3":600,"Ġda":601,"ly":602,"vik":603,"per":604,"ab":605,"ĠnÃ¥":606,"âĢĵ":607,"tte":608,"Ġsli":609,"ek":610,"ien":611,"Ġvel":612,"dre":613,"alt":614,"sker":615,"Ġgr":616,"ĠVi":617,"dr":618,"let":619,"dag":620,"inger":621,"Ġenn":622,"elle":623,"ĠFor":624,"ye":625,"ans":626,"Ġstor":627,"ĠnÃ¥r":628,"alg":629,"ings":630,"Ġbl":631,"Ġver":632,"Ġuten":633,"ner":634,"Ġbil":635,"Ġeg":636,"Ġdeg":637,"Ġdenne":638,"fÃ¸r":639,"im":640,"iden":641,"Ġarbeid":642,"ry":643,"iser":644,"sten":645,"ber":646,"ĠvÃ¦rt":647,"ĠhÃ¸y":648,"jem":649,"Ġbare":650,"mun":651,"lu":652,"ĠgjÃ¸re":653,"ia":654,"rÃ¸":655,"ven":656,"Ġfort":657,"Ġmu":658,"Ġlag":659,"Ġreg":660,"ie":661,"Ġto":662,"yl":663,"Â»":664,"gen":665,"Ġpo":666,"Ġmye":667,"ast":668,"Ġsy":669,"Ġmeg":670,"Ġmange":671,"ater":672,"Ġfrem":673,"Ġlitt":674,"Ġdel":675,"Ġtilb":676,"ette":677,"Ã¸d":678,"ĠÃ":679,"Ġor":680,"ets":681,"na":682,"lem":683,"Ġher":684,"ark":685,"Ġbeg":686,"inner":687,"ĠÂ«":688,"tter":689,"Ġhvor":690,"ult":691,"Ġ19":692,"Ġhver":693,"Ġek":694,"ĠIn":695,"ĠgjÃ¸r":696,"Ġfin":697,"ic":698,"det":699,"Ġgang":700,"ekt":701,"ten":702,"ev":703,"form":704,"Ġbruk":705,"lighet":706,"Ġra":707,"isse":708,"Ġdating":709,"enter":710,"Ġfikk":711,"Ġoss":712,"Ġtre":713,"ĠbÃ¥":714,"kj":715,"erson":716,"stil":717,"kker":718,"Ġflere":719,"ninger":720,"rat":721,"Ġhun":722,"Ġpros":723,"Ġta":724,"pe":725,"Ġkont":726,"ket":727,"ess":728,"land":729,"Ġsammen":730,"Ġbet":731,"Ġ4":732,"Ġspil":733,"Ġsin":734,"mp":735,"met":736,"Ġhva":737,"ellom":738,"Ġinter":739,"ĠÃ¸":740,"ĠDe":741,"ede":742,"he":743,"ĠfÃ¥r":744,"si":745,"itet":746,"dom":747,"Ġslik":748,"ĠâĢĵ":749,"Ġser":750,"Ġ5":751,"ĠDen":752,"ĠfÃ¸rste":753,"Ġviktig":754,"di":755,"Ġmellom":756,"jene":757,"arbeid":758,"Ġkommun":759,"ige":760,"res":761,"hand":762,"ningen":763,"enger":764,"vet":765,"Ġforsk":766,"ĠNorge":767,"ĠfÃ¸l":768,"ĠmÃ¸":769,"gang":770,"Ġnye":771,"Ġned":772,"la":773,"ĠDette":774,"Ġgrunn":775,"ĠJeg":776,"Ġalt":777,"etter":778,"Ġkunne":779,"Ġsm":780,"eb":781,"ĠEn":782,"Ġ\"":783,"ĠsÃ¸":784,"Ġigj":785,"ull":786,"ron":787,"ĠbÃ¥de":788,"Ġbeste":789,"ĠkjÃ¸p":790,"eld":791,"ordan":792,"gi":793,"slo":794,"este":795,"Ġfors":796,"Ġsv":797,"ch":798,"no":799,"nd":800,"ĠvÃ¥r":801,"Ã¸nn":802,"Ġland":803,"Ġbed":804,"ĠÃ¸n":805,"ram":806,"Ġvir":807,"ĠMen":808,"Ġutvik":809,"Ġby":810,"Ġmil":811,"som":812,"red":813,"Ġenk":814,"Ġsex":815,"atte":816,"elsen":817,"Ġdem":818,"ion":819,"Ġrett":820,"rett":821,"Ġsiden":822,"Ġigjen":823,"Ġdisse":824,"Ġperson":825,"ode":826,"rift":827,"jÃ¸":828,"riv":829,"Ġannet":830,"Ã¥l":831,"ide":832,"Ġkommer":833,"pt":834,"Det":835,"Ġhelt":836,"ener":837,"ret":838,"eder":839,"ris":840,"kter":841,"ake":842,"tak":843,").":844,"yd":845,"Ġvan":846,"ĠAn":847,"Ġhele":848,"ente":849,"ĠnÃ¦r":850,"elser":851,"ĠW":852,"ulle":853,"bru":854,"ost":855,"isjon":856,"ken":857,"Ġlang":858,"ĠstÃ¸r":859,"Ġdin":860,"ĠgÃ¥r":861,"Ġgodt":862,"ub":863,"olk":864,"els":865,"pen":866,"pl":867,"Ġgi":868,"Ġve":869,"Ġans":870,"ttet":871,"Ġhjel":872,"jekt":873,"Ġhvordan":874,"kket":875,"formasjon":876,"are":877,"Ġsier":878,"Ġgir":879,"ros":880,"Ġjob":881,"kl":882,"ĠgÃ¥":883,"like":884,"eller":885,"nings":886,"ĠvÃ¥":887,"Ġakt":888,"Ġ6":889,"Ġrund":890,"gan":891,"...":892,"rupp":893,"Ġ200":894,"ire":895,"Ã¸s":896,"ĠSk":897,"Ġstore":898,"ligere":899,"Ġof":900,"tem":901,"oll":902,"rav":903,"fil":904,"atur":905,"erne":906,"Ġti":907,"Ġhen":908,"ĠlÃ¸p":909,"asjoner":910,"esi":911,"Ġbruker":912,"Ġly":913,"Ġsamme":914,"ran":915,"rist":916,"fÃ¸l":917,"Ġblant":918,"Ġper":919,"over":920,"ali":921,"Ġblitt":922,"Ġbarn":923,"sb":924,"Ġvid":925,"Ġlegg":926,"Ġrundt":927,"Ġnorske":928,"ĠOg":929,"Ġlike":930,"sert":931,"ole":932,"elige":933,"ive":934,"heter":935,"pet":936,"fer":937,"ug":938,"hol":939,"heten":940,"ĠAl":941,"mid":942,"ring":943,"Ġforb":944,"Ġhjem":945,"ikker":946,"olog":947,"Ġsine":948,"ise":949,"Ġskj":950,"Ġsyn":951,"aler":952,"ont":953,"satt":954,"rer":955,"alit":956,"ĠhÃ¥":957,"set":958,"Ġbes":959,"Ġall":960,"Ġsiste":961,"ac":962,"Ġskulle":963,"Ġmest":964,"Ġtilbake":965,"Ġtillegg":966,"ĠHan":967,"les":968,"Ġprodu":969,"rad":970,"Ġveldig":971,"Ġbegyn":972,"sel":973,"Ġsen":974,"Ġma":975,"Ġinnen":976,"Ġforhold":977,"nen":978,"edet":979,"Ġfinne":980,"Ġri":981,"ate":982,"tere":983,"Ġinformasjon":984,"Ġmenne":985,"ĠÃ¸nsker":986,"ĠÃ¸k":987,"Ġnok":988,"Ġsl":989,"kom":990,"urder":991,"ind":992,"alen":993,"Ġlig":994,"Ġplan":995,"Ġfly":996,"Ġstil":997,"Ġ7":998,"Ġgikk":999,"Ġten":1000,"iver":1001,"Ġw":1002,"Ġbygg":1003,"Ġpolit":1004,"ny":1005,"iet":1006,"Ġmulig":1007,"sjon":1008,"oved":1009,"Ġbruke":1010,"dd":1011,"valg":1012,"Ġjo":1013,"ĠAr":1014,"ksom":1015,"ĠOslo":1016,"ratis":1017,"Ġspesi":1018,"Ġ18":1019,"op":1020,"dt":1021,"ma":1022,"ill":1023,"Ġdere":1024,"sy":1025,"nes":1026,"utt":1027,"asser":1028,"Ġfer":1029,"Ġbedre":1030,"Ġegen":1031,"tall":1032,"handling":1033,"Ġmor":1034,"semp":1035,"usjon":1036,"min":1037,"Ġtek":1038,"Ġinne":1039,"Ġbr":1040,"Ġnorsk":1041,"Ġla":1042,"anse":1043,"Ġ8":1044,"Ġru":1045,"Ġtar":1046,"Ġty":1047,"ĠHer":1048,"Ã¸rer":1049,"fÃ¸re":1050,"oks":1051,"skje":1052,"Ġhos":1053,"ĠÃĺ":1054,"eter":1055,"Ġdelt":1056,"ĠvÃ¥re":1057,"kken":1058,"ĠbÃ¸r":1059,"ĠÃ¥p":1060,"âĢĿ":1061,"hus":1062,"Ġfil":1063,"rig":1064,"Ġtro":1065,"lev":1066,"ĠfÃ¥tt":1067,"far":1068,"styr":1069,"Ġpre":1070,"Ġvidere":1071,"ges":1072,"sl":1073,"Ġmulighet":1074,"Ġulike":1075,"Ġbak":1076,"rag":1077,"Ġtur":1078,"Ġvalg":1079,"gr":1080,"Ġsamt":1081,"Ġev":1082,"entlig":1083,"Ġfar":1084,"sÃ¸k":1085,"enner":1086,"Ġform":1087,"oen":1088,"kte":1089,"Ġ10":1090,"ganis":1091,"Ġsitt":1092,"inne":1093,"elen":1094,"anske":1095,"atter":1096,"Ġmo":1097,"Ġsn":1098,"gram":1099,"alitet":1100,"Ġfun":1101,"gjÃ¸r":1102,"Ġfri":1103,"entet":1104,"Ġingen":1105,"asjonen":1106,"ĠmÃ¥l":1107,"ider":1108,"iner":1109,"Ġlever":1110,"aker":1111,"unkt":1112,"med":1113,"Ġeksemp":1114,"if":1115,"Ġhand":1116,"elder":1117,"aken":1118,"stand":1119,"Ġstud":1120,"Ġviser":1121,"ard":1122,"skapet":1123,"Ġy":1124,"stÃ¥":1125,"ister":1126,"Ġkre":1127,"Ġmat":1128,"ele":1129,"Ġhol":1130,"jÃ¸r":1131,"ĠUn":1132,"ha":1133,"istor":1134,"Ġgam":1135,"va":1136,"ĠomrÃ¥":1137,"Ġord":1138,"ĠSp":1139,"Ġpar":1140,"Ġtidligere":1141,"ĠspÃ¸r":1142,"Ġfram":1143,"Ġgode":1144,"Ġstat":1145,"Ġstyr":1146,"Ġpor":1147,"Ġsit":1148,"Ġting":1149,"stra":1150,"Ġfinn":1151,"raft":1152,"pro":1153,"onom":1154,"Ġgratis":1155,"stem":1156,"ĠÃħ":1157,"Ġkvinner":1158,"ren":1159,"ĠprÃ¸":1160,"tes":1161,"stilling":1162,"Ġber":1163,"Ġ9":1164,"ivt":1165,"Ġvurder":1166,"da":1167,"Ġkam":1168,"Ġtjene":1169,"),":1170,"olen":1171,"ĠDu":1172,"Ġfull":1173,"Ġliv":1174,"oner":1175,"raf":1176,"ultur":1177,"Ġhoved":1178,"Ġmenn":1179,"Ġmann":1180,"Ġad":1181,"des":1182,"ĠMed":1183,"ib":1184,"jell":1185,"Ġfag":1186,"Ġgjen":1187,"funn":1188,"fÃ¸rt":1189,"Ġbid":1190,"Ġmens":1191,"sept":1192,"Ġmid":1193,"Ã¥d":1194,"syn":1195,"Ġfolk":1196,"Ġderfor":1197,"rakt":1198,"Ġbesk":1199,"ys":1200,"ĠPÃ¥":1201,"heng":1202,"amil":1203,"Ġon":1204,"Ġfordi":1205,"rÃ¸m":1206,"fter":1207,"Ġutvikling":1208,"Ġnytt":1209,"stre":1210,"Ġville":1211,"fri":1212,"ps":1213,"ĠstÃ¸":1214,"Ġfle":1215,"Ġtatt":1216,"Ġsj":1217,"Ġeks":1218,"Ġres":1219,"Ġbeh":1220,"Ġkomme":1221,"ester":1222,"po":1223,"Ġinnlegg":1224,"Ġgener":1225,"ĠsÃ¸ker":1226,"ĠSe":1227,"Ġlok":1228,"vir":1229,"Ġsa":1230,"20":1231,"Ġdes":1232,"dan":1233,"Ġskri":1234,"ĠUt":1235,"rit":1236,"tert":1237,"vel":1238,"Ġhvis":1239,"ille":1240,"anger":1241,"Ġsett":1242,"Ġaller":1243,"Vi":1244,"Ġoff":1245,"Ġslu":1246,"asse":1247,"avn":1248,"Ġfl":1249,"ĠsvÃ¦rt":1250,"Ġfakt":1251,"gÃ¥":1252,"000":1253,"ga":1254,"Ġkanskje":1255,"Ġmedlem":1256,"Ġsu":1257,"Ġfinnes":1258,"Ġkjent":1259,"Ġbo":1260,"ust":1261,"Ġdam":1262,"ivitet":1263,"Ġjenter":1264,"ĠDa":1265,"Ġprosjekt":1266,"ĠmÃ¸te":1267,"Ġklar":1268,"Ġintern":1269,"Ġeksempel":1270,"kur":1271,"Ġlov":1272,"Ġgjelder":1273,"Ġklo":1274,"Ġforskjel":1275,"Ġnatur":1276,"Ġjobb":1277,"eil":1278,"Ġbra":1279,"Ġofte":1280,"Ġfant":1281,"sj":1282,"Ġbest":1283,"tek":1284,"Ġvann":1285,"par":1286,"rom":1287,"Ġpris":1288,"Ã¦rer":1289,"Ã¦ring":1290,"vil":1291,"lis":1292,"org":1293,"ĠDer":1294,"Ġskap":1295,"Ġkontakt":1296,"For":1297,"Ġsik":1298,"sikt":1299,"Ġrom":1300,"Ġ|":1301,"Ã¸ker":1302,"asje":1303,"Ġannen":1304,"Ġfyl":1305,"Ġ15":1306,"Ġprob":1307,"Ġhvil":1308,"ian":1309,"ĠlÃ¸pet":1310,"Ġmindre":1311,"Ġsamarbeid":1312,"Ġmennesker":1313,"Ġtilf":1314,"Ġbilder":1315,"unnskap":1316,"Ġ0":1317,"Ġverden":1318,"Ġstart":1319,"ial":1320,"tidig":1321,"dri":1322,"Ġro":1323,"Ġsent":1324,"verk":1325,"utter":1326,"Ġvis":1327,"pper":1328,"Ġvirk":1329,"skelig":1330,"lik":1331,"kes":1332,"Ġbarne":1333,"ĠÃ¸y":1334,"Ġ:":1335,"Ġinv":1336,"ĠTil":1337,"Ġlu":1338,"Ġhvert":1339,"Ġben":1340,"ite":1341,"orte":1342,"logg":1343,"ĠstÃ¸rre":1344,"stad":1345,"Ġhelse":1346,"roll":1347,"Ġhjelp":1348,"ĠfÃ¸rst":1349,"ĠNord":1350,"rep":1351,"assen":1352,"ĠmÃ¥te":1353,"bygg":1354,"fordr":1355,"slag":1356,"Ġderes":1357,"smÃ¥l":1358,"Ġinst":1359,"ong":1360,"ay":1361,"ĠkjÃ¸pe":1362,"ĠmÃ¥tte":1363,"ikken":1364,"ivÃ¥":1365,"esten":1366,"ign":1367,"under":1368,"Ġoppd":1369,"Ġgjort":1370,"Ġverd":1371,"Ġforel":1372,"ĠsÃ¸k":1373,"Ġendr":1374,"Ġbestem":1375,"sdag":1376,"Ġfinner":1377,"Ġbrukes":1378,"ĠSam":1379,"Ġtrenger":1380,"jen":1381,"Ġmark":1382,"ĠsmÃ¥":1383,"Ġprosent":1384,"Ġpart":1385,"Ã¸m":1386,"Ġenkelt":1387,"Ġung":1388,"sf":1389,"mel":1390,"ffekt":1391,"by":1392,"nad":1393,"Ġtren":1394,"Ġresept":1395,"Ġmus":1396,"Ġalltid":1397,"sket":1398,"ĠBer":1399,"ĠâĢ":1400,"Ġtok":1401,"til":1402,"Ġrel":1403,"tern":1404,"dust":1405,"vendig":1406,"ĠEtter":1407,"Ġbok":1408,"Ġmener":1409,"ĠstÃ¥r":1410,"agra":1411,"sh":1412,"Ġ2017":1413,"Ġvet":1414,"Ġute":1415,"Ġansvar":1416,"Ġhistor":1417,"Ġkron":1418,"Ġligger":1419,"ighet":1420,"sv":1421,"Ġbehov":1422,"reg":1423,"ĠnÃ¸d":1424,"Jeg":1425,"Ã¦rlighet":1426,"app":1427,"gav":1428,"rev":1429,"uro":1430,"lys":1431,"Ġmar":1432,"vor":1433,"ĠCh":1434,"Ġplass":1435,"Ġresult":1436,"Ġfamil":1437,"Ġskjer":1438,"ĠNÃ¥r":1439,"klu":1440,"Ġslutt":1441,"Ġster":1442,"dene":1443,"bo":1444,"lad":1445,"sted":1446,"Ġ.":1447,"Ġhans":1448,"ank":1449,"ĠlÃ¸s":1450,"svar":1451,"Ġvide":1452,"Ã¸st":1453,"ĠMar":1454,"Ġfot":1455,"bruk":1456,"tet":1457,"ĠhÃ¥nd":1458,"ĠJo":1459,"Ġarbeids":1460,"Ġsna":1461,"sn":1462,"Ġmilli":1463,"Ġtekn":1464,"midler":1465,"ĠRe":1466,"Ġ12":1467,"gende":1468,"ER":1469,"enge":1470,"Ġvin":1471,"Ġ17":1472,"Ġleder":1473,"mann":1474,"bil":1475,"ĠSÃ¥":1476,"Ġsamfunn":1477,"ropp":1478,"Ġvoks":1479,"Ġte":1480,"Ġsvar":1481,"Ġgrupp":1482,"Ġtem":1483,"Ġporno":1484,"olle":1485,"Ġtiden":1486,"off":1487,"Ġsatt":1488,"ensjon":1489,"Ġenkel":1490,"Ġorganis":1491,"Den":1492,"Ġvanskelig":1493,"rykk":1494,"spl":1495,"ĠPro":1496,"Ġlangt":1497,"Ġfast":1498,"Ġsette":1499,"bar":1500,"Ġsos":1501,"Ġaldri":1502,"Ġskole":1503,"ĠÃ¸konom":1504,"nt":1505,"Ġfortsatt":1506,"Ġutt":1507,"Ġsyk":1508,"ore":1509,"ksjoner":1510,"Ġganger":1511,"Ġviagra":1512,"get":1513,"line":1514,"io":1515,"leder":1516,"ck":1517,"ĠmÃ¥n":1518,"Ġopplev":1519,"ĠVed":1520,"ĠfÃ¸lge":1521,"Ġkli":1522,"ĠlÃ¥":1523,"ip":1524,"Ġpr":1525,"led":1526,"Ġstort":1527,"Ġforskjellige":1528,"Ġsted":1529,"grunn":1530,"Ġnord":1531,"uler":1532,"Ġkultur":1533,"ĠHun":1534,"Ġsikker":1535,"ade":1536,"dustri":1537,"ĠfÃ¸":1538,"Ġdy":1539,"elles":1540,"grupp":1541,"Ġhatt":1542,"ow":1543,"ĠsÃ¦r":1544,"ei":1545,"Ġlaget":1546,"sett":1547,"Ġdri":1548,"gjeng":1549,"elv":1550,"Ġeng":1551,"revet":1552,"duksjon":1553,"fon":1554,"ĠkjÃ¦re":1555,"Ġbeny":1556,"rasjon":1557,"Ġlegge":1558,"tatt":1559,"Ġrekke":1560,"akk":1561,"bef":1562,"entene":1563,"Ġfleste":1564,"Ġkrav":1565,"Ġhus":1566,"Ġkunnskap":1567,"Ġmass":1568,"Ġdager":1569,"Ã¸te":1570,"vert":1571,"udd":1572,"spunkt":1573,"Ġ16":1574,"Ġkal":1575,"mark":1576,"Ġred":1577,"Ġneste":1578,"ĠsÃ¸r":1579,"ĠHar":1580,"Ġdi":1581,"ĠOpp":1582,"veg":1583,"Ġerfar":1584,"atet":1585,"ĠEl":1586,"Ġvirkelig":1587,"teg":1588,"menter":1589,"fÃ¸ring":1590,"Ġbrukt":1591,"Ġsje":1592,"ĠkjÃ¦rlighet":1593,"Ġdine":1594,"Ġvanlig":1595,"Ġtopp":1596,"ina":1597,"Ġch":1598,"Ġlite":1599,"Ġeffekt":1600,"oden":1601,"hag":1602,"ĠKj":1603,"Ġregist":1604,"Ġpres":1605,"Ġkort":1606,"Ġlett":1607,"ress":1608,"Ġspesielt":1609,"ice":1610,"Ġhal":1611,"Ġgjerne":1612,"Ġart":1613,"ingene":1614,"Ġ14":1615,"Ġsyke":1616,"Ġang":1617,"Ġliten":1618,"agt":1619,"aks":1620,"Ġheller":1621,"vere":1622,"end":1623,"ĠnÃ¸dvendig":1624,"ĠNorges":1625,"fÃ¸lg":1626,"ativ":1627,"ĠspÃ¸rsmÃ¥l":1628,"au":1629,"ball":1630,"ĠY":1631,"Ġinteres":1632,"syk":1633,"Ġvenn":1634,"Ġham":1635,"ĠEt":1636,"Ġ11":1637,"tale":1638,"Ã¥nd":1639,"ksomhet":1640,"Ġtror":1641,"tre":1642,"Ġca":1643,"rukt":1644,"Ġstra":1645,"Ġferdig":1646,"ĠdÃ¸":1647,"Ġgrad":1648,"danning":1649,"berg":1650,"Ġkommune":1651,"Ġpos":1652,"Ġju":1653,"Ġallerede":1654,"Ġmang":1655,"Ġditt":1656,"ĠEr":1657,"Ġkroner":1658,"omrÃ¥":1659,"ĠmiljÃ¸":1660,"unnet":1661,"mene":1662,"Ġprogram":1663,"lÃ¥":1664,"orde":1665,"Ġside":1666,"ĠvÃ¥rt":1667,"Ġkar":1668,"En":1669,"Ġett":1670,"Ġunn":1671,"ĠNÃ¥":1672,"Ġ/":1673,"Ġblogg":1674,"ĠDenne":1675,"Ġforv":1676,"holder":1677,"lene":1678,"rik":1679,"yndig":1680,"Ġbas":1681,"ennes":1682,"SA":1683,"rosjekt":1684,"meld":1685,"iale":1686,"Ġbetyr":1687,"bud":1688,"Ġkonkur":1689,"Ġkvalitet":1690,"sfor":1691,"Ġgamle":1692,"kluder":1693,"ĠInn":1694,"Ġbehandling":1695,"Ġgitt":1696,"Ġrask":1697,"ct":1698,"Ġfeil":1699,"Ġvideo":1700,"Ġbetyd":1701,"lin":1702,"orer":1703,"Ġstand":1704,"Ġret":1705,"ral":1706,"Ġholde":1707,"Ġsenere":1708,"ment":1709,"urs":1710,"Ġungdom":1711,"Ã¸dt":1712,"gjer":1713,"likt":1714,"Ġ30":1715,"ĠAv":1716,"pr":1717,"Ġfem":1718,"obil":1719,"Ġhold":1720,"lagt":1721,"ĠBar":1722,"ĠbesÃ¸k":1723,"ĠstÃ¸rste":1724,"uss":1725,"Ġtilgjeng":1726,"gt":1727,"Ã¥let":1728,"fall":1729,"Ġriktig":1730,"Ġnasjon":1731,"ĠÃ¥rs":1732,"Â».":1733,"Ġutfordr":1734,"ats":1735,"Ġinternasjon":1736,"Ġlagt":1737,"Ġminst":1738,"Ġkropp":1739,"ommun":1740,"terer":1741,"Ġbort":1742,"Ġ2016":1743,"Ġ13":1744,"ĠSom":1745,"Ġlenge":1746,"ĠÃ¥rene":1747,"Ġbek":1748,"Ġ199":1749,"ĠkjÃ¸":1750,"Ġnettst":1751,"fÃ¸rer":1752,"Ġhjelpe":1753,"anen":1754,"Ġtry":1755,"Ġetab":1756,"Ġarr":1757,"Ġarbeidet":1758,"Ġrep":1759,"Ġfire":1760,"Ġkor":1761,"Ġkr":1762,"ummer":1763,"sport":1764,"ike":1765,"Ġlivet":1766,"uelle":1767,"ivers":1768,"Ġkomp":1769,"drett":1770,"ĠHvis":1771,"fÃ¸lge":1772,"dal":1773,"Ġfok":1774,"Ġveg":1775,"ori":1776,"Ġhenne":1777,"Ġnorge":1778,"lingen":1779,"Ġfjer":1780,"ningene":1781,"ĠstÃ¸tte":1782,"kjent":1783,"lÃ¸p":1784,"Ġonline":1785,"Ġsommer":1786,"kv":1787,"tallet":1788,"Ã©":1789,"andre":1790,"ook":1791,"Ġganske":1792,"rige":1793,"ennende":1794,"Ġdeler":1795,"Ġhot":1796,"sam":1797,"Ġdire":1798,"ĠÂ·":1799,"Ġkny":1800,"kku":1801,"Ġsol":1802,"Ġproblem":1803,"Ã¸rt":1804,"iller":1805,"Ġomf":1806,"ons":1807,"ansen":1808,"anser":1809,"ĠdÃ¥r":1810,"Ġtiltak":1811,"ĠrÃ¥d":1812,"part":1813,"Ġthe":1814,"Ġnev":1815,"Ġansatte":1816,"Ġfj":1817,"Ġnesten":1818,"Ġaktivitet":1819,"Ġpersoner":1820,"ftet":1821,"Ġfre":1822,"Ġforts":1823,"ialis":1824,"Ġkost":1825,"Ġso":1826,"Ġdagen":1827,"Ġmott":1828,"Ġlav":1829,"Ãĺ":1830,"Ġbidra":1831,"petanse":1832,"afil":1833,"ĠundersÃ¸k":1834,"irk":1835,"ĠOm":1836,"Ġfaktisk":1837,"utvik":1838,"10":1839,"ĠforstÃ¥":1840,"midlertid":1841,"ce":1842,"Ġsc":1843,"jekter":1844,"Ġspill":1845,"Ġ%":1846,"Ġam":1847,"St":1848,"ĠÃ¸kt":1849,"Ġ,":1850,"ĠÃ¸v":1851,"alte":1852,"Ġko":1853,"Ġenda":1854,"Ã¸se":1855,"pa":1856,"Ġdersom":1857,"ating":1858,"bet":1859,"fin":1860,"Ġegne":1861,"Ġener":1862,"Ġgre":1863,"aff":1864,"Ġfelles":1865,"Ġstem":1866,"Ġapp":1867,"liv":1868,"Ġanbef":1869,"Ġekstra":1870,"Ġkn":1871,"laget":1872,"ĠsÃ¸ke":1873,"Ġkraft":1874,"Ġtilbud":1875,"Ġekte":1876,"âĢ¦":1877,"Ġdok":1878,"Ġmet":1879,"Ġhav":1880,"Ãħ":1881,"Ġlage":1882,"Ġbyg":1883,"ikt":1884,"tering":1885,"Ġint":1886,"Ġ2015":1887,"amp":1888,"Ġoppf":1889,"Ġpub":1890,"Ġter":1891,"heim":1892,"Ġsitu":1893,"Ġoppr":1894,"uer":1895,"Ġgjorde":1896,"sÃ¸":1897,"ologi":1898,"Ġbolig":1899,"Ġsty":1900,"aten":1901,"ĠÃ¥ret":1902,"Ġlese":1903,"uts":1904,"Ġdamer":1905,"Ġpas":1906,"ond":1907,"Ġsing":1908,"ĠKrist":1909,"elefon":1910,"esp":1911,"ppe":1912,"Ġvei":1913,"isik":1914,"ou":1915,"Ġend":1916,"19":1917,"radisjon":1918,"Ġstar":1919,"linger":1920,"Ġkap":1921,"Ġutvalg":1922,"iljÃ¸":1923,"Ġstedet":1924,"ĠhÃ¸yere":1925,"IN":1926,"iendom":1927,"EN":1928,"Ġrapp":1929,"ĠNorsk":1930,"Ġpriv":1931,"Ġvekt":1932,"Ġses":1933,"Ġleng":1934,"Ġgjenopp":1935,"Ġimidlertid":1936,"Ġsikre":1937,"enes":1938,"Ġmillioner":1939,"Ġmod":1940,"Ġkunst":1941,"Ġsamtidig":1942,"mere":1943,"skudd":1944,"ue":1945,"ĠLe":1946,"vice":1947,"Ġbilde":1948,"Ġbel":1949,"kkurat":1950,"Ġslike":1951,"Ġpop":1952,"Ġseks":1953,"Ġtimer":1954,"Ġforn":1955,"Ġselskap":1956,"Ġegentlig":1957,"Ġutenfor":1958,"Ġenkelte":1959,"Ġspille":1960,"Ġinkluder":1961,"Ġvise":1962,"ino":1963,"aller":1964,"vÃ¦r":1965,"Ġspiller":1966,"Ġlegger":1967,"rum":1968,"tr":1969,"Ġlikevel":1970,"Ġstad":1971,"ane":1972,"Ġ25":1973,"ĠlÃ¦re":1974,"Ġutro":1975,"Ġsynes":1976,"Ġdisk":1977,"itter":1978,"ĠJoh":1979,"Ġoslo":1980,"ĠMan":1981,"Ġsalg":1982,"Ġkjem":1983,"Ġhjemme":1984,"rÃ¥k":1985,"Ġkart":1986,"urer":1987,"urt":1988,"Ġ100":1989,"Ġperi":1990,"Ġinnhold":1991,"Ġunge":1992,"Ġlandet":1993,"ktor":1994,"ĠaltsÃ¥":1995,"Ġdrift":1996,"Ġmassasje":1997,"iene":1998,"Ġoppdater":1999,"Ġdermed":2000,"ĠAS":2001,"ben":2002,"Ġalder":2003,"Ġhverandre":2004,"Ġjord":2005,"Ġspennende":2006,"Ġsann":2007,"ÂŃ":2008,"Ġbut":2009,"Ġevent":2010,"Ġhens":2011,"lever":2012,"ĠsÃ¦rlig":2013,"Ġdom":2014,"Ġtilgjengelig":2015,"gÃ¥r":2016,"Ġbry":2017,"atene":2018,"Ġforteller":2019,"ink":2020,"ym":2021,"kning":2022,"Ġ50":2023,"Ġhalv":2024,"Ġmine":2025,"De":2026,"ata":2027,"Ġkontroll":2028,"ĠArbeid":2029,"oler":2030,"Ġverdens":2031,"Ã¥ret":2032,"stit":2033,"Ġbef":2034,"Ġhy":2035,"vid":2036,"Ġeldre":2037,"minist":2038,"Ġpenger":2039,"Ġfunksjon":2040,"Ġfokus":2041,"Ġforet":2042,"Ġtan":2043,"Ġmobil":2044,"Ġpri":2045,"201":2046,"age":2047,"Ġrisik":2048,"Ġsikkerhet":2049,"Ġvenner":2050,"Ġjan":2051,"Ġcialis":2052,"ation":2053,"ĠstÃ¥":2054,"Ġinnenfor":2055,"Ġjun":2056,"Ġant":2057,"Ġeget":2058,"Ġbud":2059,"Ġ2014":2060,"Ġind":2061,"holde":2062,"ĠHva":2063,"Ġkvinne":2064,"Ġbegge":2065,"her":2066,"aly":2067,"Ġetabler":2068,"gaver":2069,"Ġutgang":2070,"one":2071,"hengig":2072,"Ġklub":2073,"deling":2074,"ĠAlle":2075,"ĠBru":2076,"Ġdyr":2077,"Ġstartet":2078,"elsene":2079,"nn":2080,"indelse":2081,"ĠgÃ¥tt":2082,"Ġfol":2083,"Ġoppl":2084,"spill":2085,"Ġklart":2086,"rid":2087,"Ġram":2088,"Ġnavn":2089,"ersom":2090,"ĠomrÃ¥det":2091,"ĠSÃ¸r":2092,"Ġproduksjon":2093,"Ġhennes":2094,"ĠÃ¥pen":2095,"sjett":2096,"ĠIkke":2097,"Ġste":2098,"vit":2099,"fra":2100,"usen":2101,"up":2102,"Ġis":2103,"vem":2104,"ĠOr":2105,"Ġdatings":2106,"entlige":2107,"jenester":2108,"kkes":2109,"Ġpopul":2110,"skrift":2111,"ĠkjÃ¸r":2112,"ator":2113,"ies":2114,"fte":2115,"atisk":2116,"kon":2117,"ĠNoen":2118,"Ġtap":2119,"Ġtra":2120,"kont":2121,"Ġfantast":2122,"Ġol":2123,"Ġsykdom":2124,"lemer":2125,"ĠprÃ¸ve":2126,"isin":2127,"Ġkveld":2128,"Ġele":2129,"Ġeneste":2130,"ĠBe":2131,"elses":2132,"Ġfunnet":2133,"ĠKan":2134,"Ġkvinn":2135,"Ġsaken":2136,"Ġmusikk":2137,"Ġforbindelse":2138,"rand":2139,"Ġdra":2140,"ht":2141,"Ġregjer":2142,"Ġsak":2143,"Ġtidlig":2144,"lede":2145,"Ġknyttet":2146,"orten":2147,"Ġskriver":2148,"Ġkil":2149,"30":2150,"Ġak":2151,"Ġhjer":2152,"ves":2153,"Ġbegynte":2154,"ĠgjÃ¸res":2155,"Ġhe":2156,"avor":2157,"ĠKv":2158,"ikasjon":2159,"fe":2160,"Ġkamp":2161,"Ġbur":2162,"siden":2163,"Ġbestil":2164,"Ġbarna":2165,"Nor":2166,"Ġhu":2167,"Ġbor":2168,"ĠfÃ¸lger":2169,"dige":2170,"Ġtak":2171,"sak":2172,"Ġvelge":2173,"Ġkir":2174,"stÃ¥r":2175,"mende":2176,"OR":2177,"Ġmarked":2178,"Ġjobber":2179,"rar":2180,"Ġutstyr":2181,"Ġbarnehag":2182,"Ġmai":2183,"raks":2184,"giv":2185,"uten":2186,"Ġtjenester":2187,"Ġtradisjon":2188,"Ġbygge":2189,"ĠGud":2190,"ĠkjÃ¸nn":2191,"iste":2192,"Ġuke":2193,"fÃ¸res":2194,"Â»,":2195,"Ġpass":2196,"likk":2197,"ĠnivÃ¥":2198,"rifter":2199,"Ġposit":2200,"Ġhund":2201,"plass":2202,"Ġoper":2203,"Ġimp":2204,"arer":2205,"lott":2206,"Etter":2207,"ative":2208,"beide":2209,"Ġinsp":2210,"Ġid":2211,"Ġteg":2212,"ansk":2213,"jord":2214,"ĠfÃ¸dt":2215,"akter":2216,"Ġmitt":2217,"Ġrette":2218,"oto":2219,"ĠhÃ¸yt":2220,"ka":2221,"ĠmÃ¸ter":2222,"Ġakkurat":2223,"Ġokt":2224,"essen":2225,"ansett":2226,"sta":2227,"Ġob":2228,"ĠNy":2229,"ensen":2230,"Ġprof":2231,"ask":2232,"yng":2233,"Ġpsyk":2234,"ĠlÃ¸nn":2235,"Ġveien":2236,"Ġtru":2237,"post":2238,"Ġaut":2239,"Ġliker":2240,"Ġab":2241,"kkel":2242,"Ġtot":2243,"Ġkons":2244,"Ġim":2245,"ĠkjÃ¸re":2246,"Ġutvikle":2247,"Ġpoeng":2248,"Ã¸v":2249,"Ġkommet":2250,"Ġmeld":2251,"obb":2252,"PÃ¥":2253,"Ġskape":2254,"ument":2255,"!!":2256,"lysninger":2257,"Ġkompetanse":2258,"isering":2259,"Ġbyen":2260,"Ġminutter":2261,"Dette":2262,"Ġantall":2263,"fag":2264,"Ġsende":2265,"Ġsep":2266,"arbeidet":2267,"Ġskjed":2268,"Ġforh":2269,"Ġlo":2270,"Ġprodukt":2271,"int":2272,"onser":2273,"avnet":2274,"Ġvia":2275,"ĠmÃ¥ned":2276,"ĠTh":2277,"anlegg":2278,"Ġforskning":2279,"isert":2280,"Ġfjor":2281,"Ġholder":2282,"Men":2283,"Ġ2013":2284,"raksis":2285,"Ġhvilke":2286,"Ġga":2287,"uelt":2288,"ĠEuro":2289,"Ġfavor":2290,"pass":2291,"Ġmater":2292,"ĠpÃ¥vir":2293,"ĠavgjÃ¸r":2294,"ĠReg":2295,"Ġbegynner":2296,"melig":2297,"Ġlenger":2298,"ĠlÃ¦r":2299,"ĠSelv":2300,"stene":2301,"ferd":2302,"Ġprosjektet":2303,"ĠUnder":2304,"Ġbehand":2305,"Ġgar":2306,"Ġtenke":2307,"Ġfisk":2308,"merik":2309,"rens":2310,"but":2311,"eren":2312,"menn":2313,"ĠUSA":2314,"senter":2315,"Ġskolen":2316,"abil":2317,"ĠDag":2318,"Ġopprett":2319,"of":2320,"fritt":2321,"Ġskrive":2322,"resent":2323,"otek":2324,"ĠSer":2325,"ĠThe":2326,"stemet":2327,"esjon":2328,"vern":2329,"van":2330,"Ġgjenopprett":2331,"ĠdÃ¥rlig":2332,"gave":2333,"Ġregion":2334,"Ġfilm":2335,"ader":2336,"Ġjente":2337,"Ġdata":2338,"ild":2339,"gift":2340,"Ġtred":2341,"bin":2342,"ĠOl":2343,"uar":2344,"Ġkri":2345,"12":2346,"Ġlin":2347,"Ġfall":2348,"Ġmedlemmer":2349,"Ġinns":2350,"fold":2351,"pÃ¥":2352,"ktÃ¸y":2353,"lÃ¸s":2354,"Ġuker":2355,"Ġutrolig":2356,"ĠslÃ¥":2357,"ĠdÃ¸d":2358,"dus":2359,"bok":2360,"man":2361,"Ġtv":2362,"rafikk":2363,"Ġdirekte":2364,"Ġdig":2365,"jef":2366,"Ġforkl":2367,"Ġelekt":2368,"Ġviktigste":2369,"ew":2370,"snitt":2371,"Ġbenytte":2372,"partem":2373,"ars":2374,"Ġmyndig":2375,"ta":2376,"olit":2377,"nÃ¥":2378,"Ġslag":2379,"giver":2380,"Ġluft":2381,"anter":2382,"mes":2383,"ĠGr":2384,"ĠGj":2385,"Ġhandler":2386,"Ġstadig":2387,"rere":2388,"ĠMo":2389,"Ġalvor":2390,"ca":2391,"Ġtest":2392,"ager":2393,"ĠnÃ¦rings":2394,"Ġutdanning":2395,"Ġkjente":2396,"ikkert":2397,"Ġled":2398,"Ġfint":2399,"ĠTV":2400,"Ġskyl":2401,"isere":2402,"ĠâĢĿ":2403,"Ġbeveg":2404,"ĠâĢľ":2405,"Ġuts":2406,"Ġvoksne":2407,"eldig":2408,"ĠBergen":2409,"ograf":2410,"Ġtema":2411,"Ġfordel":2412,"Ġindustri":2413,"ĠSex":2414,"Ġdre":2415,"15":2416,"Ġtilbyr":2417,"ĠÃ©":2418,"Ġsh":2419,"Ġavsl":2420,"ĠDisse":2421,"enne":2422,"Ġerot":2423,"landet":2424,"Ġhotell":2425,"ĠMange":2426,"ĠHa":2427,"kret":2428,"siktig":2429,"lipp":2430,"ĠBil":2431,"denafil":2432,"lende":2433,"Ġapr":2434,"utvalg":2435,"Ġbakgrunn":2436,"ĠÃ¸ke":2437,"Ã¸rdag":2438,"ĠFÃ¸r":2439,"Ġ&":2440,"Ġress":2441,"Ġ2012":2442,"Ġutgangspunkt":2443,"Ġaltern":2444,"Ġoppdag":2445,"Ġtrening":2446,"gjÃ¸re":2447,"Ġtilgang":2448,"enten":2449,"essig":2450,"ĠhÃ¸":2451,"ĠÃ©n":2452,"ĠLes":2453,"Ġnatt":2454,"eks":2455,"Ġtall":2456,"Ġei":2457,"Ġklokker":2458,"Ġtrygg":2459,"ĠfÃ¸lgende":2460,"nere":2461,"ĠStat":2462,"ital":2463,"reng":2464,"Ġreise":2465,"NÃ¥r":2466,"Ġaug":2467,"Ġann":2468,"verket":2469,"verige":2470,"\".":2471,"Ġidrett":2472,"ĠKar":2473,"Ġ[":2474,"Ġ40":2475,"18":2476,"Ġgl":2477,"Ġsteder":2478,"dere":2479,"Ġide":2480,"Ġoppmer":2481,"iversitet":2482,"Ġ22":2483,"Ġnem":2484,"Ġus":2485,"Ġkrit":2486,"ĠÃ¥pne":2487,"Ġenergi":2488,"Ġkjenner":2489,"ins":2490,"aling":2491,"Ġeier":2492,"rert":2493,"Ġarrang":2494,"Ã¸ren":2495,"bart":2496,"Ġ2018":2497,"Ġnov":2498,"kraft":2499,"50":2500,"Ġregel":2501,"Ġkrig":2502,"Ġsjel":2503,"rol":2504,"Ġanlegg":2505,"rond":2506,"delser":2507,"Ġbarnet":2508,"Ġjul":2509,"Ġeksp":2510,"oret":2511,"Ġlys":2512,"Ġgammel":2513,"Ġnorm":2514,"skole":2515,"Ġnaturlig":2516,"ĠfornÃ¸y":2517,"ĠDersom":2518,"Ġskje":2519,"Ġ24":2520,"ĠX":2521,"ydelig":2522,"ettere":2523,"rans":2524,"Ġvold":2525,"Ġhvem":2526,"Ġfeb":2527,"11":2528,"ĠlÃ¸":2529,"igheter":2530,"ĠZ":2531,"Ġlik":2532,"Ġprakt":2533,"vare":2534,"Ġkonkurran":2535,"skaper":2536,"Ġforf":2537,"Ġbasert":2538,"nev":2539,"kjÃ¸p":2540,"ĠgjennomfÃ¸rt":2541,"ĠMa":2542,"ĠhÃ¥per":2543,"ĠtÃ¸r":2544,"spro":2545,"Ġinstit":2546,"person":2547,"rÃ¥d":2548,"Ġstre":2549,"ativt":2550,"co":2551,"Ġhev":2552,"itte":2553,"bund":2554,"spekt":2555,"Ġsystem":2556,"ĠomrÃ¥der":2557,"ĠSy":2558,"isen":2559,"iker":2560,"Ġpasser":2561,"Ġavt":2562,"Ġutviklet":2563,"Ã¸ndag":2564,"huset":2565,"ĠvÃ¦r":2566,"unst":2567,"Ġtran":2568,"Al":2569,"our":2570,"Ġengas":2571,"Ġmel":2572,"Ġinnlegget":2573,"ja":2574,"ongen":2575,"utvikling":2576,"iks":2577,"ĠPl":2578,"jert":2579,"Ġraskt":2580,"visjon":2581,"Ġdagens":2582,"ĠRo":2583,"Ġlokale":2584,"Ġmoder":2585,"Ġba":2586,"Ġsosiale":2587,"Ġkry":2588,"uell":2589,"hÃ¸r":2590,"bu":2591,"egg":2592,"orter":2593,"Ġpraksis":2594,"Ġlokal":2595,"ateg":2596,"Ġjuni":2597,"Ġnettsteder":2598,"Ġnr":2599,"Ġinneholder":2600,"ĠÃ¸nsket":2601,"Ġforslag":2602,"ju":2603,"ĠhÃ¸re":2604,"varer":2605,"Ġerfaring":2606,"Ġbedrift":2607,"Ġstopp":2608,"Ġx":2609,"Ġfunger":2610,"Ġoppdrag":2611,"Ġ198":2612,"skorte":2613,"Ġfest":2614,"Ġ:)":2615,"hetene":2616,"Ġfine":2617,"Ġviste":2618,"qu":2619,"Ġskrevet":2620,"ĠTrond":2621,"Ġproblemer":2622,"ante":2623,"Ġsetter":2624,"asino":2625,"Ġjobbe":2626,"aceb":2627,"Ã¸ke":2628,"za":2629,"iss":2630,"Ġdate":2631,"mu":2632,"Ġelev":2633,"Ġ21":2634,"ĠKjÃ¸p":2635,"ĠFra":2636,"Ġkroppen":2637,"isp":2638,"Ġ2011":2639,"visning":2640,"ET":2641,"Ġtredje":2642,"Ġholdt":2643,"asjons":2644,"Ġplanlegg":2645,"lekt":2646,"Ġgrav":2647,"Ġchat":2648,"Ġmuligheter":2649,"Ġviktige":2650,"nader":2651,"Ġoversikt":2652,"ĠVest":2653,"Ġfores":2654,"Ġnemlig":2655,"Ġfjell":2656,"Ġprofil":2657,"Ġredu":2658,"leve":2659,"Ġtross":2660,"Ġvelger":2661,"stru":2662,"ald":2663,"Ġlege":2664,"ĠlÃ¦rer":2665,"Ġmasse":2666,"Ġsannsyn":2667,"Ġvite":2668,"ming":2669,"fl":2670,"oren":2671,"ĠHÃ¸y":2672,"ĠAndre":2673,"unt":2674,"Ġtips":2675,"tekt":2676,"Ġprosjekter":2677,"ĠTor":2678,"late":2679,"Ġadminist":2680,"Ġforbed":2681,"Ã¥ende":2682,"Ġpot":2683,"vende":2684,"ĠnÃ¸y":2685,"Ġvant":2686,"Ġlyst":2687,"Ã¥rene":2688,"Ġkommunen":2689,"skolen":2690,"Ġsikkert":2691,"blad":2692,"agen":2693,"ilt":2694,"Ġsingle":2695,"serer":2696,"Ġbevis":2697,"Du":2698,"ksjonen":2699,"Ġfys":2700,"ko":2701,"Ġfas":2702,"ssy":2703,"middel":2704,"sering":2705,"ĠstrÃ¸m":2706,"Ġeiendom":2707,"Ġaks":2708,"Ġslett":2709,"Ġmuligheten":2710,"Ġvinter":2711,"ĠmÃ¥ten":2712,"Ġregn":2713,"Ġ000":2714,"Ġoffentlig":2715,"odet":2716,"Ġforeldre":2717,"AN":2718,"ĠforsÃ¸k":2719,"Ġbred":2720,"tember":2721,"Ġsterk":2722,"Ġfotball":2723,"vordan":2724,"Ġflott":2725,"ĠsÃ¸knad":2726,"drag":2727,"ĠBo":2728,"ST":2729,"ĠAt":2730,"Ġderetter":2731,"sler":2732,"ack":2733,"fÃ¸lgelig":2734,"stid":2735,"Ġinneb":2736,"otte":2737,"delt":2738,"Ġjanuar":2739,"ĠdÃ¸de":2740,"Ġvedtak":2741,"avanger":2742,"Ġhvorfor":2743,"Ġgutt":2744,"Ġglad":2745,"Ġmy":2746,"Ġfinans":2747,"iali":2748,"Ġvalgt":2749,"ah":2750,"bare":2751,"ĠDerfor":2752,"partementet":2753,"Ġdeltak":2754,"Ġpa":2755,"ete":2756,"Ġmorgen":2757,"vÃ¥":2758,"ĠSol":2759,"Ġforan":2760,"Ġendringer":2761,"ile":2762,"Ġski":2763,"dres":2764,"ĠmÃ¥neder":2765,"tiden":2766,"Ġdess":2767,"Ġtill":2768,"ĠnÃ¦rmere":2769,"acebook":2770,"riks":2771,"Ġkrever":2772,"rader":2773,"ium":2774,"Ġfamilie":2775,"Ġka":2776,"Ġprodukter":2777,"Ġoppg":2778,"Ġsamlet":2779,"Ġopptatt":2780,"istri":2781,"sep":2782,"Ġregistrer":2783,"ĠhÃ¸yre":2784,"com":2785,"ĠfÃ¸re":2786,"jema":2787,"jÃ¸rn":2788,"yret":2789,"verre":2790,"ĠStor":2791,"vember":2792,"Ġvirksomhet":2793,"ĠIs":2794,"Ġven":2795,"ikring":2796,"Ġvari":2797,"ober":2798,"Ġja":2799,"Ġem":2800,"Ġes":2801,"ĠKom":2802,"ologisk":2803,"ĠEng":2804,"ĠTr":2805,"veien":2806,"iz":2807,"Ġdaglig":2808,"ppet":2809,"Ġoms":2810,"ĠfÃ¸ler":2811,"Ġinternasjonale":2812,"mens":2813,"Ġhelst":2814,"Ġtreff":2815,"forsk":2816,"Ġbi":2817,"erte":2818,"ĠSte":2819,"ĠsprÃ¥k":2820,"Ã¥t":2821,"sd":2822,"Ġ2010":2823,"dagen":2824,"ĠFinn":2825,"batt":2826,"eltet":2827,"Ġinteress":2828,"uren":2829,"Ġreseptfritt":2830,"kant":2831,"Ġ=":2832,"ĠunngÃ¥":2833,"ytt":2834,"sc":2835,"ĠkjÃ¦reste":2836,"oder":2837,"ung":2838,"unde":2839,"mÃ¥l":2840,"Ġamerik":2841,"Ġhensyn":2842,"Ġytter":2843,"Ġhistorie":2844,"stendig":2845,"In":2846,"jed":2847,"ern":2848,"Ġmis":2849,"varet":2850,"Ġpasi":2851,"ĠoppnÃ¥":2852,"inen":2853,"Ġtydelig":2854,"ham":2855,"ity":2856,"nene":2857,"ĠbestÃ¥r":2858,"Ġfry":2859,"Ġren":2860,"ĠprÃ¸v":2861,"Ġsku":2862,"Ġtelefon":2863,"Ġledd":2864,"Ġburde":2865,"enning":2866,"livet":2867,"rene":2868,"bas":2869,"ĠIntern":2870,"Og":2871,"Ġdele":2872,"ĠVer":2873,"Ġ23":2874,"elsk":2875,"Ġpresen":2876,"ember":2877,"Ġvist":2878,"14":2879,"Ġsentral":2880,"Ġverdi":2881,"Ġdatingside":2882,"Ġlyd":2883,"Ġsky":2884,"ĠlÃ¸rdag":2885,"Ġuansett":2886,"Ġklare":2887,"RK":2888,"Ġvek":2889,"\",":2890,"âĢĻ":2891,"vand":2892,"king":2893,"vin":2894,"Ġsider":2895,"somt":2896,"ellen":2897,"stat":2898,"Ġhin":2899,"mod":2900,"Ġstyrke":2901,"Ġsnart":2902,"plassen":2903,"Ġopprinn":2904,"Ġsto":2905,"Ġlegges":2906,"Ġselskapet":2907,"ĠFoto":2908,"Ġpu":2909,"ĠEU":2910,"vann":2911,"16":2912,"aner":2913,"foren":2914,"Ġdesign":2915,"Ġdetal":2916,"ĠsjÃ¸":2917,"amer":2918,"ĠKommun":2919,"behandling":2920,"ĠMer":2921,"ĠÃĺst":2922,"ple":2923,"serte":2924,"Ġhjelper":2925,"Ġorgan":2926,"usjoner":2927,"Ġgav":2928,"ĠKont":2929,"way":2930,"Ġhenhold":2931,"Ġsitter":2932,"Ġident":2933,"Ġsammenlig":2934,"Ġtilsvar":2935,"Ġmeter":2936,"Ġkunder":2937,"ĠAlt":2938,"ĠPer":2939,"ktige":2940,"setning":2941,"Ġfantastisk":2942,"ĠÃ¥rets":2943,"Ġstille":2944,"Ġbestille":2945,"ĠprÃ¸ver":2946,"Ġseptember":2947,"ĠHelse":2948,"Ġkurs":2949,"istikk":2950,"Ġnettopp":2951,"hver":2952,"fo":2953,"Ġforskjell":2954,"EL":2955,"fjord":2956,"Ġnettet":2957,"17":2958,"ĠLand":2959,"ĠAd":2960,"Ġhvilken":2961,"ĠKl":2962,"ses":2963,"Ġbrans":2964,"Ġ197":2965,"Ġenten":2966,"side":2967,"organis":2968,"Ġhygg":2969,"arm":2970,"Ġuav":2971,"Ġskog":2972,"orm":2973,"Ġmidler":2974,"Her":2975,"Ġkonf":2976,"Ġlettere":2977,"iÃ¸r":2978,"Ġperf":2979,"Ġgenerisk":2980,"Ã¸tet":2981,"Ġblod":2982,"nte":2983,"Ġmist":2984,"kene":2985,"ĠstÃ¸rr":2986,"ĠsÃ¸ndag":2987,"bruker":2988,"Ġsammenheng":2989,"rivil":2990,"ĠNett":2991,"Ġyng":2992,"ĠhÃ¸st":2993,"ĠOver":2994,"Ġbrukere":2995,"Ġsist":2996,"Ġkombin":2997,"Ġskikk":2998,"Ġneg":2999,"Ġslutten":3000,"Ġleve":3001,"rapp":3002,"Ġgangen":3003,"ĠifÃ¸lge":3004,"Ġtilby":3005,"ĠblÃ¥":3006,"ĠlÃ¸sninger":3007,"ĠfÃ¸rer":3008,"Ġalene":3009,"Ġpolitiet":3010,"Ġbygget":3011,"Ġref":3012,"Ġmerke":3013,"Ġth":3014,"ĠselvfÃ¸lgelig":3015,"hai":3016,"full":3017,"Ġmask":3018,"yen":3019,"Ġing":3020,"Ġsil":3021,"Ġbefolk":3022,"ith":3023,"apir":3024,"Ġoffentlige":3025,"ĠBr":3026,"Ġkommunikasjon":3027,"nett":3028,"ĠRom":3029,"bb":3030,"Ġbetale":3031,"ĠinnebÃ¦rer":3032,"ved":3033,"Ġapril":3034,"ĠSh":3035,"Ġgodkj":3036,"Ġfart":3037,"utte":3038,"Ġdesember":3039,"rosjektet":3040,"Ġvurdering":3041,"inget":3042,"deles":3043,"Ġbidrar":3044,"Ġavtale":3045,"Ġmars":3046,"Ġbilen":3047,"Ġjev":3048,"gene":3049,"ilig":3050,"Ġyr":3051,"Ġresultater":3052,"ott":3053,"Ġesc":3054,"Ġmeget":3055,"ielle":3056,"ĠPor":3057,"tok":3058,"Ġstu":3059,"Ġarbeider":3060,"uft":3061,"nende":3062,"Ġhom":3063,"erer":3064,"oc":3065,"ĠPar":3066,"ĠTrondheim":3067,"Ġbildet":3068,"delsen":3069,"Ġgrunnlag":3070,"Ã¸t":3071,"forhold":3072,"ato":3073,"Ġsnakke":3074,"Ġklass":3075,"Ġmon":3076,"ikke":3077,"Ġspillet":3078,"Ġ60":3079,"Ġnovember":3080,"13":3081,"Ġfungerer":3082,"aen":3083,"Ġoppgaver":3084,"200":3085,"Ġweb":3086,"Ġprivat":3087,"Ġ2009":3088,"kort":3089,"Ġhud":3090,"ĠdrÃ¸m":3091,"Ġsven":3092,"Ġbegrens":3093,"Ġbudsjett":3094,"allen":3095,"ĠMat":3096,"Ġplasser":3097,"Ġbrann":3098,"Ġvare":3099,"Mer":3100,"Ġdelta":3101,"ĠmÃ¸r":3102,"Ġtu":3103,"Ġdefin":3104,"Ġtom":3105,"dann":3106,"Ġtjeneste":3107,"Ġskjul":3108,"affe":3109,"Ġatt":3110,"Ġfe":3111,"Ġrek":3112,"jenesten":3113,"enting":3114,"ĠTe":3115,"Ġsendt":3116,"aland":3117,"repet":3118,"NÃ¥":3119,"Ġvurdere":3120,"Ġrelev":3121,"ĠhÃ¸r":3122,"ĠopplÃ¦ring":3123,"drene":3124,"ĠNorske":3125,"Ġstri":3126,"Ġturen":3127,"avt":3128,"Ġolje":3129,"Ġklokke":3130,"Ġforut":3131,"Ġmarkeds":3132,"rives":3133,"Ġendelig":3134,"Med":3135,"fort":3136,"fly":3137,"Ġanaly":3138,"Ġopplysninger":3139,"mat":3140,"Ġlille":3141,"Ġgjeld":3142,"ĠverktÃ¸y":3143,"Ġ...":3144,"ĠSel":3145,"Ã¸rene":3146,"arder":3147,"kkelig":3148,"Ġban":3149,"ĠGjennom":3150,"SÃ¥":3151,"Ġtilk":3152,"ekte":3153,"ĠQ":3154,"ĠfornÃ¸yd":3155,"Ġbetydning":3156,"ach":3157,"Ġtenker":3158,"Ġklarer":3159,"Ġvok":3160,"Ġruss":3161,"Ġbereg":3162,"len":3163,"Ġvest":3164,"Da":3165,"Ġvirksom":3166,"ekter":3167,"Ġkampen":3168,"Â«":3169,"Ġinterv":3170,"ĠÐ":3171,"ĠTa":3172,"eland":3173,"Ġvers":3174,"Ġkirke":3175,"Ġperioden":3176,"ledning":3177,"jelp":3178,"Ġsaker":3179,"Ġbord":3180,"Ġstraff":3181,"Ġartikk":3182,"stud":3183,"Ġoktober":3184,"Ġtakk":3185,"egge":3186,"Ġtransport":3187,"ĠDan":3188,"pris":3189,"Ġkolle":3190,"ĠHol":3191,"mÃ¥":3192,"Ġmand":3193,"Ġutviklingen":3194,"ĠhÃ¸ye":3195,"apotek":3196,"smid":3197,"Ġtilfeller":3198,"ĠÃ¸ker":3199,"ĠTrom":3200,"ĠsÃ¸nn":3201,"ww":3202,"Ġark":3203,"Ġresten":3204,"ĠGo":3205,"spros":3206,"asjonene":3207,"Ġkund":3208,"ĠGod":3209,"Ġprodus":3210,"insi":3211,"ruar":3212,"Ġlar":3213,"Ġforrige":3214,"ĠSu":3215,"Ġvarme":3216,"AR":3217,"enfor":3218,"sty":3219,"Ġaugust":3220,"spil":3221,"Ġinteresse":3222,"Ã¸nne":3223,"lant":3224,"Ã¸nner":3225,"ĠTy":3226,"br":3227,"ikere":3228,"Ġinnbygg":3229,"Ġkateg":3230,"Ġprofesjon":3231,"Ġoverra":3232,"pros":3233,"slu":3234,"urser":3235,"Ġkomment":3236,"fÃ¸lging":3237,"gifter":3238,"ĠFran":3239,"Sk":3240,"Ġmeng":3241,"....":3242,"venn":3243,"ĠHans":3244,"Ġtyper":3245,"Ġflotte":3246,"Som":3247,"ĠRes":3248,"lov":3249,"Ġstarter":3250,"Et":3251,"stillinger":3252,"ĠsÃ¥nn":3253,"usere":3254,"Ġeskorte":3255,"Ġry":3256,"Ġvit":3257,"mar":3258,"Ġpost":3259,"Ġnavnet":3260,"ĠEuropa":3261,"usk":3262,"Ġlengre":3263,"melding":3264,"Ġvirker":3265,"Ġare":3266,"Ġhovedsak":3267,"ĠbÃ¸ker":3268,"Ġtett":3269,"ĠmÃ¥ter":3270,"Ġvedlike":3271,"Ġveil":3272,"Ġoppfyl":3273,"Ġ26":3274,"ule":3275,"Ġsykehus":3276,"Ġmakt":3277,"Ġene":3278,"rike":3279,"Ġpensjon":3280,"Ġnettstedet":3281,"isjonen":3282,"Ġpe":3283,"ING":3284,"ĠHvor":3285,"Ġindiv":3286,"ĠVel":3287,"Ġva":3288,"Ġfamilien":3289,"Ġtime":3290,"veis":3291,"Ġdokument":3292,"alif":3293,"Ġtvil":3294,"Ġdame":3295,"Ġtor":3296,"sol":3297,"ettes":3298,"forbund":3299,"Ġnettapotek":3300,"fest":3301,"Ġsentrum":3302,"Ġkonse":3303,"Ġopphold":3304,"ĠKon":3305,"terte":3306,"igur":3307,"Ġnaken":3308,"Ġleverand":3309,"dde":3310,"Ġmidt":3311,"stoff":3312,"Ġkob":3313,"Ġ28":3314,"ĠStort":3315,"Ġgjennomsnitt":3316,"Ġinkludert":3317,"rÃ¥det":3318,"ĠMin":3319,"ĠVÃ¥r":3320,"Ġeuro":3321,"Ġbegynne":3322,"Ġrev":3323,"Ġvirke":3324,"plan":3325,"ktet":3326,"Ġgis":3327,"Ġomsorg":3328,"ĠNo":3329,"Ġmedisin":3330,"gere":3331,"polit":3332,"Ġselve":3333,"ĠÃ¥pnet":3334,"Ġsannsynlig":3335,"sider":3336,"Ġ27":3337,"bladet":3338,"ĠbÃ¦re":3339,"Ġforl":3340,"aget":3341,"Ġrepresent":3342,"strukt":3343,"Ġ#":3344,"kjÃ¸r":3345,"iere":3346,"smÃ¥let":3347,"ĠHvordan":3348,"Ġbrukte":3349,"Ġrolle":3350,"ift":3351,"ĠDating":3352,"Ġdo":3353,"ĠklÃ¦r":3354,"Ġme":3355,"ĠrÃ¥":3356,"plikt":3357,"ilde":3358,"Ġautom":3359,"Ġdoku":3360,"ĠLa":3361,"Ġsjekke":3362,"vek":3363,"serv":3364,"Ġutfordringer":3365,"ĠkjÃ¦resten":3366,"ĠSand":3367,"gaven":3368,"reds":3369,"Ġopplever":3370,"ĠNew":3371,"ase":3372,"ĠÃħr":3373,"Ġgruppe":3374,"Ġlavere":3375,"Ġelever":3376,"Ġdigit":3377,"Ġlangs":3378,"enta":3379,"Ġfortsette":3380,"Ġredusere":3381,"Ġoppleve":3382,"ĠNT":3383,"vok":3384,"Ġelsker":3385,"lager":3386,"ĠHe":3387,"arbeide":3388,"agn":3389,"ĠgjennomfÃ¸re":3390,"Ġinvi":3391,"trykk":3392,"ikkerhet":3393,".[":3394,"Ġuttrykk":3395,"inter":3396,"Ġ2008":3397,"skriv":3398,"IL":3399,"Ġslags":3400,"Ġgrunnlegg":3401,"Ã¸kt":3402,"Ġstarte":3403,"hvert":3404,"ES":3405,"program":3406,"Ġglede":3407,"ĠÃ¸nske":3408,"skj":3409,"Ġbon":3410,"Ġspise":3411,"Ġsamfunnet":3412,"ĠTo":3413,"Ġbekre":3414,"ĠSverige":3415,"undersÃ¸k":3416,"Ġskad":3417,"Ġtekst":3418,"gangen":3419,"Ġaktiviteter":3420,"Ġvak":3421,"resen":3422,"Ġregistrert":3423,"Ġhum":3424,"Ġavhengig":3425,"Ã¶":3426,"Ġ196":3427,"Ġosv":3428,"egÃ¥ende":3429,"Ġur":3430,"tekn":3431,"ban":3432,"Ġbestemt":3433,"Ġfolke":3434,"ĠChrist":3435,"Ġstoff":3436,"fyl":3437,"ĠhÃ¸yde":3438,"omrÃ¥det":3439,"Ġmoderne":3440,"ĠhÃ¸sten":3441,"Ġtrafikk":3442,"mannen":3443,"Ġbod":3444,"ĠmÃ¸tte":3445,"Ġves":3446,"lisert":3447,"ittel":3448,"ĠEller":3449,"Ġgul":3450,"Ã¸g":3451,"itets":3452,"sut":3453,"Ġmennesk":3454,"hav":3455,"vist":3456,"ygge":3457,"ledes":3458,"Ġfredag":3459,"ĠFri":3460,"ĠÂ§":3461,"ĠProduksjon":3462,"Ġgodkjent":3463,"ras":3464,"Ġlager":3465,"Ġsterke":3466,"Ġmarkedet":3467,"Ġetablert":3468,"esiali":3469,"fÃ¸rte":3470,"Ġsagt":3471,"Ġforvalt":3472,"Ġpunkt":3473,"leie":3474,"Ġpersonlig":3475,"Ġdro":3476,"ĠTid":3477,"Ġklubb":3478,"Ġporn":3479,"Ġgjeng":3480,"Ġsosial":3481,"Ġsesong":3482,"Ġenkle":3483,"ement":3484,"ĠÃ¸del":3485,"ĠpopulÃ¦re":3486,"ande":3487,"Ġfavoritter":3488,"usjonen":3489,"Ġjakt":3490,"Ġbillig":3491,"ash":3492,"ĠAg":3493,"Ġomfatt":3494,"Ġresultat":3495,"Ġskikkelig":3496,"ame":3497,"ĠkjÃ¸kken":3498,"ĠHel":3499,"ix":3500,"Ġstandard":3501,"Ġfebruar":3502,"Ġoverfor":3503,"alle":3504,"Ġendre":3505,"ĠForsk":3506,"ĠFin":3507,"imot":3508,"sagt":3509,"lut":3510,"ppen":3511,"Ġskil":3512,"kka":3513,"Til":3514,"Ġfortelle":3515,"AT":3516,"Ġinvester":3517,"Ġtype":3518,"An":3519,"ĠVar":3520,"ringer":3521,"lim":3522,"Ġpartner":3523,"Ġforsvar":3524,"Ġjule":3525,"enet":3526,"Ġspillere":3527,"former":3528,"ĠutgjÃ¸r":3529,"ĠHam":3530,"Ã¸ver":3531,"Ġrelig":3532,"Ġpublik":3533,"Ġelevene":3534,"Ġfrivil":3535,"start":3536,"Ġfler":3537,"Ġformid":3538,"dating":3539,"Ġenklere":3540,"Ġkos":3541,"Ġgren":3542,"edag":3543,"Ġnasjonale":3544,"ĠsnÃ¸":3545,"rale":3546,"ork":3547,"Ġprivate":3548,"ĠStavanger":3549,"nelsen":3550,"ON":3551,"Ġtilsyn":3552,"Ġskade":3553,"Ġtas":3554,"ĠKn":3555,"Ġpotens":3556,"Ġskjedde":3557,"Ã¥p":3558,"Ġful":3559,"Ġ194":3560,"ologiske":3561,"ibli":3562,"Ġrisiko":3563,"rÃ¸r":3564,"Norge":3565,"Ġpriori":3566,"Ġsat":3567,"ĠNRK":3568,"Ġdato":3569,"ĠCar":3570,"Ġglem":3571,"Ġresta":3572,"Ġutsatt":3573,"Ġvalgte":3574,"loven":3575,"hÃ¸y":3576,"Ġkm":3577,"ĠÃ¸konomisk":3578,"idene":3579,"stein":3580,"ĠMid":3581,"produksjon":3582,"ĠkjÃ¸pt":3583,"Ġgreit":3584,"Denne":3585,"Ġheter":3586,"bel":3587,"Ġaktiv":3588,"ningslin":3589,"Ġjobbet":3590,"Ġbutikk":3591,"Ġjobben":3592,"Ġreguler":3593,"ienter":3594,"nÃ¦r":3595,"Ġversjon":3596,"Ġkur":3597,"ena":3598,"nali":3599,"kel":3600,"Ġsterkt":3601,"Ġutfor":3602,"bruks":3603,"ĠJes":3604,"Ġfylke":3605,"Ġstilling":3606,"ĠÃ¸konomiske":3607,"Sp":3608,"jul":3609,"Ġfarger":3610,"utvalget":3611,"IS":3612,"Ġfortsetter":3613,"ĠFacebook":3614,"ĠundersÃ¸kelse":3615,"ĠIngen":3616,"Ġleser":3617,"Ġmeste":3618,"nivÃ¥":3619,"isjoner":3620,"ptim":3621,"iell":3622,"Ã¸tt":3623,"):":3624,"slaget":3625,"idere":3626,"als":3627,"Ġforven":3628,"Ġyngre":3629,"anne":3630,"lid":3631,"Ġlange":3632,"peratur":3633,"ĠinngÃ¥":3634,"Ġprem":3635,"yrÃ¥":3636,"etÃ¸y":3637,"Ġvenstre":3638,"srett":3639,"dire":3640,"mest":3641,"Ġkrist":3642,"ight":3643,"Ġunna":3644,"Ã¸de":3645,"ĠBy":3646,"Ġbu":3647,"ĠÃ¸konomi":3648,"ransport":3649,"Ġfr":3650,"ĠgrÃ¸nn":3651,"Ġfatt":3652,"ident":3653,"Ġkalt":3654,"ĠtrÃ¥d":3655,"Ġellers":3656,"ĠSide":3657,"holdt":3658,"Ġâ":3659,"ften":3660,"irasjon":3661,"Ġul":3662,"Ã¥re":3663,"Ġreis":3664,"stander":3665,"Ġdriver":3666,"Ġlevit":3667,"rÃ¸y":3668,"Ġlevitra":3669,"Ġbloggen":3670,"kÃ¥r":3671,"Ġjf":3672,"Ġeksister":3673,"Ġamb":3674,"Ġtilsvarende":3675,"ktÃ¸r":3676,"Ġpolitiske":3677,"stet":3678,"Ġhuset":3679,"alder":3680,"Ġ29":3681,"Ġslikt":3682,"ĠSv":3683,"jekk":3684,"Ġnevnt":3685,"Ġinternett":3686,"ania":3687,"Ġenhver":3688,"splan":3689,"ĠGener":3690,"Han":3691,"ED":3692,"Ġarbeidst":3693,"stemer":3694,"ure":3695,"spart":3696,"ĠInter":3697,"vent":3698,"Ġalternativ":3699,"Ġtusen":3700,"unnen":3701,"ĠÃ¸yeb":3702,"iserte":3703,"ĠUng":3704,"Hvis":3705,"ales":3706,"Ġstol":3707,"Ġutover":3708,"ĠGe":3709,"rim":3710,"eliv":3711,"yst":3712,"Ġas":3713,"Ġmag":3714,"brudd":3715,"Ã¸mme":3716,"kast":3717,"AL":3718,"Ġinntil":3719,"delingen":3720,"ansvar":3721,"Ġmannen":3722,"lob":3723,"ĠavgjÃ¸rende":3724,"somme":3725,"Ġfarge":3726,"Ġ'":3727,"Ġtrykk":3728,"25":3729,"Ġ2007":3730,"fun":3731,"Ġforen":3732,"ollen":3733,"Ġval":3734,"Ã¸rs":3735,"Ã¥de":3736,"ĠoppfÃ¸lging":3737,"instit":3738,"ĠStud":3739,"Ġivaret":3740,"Ġsvart":3741,"ĠsÃ¥k":3742,"-)":3743,"Ġforber":3744,"Ã¸tte":3745,"skommun":3746,"Ġmotor":3747,"ĠHÃ¥":3748,"vide":3749,"merket":3750,"ĠAm":3751,"ĠformÃ¥l":3752,"Ġkontrol":3753,"Ġbal":3754,"gruppen":3755,"Ġtver":3756,"ĠÃ¸st":3757,"sere":3758,"Ġsmer":3759,"bed":3760,"ho":3761,"Ġrefer":3762,"ĠkjÃ¸per":3763,"Ġsexy":3764,"Ġteknologi":3765,"Ġ+":3766,"punkt":3767,"Ġvideoer":3768,"ĠDes":3769,"ders":3770,"Ġskrev":3771,"Ġbetydelig":3772,"Ġblom":3773,"elden":3774,"Ġmedier":3775,"Ġstudenter":3776,"Ġfullt":3777,"miljÃ¸":3778,"Ġgrupper":3779,"ĠutfÃ¸rt":3780,"Ġ80":3781,"skri":3782,"egÃ¥r":3783,"iti":3784,"jeneste":3785,"Ġtun":3786,"Ġfu":3787,"orier":3788,"steder":3789,"Ġgutter":3790,"Ġjuli":3791,"Ġinspir":3792,"rettel":3793,"Ġaner":3794,"Ġnettsted":3795,"ians":3796,"Ġsign":3797,"Ġkonkurranse":3798,"Ġinnvand":3799,"industri":3800,"Ġsport":3801,"Ġregjeringen":3802,"aut":3803,"Ġvekst":3804,"Ġtilpass":3805,"Ġgrunnleggende":3806,"Ġregler":3807,"annen":3808,"sopp":3809,"ĠFred":3810,"yt":3811,"Ġbom":3812,"ĠSamtidig":3813,"Ġvider":3814,"Ġhyggelig":3815,"atiske":3816,"sle":3817,"ogle":3818,"ĠService":3819,"bygging":3820,"Ved":3821,"sg":3822,"ĠJohn":3823,"alene":3824,"ĠHoved":3825,"ĠFyl":3826,"Ġindivid":3827,"Ġavvik":3828,"rienter":3829,"ofil":3830,"Ġtab":3831,"Ġsituasjonen":3832,"sto":3833,"ĠKanskje":3834,"Ð¾":3835,"Ġinvol":3836,"Ġkarakter":3837,"Ġperiode":3838,"ana":3839,"Ġil":3840,"Ġdatter":3841,"inister":3842,"Ġspor":3843,"ĠkjÃ¸rer":3844,"Ġvanlige":3845,"Ġrepresen":3846,"Ġklarte":3847,"nummer":3848,"Ġvedtatt":3849,"skl":3850,"ĠgÃ¸y":3851,"Ġ70":3852,"Ġabsol":3853,"trent":3854,"mon":3855,"alet":3856,"xx":3857,"ĠSc":3858,"ĠCo":3859,"Ġflyttet":3860,"Ġrestaur":3861,"Ġhopp":3862,"Ġbedrifter":3863,"Ġytterligere":3864,"mot":3865,"Ġbenyttes":3866,"Ġutny":3867,"Ġskaper":3868,"Ġservice":3869,"Ġdisp":3870,"Ġhodet":3871,"Ġteam":3872,"angen":3873,"strÃ¸m":3874,"kjente":3875,"Ġhjerte":3876,"eri":3877,"Ġbildene":3878,"ĠOgsÃ¥":3879,"Ġvarer":3880,".Â»":3881,"Ġansvarlig":3882,"esser":3883,"ĠIT":3884,"Ġgjenoppretting":3885,"Ġvarm":3886,"Ġorganisasjon":3887,"Ġtillit":3888,"ĠFre":3889,"ĠVis":3890,"Ġinnov":3891,"Ġnab":3892,"Ġvakre":3893,"Ġtilkny":3894,"Ġkommunene":3895,"Ġass":3896,"itu":3897,"Ġstudie":3898,"dy":3899,"Ġkunde":3900,"Ġjour":3901,"nor":3902,"Ġkvalif":3903,"Ġforret":3904,"kan":3905,"kost":3906,"amma":3907,"kar":3908,"Ut":3909,"ĠVil":3910,"Ġinnsats":3911,"Ġsatte":3912,"ĠSlik":3913,"sav":3914,"gitt":3915,"Ġoppdatert":3916,"Ġkonkret":3917,"ĠSiden":3918,"seres":3919,"skland":3920,"Ġspesif":3921,"ĠhÃ¸yeste":3922,"skont":3923,"Ġtotalt":3924,"handel":3925,"24":3926,"Ġsuper":3927,"Ġvoksen":3928,"akere":3929,"tene":3930,"Ġengelsk":3931,"AS":3932,"Ġskrift":3933,"Ġfilmen":3934,"Ġopplevelse":3935,"Ġerfaringer":3936,"stillingen":3937,"dighet":3938,"Ġbestemm":3939,"ĠJa":3940,"ĠomrÃ¥de":3941,"Ġtanke":3942,"produ":3943,"kommende":3944,"Ġsek":3945,"Ġtilstre":3946,"ĠÃ¥pner":3947,"Ġge":3948,"Ġselvsagt":3949,"engene":3950,"Ġdistri":3951,"Ġgro":3952,"ĠSkj":3953,"Ġforfatter":3954,"Ġring":3955,"Ġstyret":3956,"ravet":3957,"stedet":3958,"Ġescort":3959,"utselig":3960,"butikk":3961,"Ġmilit":3962,"Ġtreng":3963,"Ġforholdet":3964,"Ġvedlikehold":3965,"Ã¼":3966,"atelse":3967,"Ġforsknings":3968,"adal":3969,"arked":3970,"parten":3971,"prÃ¸":3972,"ĠBarn":3973,"Ġep":3974,"asjer":3975,"Ġreiser":3976,"ĠRuss":3977,"Ġforsv":3978,"Ġfran":3979,"ĠHal":3980,"Ġkvelden":3981,"Ġstund":3982,"ssel":3983,"kor":3984,"Ġutvid":3985,"Ġcm":3986,"Ġekteskap":3987,"Ġsnakker":3988,"Ġhvit":3989,"Ġit":3990,"ering":3991,"Ġarbeidsm":3992,"isme":3993,"Ġfyr":3994,"departementet":3995,"alisering":3996,"Ġopply":3997,"Ġamerikanske":3998,"kkene":3999,"Ġfiske":4000,"Ġbekym":4001,"ĠUl":4002,"asitet":4003,"ssk":4004,"out":4005,"rot":4006,"Ġgift":4007,"ĠforhÃ¥nd":4008,"ĠsÃ¸rge":4009,"ansert":4010,"ba":4011,"aste":4012,"Ġrygg":4013,"ĠBygg":4014,"Ġressurser":4015,"ĠJan":4016,"oo":4017,"Ġuken":4018,"ĠFlere":4019,"Ġtoppen":4020,"Ã¸ff":4021,"plasser":4022,"runn":4023,"andid":4024,"Ġkostnad":4025,"irsdag":4026,"ĠKultur":4027,"ĠHen":4028,"MS":4029,"onn":4030,"ĠMÃ¸te":4031,"standen":4032,"Ġflytte":4033,"Ġgu":4034,"Ġstyre":4035,"sken":4036,"aktig":4037,"Ġfeng":4038,"Ġgenerelt":4039,"Un":4040,"ior":4041,"Ar":4042,"aluer":4043,"Ġpress":4044,"Ġorganisasjoner":4045,"Ġuniversitet":4046,"Ġbestemte":4047,"Ġtilrettel":4048,"ote":4049,"ich":4050,"styret":4051,"Ã¦ren":4052,"ĠlÃ¦ring":4053,"kommen":4054,"Ġbist":4055,"ĠAker":4056,"Ġpublikum":4057,"Ġsaks":4058,"OK":4059,"abel":4060,"Ġsla":4061,"Ġregjering":4062,"Ġbesky":4063,"Ġfremtid":4064,"Ġ2006":4065,"Ġrelativt":4066,"Ġutenland":4067,"vei":4068,"Ġperfekt":4069,"messig":4070,"mor":4071,"Ġhardt":4072,"ep":4073,"Ġsildenafil":4074,"Ġvanligvis":4075,"Ġkamer":4076,"Ġvente":4077,"irca":4078,"Ġaktuelle":4079,"Ġnasjonal":4080,"annonser":4081,"budet":4082,"Ġinnom":4083,"edning":4084,"Ġhundre":4085,"edlem":4086,"Ġspesiali":4087,"Ġoppmerksom":4088,"ogn":4089,"Ġuk":4090,"ðŁ":4091,"sa":4092,"etten":4093,"irma":4094,"Ġfilmer":4095,"ĠFil":4096,"Ġsommeren":4097,"Ġvises":4098,"verks":4099,"hjem":4100,"ĠMart":4101,"Ġfysisk":4102,"bord":4103,"22":4104,"Ġbeskjed":4105,"ĠkjÃ¸tt":4106,"Ð°":4107,"gte":4108,"Ġretningslin":4109,"Ġkommuner":4110,"bane":4111,"Ðµ":4112,"ĠÃĺk":4113,"Ġinteressant":4114,"Ġbad":4115,"Ġtrekke":4116,"ĠSÃ¸k":4117,"Ġsukker":4118,"handler":4119,"ĠSch":4120,"ĠBruk":4121,"Ġutform":4122,"Ġfred":4123,"Ġnormalt":4124,"Ġboken":4125,"Ġabsolutt":4126,"Har":4127,"Ġarbeide":4128,"Ġkjempe":4129,"Ġendret":4130,"Ġpolitisk":4131,"ĠOff":4132,"adalafil":4133,"ivet":4134,"Ġnordmenn":4135,"Ġseri":4136,"Ġingenting":4137,"Ġforskrift":4138,"ĠkjÃ¦rligheten":4139,"Ġsesongen":4140,"Ġhem":4141,"OL":4142,"ton":4143,"sprogram":4144,"ĠHot":4145,"son":4146,"ĠInternett":4147,"Ġverdt":4148,"dens":4149,"Ġbeskri":4150,"ĠbesÃ¸ke":4151,"Ġomfattende":4152,"gruppe":4153,"byg":4154,"Ġimot":4155,"Ġprote":4156,"Ġfremst":4157,"oven":4158,"Ã¦ringen":4159,"Ġforvent":4160,"ror":4161,"stemm":4162,"Ġborte":4163,"Ġsentrale":4164,"informasjon":4165,"Ġventer":4166,"holdning":4167,"Ġumiddel":4168,"circa":4169,"Ġhandling":4170,"vi":4171,"Ġsitte":4172,"Ġuavhengig":4173,"Ġmusk":4174,"Ġment":4175,"arbeidere":4176,"vÃ¦rende":4177,"Ġoppt":4178,"ĠnÃ¦rheten":4179,"onomi":4180,"Ġelektron":4181,"folk":4182,"Ġtilfreds":4183,".)":4184,"vne":4185,"Ġutvikler":4186,"Ġprinsi":4187,"ĠmÃ¸tet":4188,"omrÃ¥der":4189,"ellet":4190,"Ġbevisst":4191,"Ġprest":4192,"ph":4193,"tom":4194,"ĠvideregÃ¥ende":4195,"okrat":4196,"lir":4197,"Ġhente":4198,"saker":4199,"'s":4200,"OS":4201,"Ġpasienter":4202,"Ġomtrent":4203,"Ġeffektiv":4204,"ti":4205,"Ġoven":4206,"ĠBu":4207,"klo":4208,"abri":4209,"Ġnyte":4210,"Ġsituasjon":4211,"Ġstabil":4212,"essige":4213,"strasjon":4214,"Ġoppdaget":4215,"Ã¤":4216,"smessig":4217,"KT":4218,"Ġpriser":4219,"Ġlignende":4220,"Ġderimot":4221,"olf":4222,"redning":4223,"Ġtrenings":4224,"delag":4225,"ikler":4226,"Ġ90":4227,"Ġorienter":4228,"Ġendring":4229,"ekom":4230,"Ġvinner":4231,"Ġfremover":4232,"Ġvinne":4233,"Ġanbefaler":4234,"ĠforstÃ¥else":4235,"ĠlÃ¸sning":4236,"ĠfÃ¸d":4237,"sikring":4238,"skog":4239,"Ġoppmerksomhet":4240,"skriften":4241,"Ġrettigheter":4242,"Ġdebatt":4243,"Ġparker":4244,"Ġvind":4245,"ĠLike":4246,"Ġgull":4247,"hov":4248,"Ġstemmer":4249,"Ġforeb":4250,"vs":4251,"selen":4252,"hjelp":4253,"Ġmenneske":4254,"Ġinntekt":4255,"ines":4256,"Ġtenkt":4257,"sminister":4258,"vend":4259,"rening":4260,"Ġeurope":4261,"Ġlun":4262,"use":4263,"ppene":4264,"Ġdeilig":4265,"AV":4266,"Ġspilte":4267,"Ġdisku":4268,"iger":4269,"ĠskjÃ¸nn":4270,"Ġheldig":4271,"Ġbegynnelsen":4272,"akne":4273,"Ġent":4274,"Ġskatte":4275,"Ġarbeidspl":4276,"Ġkjenn":4277,"ood":4278,"ĠPa":4279,"Ġdrikke":4280,"Ġfelt":4281,"ellene":4282,"Ġfree":4283,"sbe":4284,"ĠrÃ¸d":4285,"Ġpersonlige":4286,"Ġinspirasjon":4287,"Ġansikt":4288,"Ġrul":4289,"Ġlog":4290,"ĠJon":4291,"skom":4292,"Ġdram":4293,"Ã¦rlig":4294,"kkende":4295,"Ġsuks":4296,"gÃ¥ende":4297,"Er":4298,"ĠlÃ¸se":4299,"ĠSm":4300,"synet":4301,"Ġslo":4302,"Ġwith":4303,"rang":4304,"ath":4305,"Ġpen":4306,"Ġhverdag":4307,"rings":4308,"ĠÃĺv":4309,"unne":4310,"Ġoptim":4311,"ex":4312,"agno":4313,"Ġtidspunkt":4314,"Ġrommet":4315,"Ġanal":4316,"Ġcasino":4317,"Ġnylig":4318,"letter":4319,"Ġenerg":4320,"ĠNordland":4321,"Ġutdann":4322,"Ã¸pet":4323,"tegi":4324,"Ġprogrammet":4325,"sloven":4326,"Ġ2005":4327,"Ġoppgave":4328,"blem":4329,"hÃ¥nd":4330,"Ġalvorlig":4331,"astet":4332,"Ġsmak":4333,"ĠTjenester":4334,"Ġ31":4335,"Ġgleder":4336,"Ġtann":4337,"Ġex":4338,"anten":4339,"Ġco":4340,"Ġrefle":4341,"ykke":4342,"Ġrut":4343,"Ġadcirca":4344,"Ġfavoritt":4345,"Ġcom":4346,"ari":4347,"utstyr":4348,"ĠBank":4349,"ĠVidere":4350,"Ġpresse":4351,"mester":4352,"Ġfremdeles":4353,"Ġgjeldende":4354,"Ġkraftig":4355,"gn":4356,"Ġhensikt":4357,"peri":4358,"sord":4359,"iler":4360,"ĠGratis":4361,"elef":4362,"Ġspesielle":4363,"Ġklima":4364,"Ġskjedd":4365,"Ġinteressert":4366,"aksjon":4367,"atikk":4368,"Ġseng":4369,"Ġmatch":4370,"ish":4371,"ĠforeslÃ¥":4372,"40":4373,"ĠfÃ¸le":4374,"grep":4375,"mb":4376,"Ġfett":4377,"ĠnÃ¸":4378,"svis":4379,"iserer":4380,"Ġskol":4381,"Ġtadalafil":4382,"ĠFl":4383,"Ġboka":4384,"Ġmening":4385,"Ġhistorien":4386,"smÃ¸te":4387,"Ġtilstrekkelig":4388,"kn":4389,"Ġhelhet":4390,"tekter":4391,"Ġdelen":4392,"Ġhjemmes":4393,"egn":4394,"Ġtrener":4395,"Ġviten":4396,"Ġutdan":4397,"Ġ2000":4398,"Ġkjenne":4399,"kre":4400,"Ġinstru":4401,"grupper":4402,"Ġseier":4403,"ialog":4404,"natt":4405,"ĠJesus":4406,"Ġmangler":4407,"Ġklubben":4408,"likter":4409,"Ġbeslut":4410,"Ġdagene":4411,"Ġho":4412,"Ã¸nster":4413,"Ġvon":4414,"Ġekst":4415,"Ġvardenafil":4416,"Ġsykkel":4417,"ĠspÃ¸rre":4418,"ĠFrank":4419,"Ġdann":4420,"ĠslÃ¥tt":4421,"dels":4422,"atÃ¸r":4423,"ors":4424,"beg":4425,"Ġvarier":4426,"Ġbidrag":4427,"ĠUngdom":4428,"ĠBerg":4429,"Ġregnskap":4430,"ĠEx":4431,"ls":4432,"edagog":4433,"ĠÃ¥pent":4434,"tra":4435,"Ġomt":4436,"ĠgrÃ¥":4437,"Ġ)":4438,"kvens":4439,"Ġfaglig":4440,"Ġradi":4441,"rael":4442,"Ġbland":4443,"ampen":4444,"ĠMon":4445,"Ġyrkes":4446,"TE":4447,"Ġfantastiske":4448,"Ġretten":4449,"Ġresp":4450,"ĠBest":4451,"aktivitet":4452,"Ġmandag":4453,"Ġband":4454,"verdig":4455,"Ġ>":4456,"Ġstiller":4457,"Ġledelse":4458,"Ġrimelig":4459,"ĠbrÃ¸":4460,"Ġpolitikk":4461,"histor":4462,"Ġredusert":4463,"orien":4464,"Ġselger":4465,"ipp":4466,"Ġhomofil":4467,"Ġstrateg":4468,"Ġnummer":4469,"ick":4470,"Ġklasse":4471,"Ġplutselig":4472,"ID":4473,"Ġsamle":4474,"vest":4475,"Ġpraktisk":4476,"Ġgru":4477,"stÃ¥ende":4478,"esÃ¸k":4479,"inst":4480,"Ġminim":4481,"fart":4482,"ĠSport":4483,"Ġku":4484,"eler":4485,"Ġfremme":4486,"Ġtilp":4487,"Ġutgangspunktet":4488,"teres":4489,"ĠPerson":4490,"nevnte":4491,"Ġopps":4492,"Ġvannet":4493,"21":4494,".\"":4495,"Ġtorsdag":4496,"risk":4497,"ĠResult":4498,"ĠDermed":4499,"Ġne":4500,"ĠnÃ¦rme":4501,"Ġmente":4502,"ski":4503,"Ġomfatter":4504,"Ġglass":4505,"Ġsko":4506,"Ġir":4507,"Ġhentet":4508,"Ġferie":4509,"Ġettersom":4510,"Ġannonser":4511,"ekn":4512,"KK":4513,"Ġkontin":4514,"ĠmÃ¥let":4515,"ĠennÃ¥":4516,"Ġanledning":4517,"Ġmuse":4518,"Ġlitter":4519,"ĠspÃ¸rsmÃ¥let":4520,"Ġfro":4521,"ĠundersÃ¸":4522,"ĠDess":4523,"ĠhÃ¸rer":4524,"Ġdessverre":4525,"ĠtÃ¥":4526,"Ġmote":4527,"Ġjern":4528,"mentere":4529,"Ġtids":4530,"yre":4531,"Ġmerket":4532,"ĠBjÃ¸rn":4533,"Ġspilt":4534,"ĠFr":4535,"ĠStortinget":4536,"Ġnettverk":4537,"revisjon":4538,"Ġkat":4539,"Ġvivan":4540,"Ġvivanza":4541,"apt":4542,"Om":4543,"Ġfo":4544,"Ġstudent":4545,"Ġkonser":4546,"Ġmyndigheter":4547,"urte":4548,"ĠRiks":4549,"60":4550,"Ġplaner":4551,"borg":4552,"Ġigjennom":4553,"Ġungdoms":4554,"Ã¸ndelag":4555,"ĠTyskland":4556,"Sam":4557,"Ġbenytter":4558,"telse":4559,"ĠEg":4560,"Ġprosessen":4561,"ĠbÃ¥t":4562,"Ġfjerne":4563,"unkter":4564,"Ġ$":4565,"Ġidentif":4566,"Ġglob":4567,"Ã¦rings":4568,"ĠOle":4569,"Ġforand":4570,"nem":4571,"ktoratet":4572,"ias":4573,"Ġunntak":4574,"Ġramme":4575,"ika":4576,"ĠGoogle":4577,"Ġdrive":4578,"iering":4579,"henger":4580,"ĠâĢ¦":4581,"Ġtj":4582,"Ġpapir":4583,"ĠFo":4584,"ĠvÃ¥ren":4585,"Ġrussiske":4586,"Ġfang":4587,"ĠKong":4588,"Opp":4589,"amask":4590,"Ġformer":4591,"iten":4592,"Ġpasient":4593,"ĠPC":4594,"Ġslit":4595,"Ġopprettet":4596,"Ġoppe":4597,"Ġretning":4598,"ssp":4599,"shus":4600,"ĠBok":4601,"Ġresultatet":4602,"Ġopplys":4603,"Ġeventuelt":4604,"assert":4605,"Ġskyldes":4606,"OM":4607,"Ġnettsiden":4608,"Ġrad":4609,"ĠPolit":4610,"Ġ35":4611,"eth":4612,"SB":4613,"Ġarbeidsgiver":4614,"Ġbiler":4615,"th":4616,"gjort":4617,"Ġtemperatur":4618,"rest":4619,"Ġavslu":4620,"mede":4621,"Ġoppfordr":4622,"Ġsettes":4623,"Ġbus":4624,"23":4625,"rel":4626,"ĠTromsÃ¸":4627,"ĠhÃ¥r":4628,"ĠKunst":4629,"az":4630,"Ġtrinn":4631,"my":4632,"Ġstress":4633,"Ġsammens":4634,"Ġjournali":4635,"delen":4636,"Ġeksisterende":4637,"ĠLille":4638,"Ġdigitale":4639,"Ġ;":4640,"ĠOn":4641,"Ã¸kene":4642,"Ġlevere":4643,"itekt":4644,"Ġtri":4645,"Selv":4646,"etil":4647,"Ġstarten":4648,"elefoner":4649,"Ġnedenfor":4650,"Ġdesig":4651,"Ġlei":4652,"RE":4653,"ĠBare":4654,"Ġtrolig":4655,"Ġetc":4656,"Ġomk":4657,"pene":4658,"Ġtanker":4659,"ĠgjennomfÃ¸res":4660,"ĠEk":4661,"etak":4662,"Ġsve":4663,"Ġkristne":4664,"Ġdobb":4665,"ĠApp":4666,"Ġpositive":4667,"Ġspe":4668,"ĠMil":4669,"Ã¸mt":4670,"IF":4671,"ĠTru":4672,"ose":4673,"ĠÃ¸vrig":4674,"akten":4675,"Ġvitenskap":4676,"Ġprosess":4677,"Ġkreft":4678,"gu":4679,"Ð¸":4680,"Ġblo":4681,"Ġstudier":4682,"rutter":4683,"rede":4684,"Ġ*":4685,"une":4686,"Ġforeldrene":4687,"Ġhandle":4688,"Ġfalt":4689,"ĠFol":4690,"Ġforplikt":4691,"Ġforklar":4692,"Ġnyd":4693,"Ġube":4694,"arbeider":4695,"klar":4696,"Ġsamsvar":4697,"ĠkjÃ¸retÃ¸y":4698,"Ġjentene":4699,"Alle":4700,"Ġinformasjonen":4701,"Ġsats":4702,"ĠrÃ¸y":4703,"Ġstrukt":4704,"Ġkvalit":4705,"ĠstÃ¸rrelse":4706,"istisk":4707,"ĠðŁ":4708,"bilder":4709,"vekst":4710,"Ã¸yt":4711,"riske":4712,"ĠRussland":4713,"bum":4714,"Ġnettsider":4715,"Ġbefolkningen":4716,"Ġmotiv":4717,"Ġevne":4718,"resjon":4719,"PS":4720,"Ġthai":4721,"Ġsendes":4722,"yrer":4723,"Ġskader":4724,"ĠTre":4725,"Ġtrene":4726,"kven":4727,"af":4728,"Ġarranger":4729,"Ã¸ya":4730,"ordin":4731,"Ġaksep":4732,"felt":4733,"Ġtrans":4734,"Ġinternasjonalt":4735,"Ġadministrasjon":4736,"Ġmiddag":4737,"mptom":4738,"Ġutlandet":4739,"ĠÃ¸kte":4740,"ĠfÃ¸rte":4741,"ettet":4742,"Ã¸nt":4743,"satte":4744,"ape":4745,"Ġz":4746,"veks":4747,"edrag":4748,"rettet":4749,"Ġintervju":4750,"ĠÃ¥tte":4751,"Ġanner":4752,"orn":4753,"Ġtilskudd":4754,"Ġinnholdet":4755,"Ġverdier":4756,"Ã¸ter":4757,"âĢĿ.":4758,"Ġklag":4759,"ĠLu":4760,"ĠUniversitet":4761,"ics":4762,"ligheter":4763,"Ġpoliti":4764,"Ġdialog":4765,"Ġsend":4766,"ĠLar":4767,"Ã¸lv":4768,"Ġselskaper":4769,"Ġumu":4770,"kal":4771,"Ġmaks":4772,"Ġuly":4773,"ĠÃ¸ver":4774,"Ã¸pig":4775,"ĠaktÃ¸rer":4776,"mus":4777,"Ġerotiske":4778,"isi":4779,"Ġprisen":4780,"its":4781,"Ġmerk":4782,"ĠPh":4783,"Ġsang":4784,"Ġkomfort":4785,"ĠFÃ¸l":4786,"Ġmamma":4787,"ningsm":4788,"lub":4789,"bl":4790,"Ġrappor":4791,"sti":4792,"Ġuh":4793,"Ġfunksjoner":4794,"//":4795,"Ġpol":4796,"Ġsupp":4797,"ynt":4798,"Ġskoler":4799,"Ġbarnehage":4800,"sberg":4801,"skapene":4802,"Ġventet":4803,"ĠAnne":4804,"utdanning":4805,"ĠHjem":4806,"ĠSkog":4807,"repren":4808,"barn":4809,"Ġhvite":4810,"SK":4811,"ica":4812,"Ġoverrask":4813,"Ġsjekk":4814,"ĠJu":4815,"Ġmm":4816,"Ġtrygt":4817,"Ġforsiktig":4818,"Ġryd":4819,"Ġvindu":4820,"ĠsÃ¥r":4821,"hund":4822,"Ġhjert":4823,"Ġendte":4824,"ĠgjennomfÃ¸ring":4825,"Ġflest":4826,"Ġbenyttet":4827,"mÃ¸te":4828,"Ġsnakket":4829,"Ġdessuten":4830,"IT":4831,"Ġforbud":4832,"Ġkong":4833,"Ġautomatisk":4834,"Ġuttry":4835,"ĠBolig":4836,"Ġjur":4837,"Ġonsdag":4838,"Ġvesentlig":4839,"ĠutfÃ¸re":4840,"smÃ¸tet":4841,"Ġtegn":4842,"Ġkna":4843,"stav":4844,"sson":4845,"bruket":4846,"Ġsuksess":4847,"ĠNil":4848,"ĠUten":4849,"Ġfylkes":4850,"ĠnÃ¦ring":4851,"ondon":4852,"ĠEiendom":4853,"ĠkjÃ¸pte":4854,"Ġtilt":4855,"Ġdeltok":4856,"Ġfritt":4857,"fulle":4858,"Ġordin":4859,"fÃ¸ringen":4860,"Ġfare":4861,"Ġsvarte":4862,"Ġgjent":4863,"rab":4864,"arken":4865,"Ġkonsent":4866,"ĠlÃ¸pe":4867,"Ġvennskap":4868,"Ġforest":4869,"ĠTer":4870,"ĠtilhÃ¸r":4871,"ĠBÃ¥de":4872,"Ġekstrem":4873,"udsjett":4874,"Ġforbedre":4875,"ĠGuds":4876,"Ġomgang":4877,"rÃ¸rende":4878,"Ġlurt":4879,"Ġbos":4880,"inder":4881,"Ġ195":4882,"verd":4883,"Ġsystemet":4884,"Ġannerledes":4885,"lia":4886,"Ġfylkeskommun":4887,"verdi":4888,"ĠEm":4889,"RA":4890,"Ġtog":4891,"isten":4892,"Ġutslipp":4893,"arn":4894,"Ġdrept":4895,"kap":4896,"omrÃ¥de":4897,"fjell":4898,"rinn":4899,"Ġbrev":4900,"jÃ¸ring":4901,",-":4902,"Ġsvenske":4903,"assasje":4904,"Ġyou":4905,"Ġdetaljer":4906,"ĠDanmark":4907,"ifte":4908,"asen":4909,"nede":4910,"lay":4911,"FÃ¸r":4912,"inene":4913,"Ġalko":4914,"Ġgravid":4915,"ĠvÃ¥pen":4916,"undet":4917,"ĠNasjon":4918,"Ġlesb":4919,"Ġsens":4920,"Ġlest":4921,"adres":4922,"Ġvirksomheten":4923,"Ġdep":4924,"tur":4925,"elly":4926,"Ġskatt":4927,"ialet":4928,"Ġgruppen":4929,"Ġhelgen":4930,"Ġresultatene":4931,"Ġtider":4932,"Ġjevn":4933,"ĠII":4934,"ada":4935,"Ġfrukt":4936,"llu":4937,"Ġtenkte":4938,"akgrunn":4939,"Ġnyheter":4940,"Ġ500":4941,"Ġvars":4942,"stin":4943,"ĠSve":4944,"urdering":4945,"Ġkartlegg":4946,"dÃ¸rs":4947,"ĠPo":4948,"Ġbegrenset":4949,"Ġunderstre":4950,"Ġintro":4951,"Ġaktive":4952,"Ġkontrakt":4953,"Ġpengene":4954,"Ġgrader":4955,"Ġtilpasset":4956,"Ġbrit":4957,"formen":4958,"forening":4959,"Ġinnb":4960,"ometer":4961,"ssjef":4962,"Ã¥tt":4963,"Ġtekniske":4964,"ĠSkal":4965,"Ġskuesp":4966,"Ġbytte":4967,"Ġeksempler":4968,"ĠFort":4969,"risen":4970,"oter":4971,"Ġsituasjoner":4972,"Ġbygger":4973,"ĠHÃ¥nd":4974,"ĠKristians":4975,"Ġlover":4976,"iteen":4977,"Hei":4978,"ĠÃ¸kning":4979,"ĠMot":4980,"Ġaktivt":4981,"Ġmilliarder":4982,"Ġstjer":4983,"oer":4984,"ĠDesign":4985,"ferdig":4986,"Ġferd":4987,"etning":4988,"Ġforelig":4989,"Ġumiddelbart":4990,"okk":4991,"dring":4992,"ĠFag":4993,"Ġplast":4994,"Ġrespekt":4995,"Ġerst":4996,"antene":4997,"Ġfug":4998,"Ġnyttig":4999,"ĠmÃ¸tt":5000,"Ġtilfelle":5001,"Ġtirsdag":5002,"ĠkjÃ¸rte":5003,"kvenser":5004,"ĠMic":5005,"Ġplu":5006,"Ġlaste":5007,"ĠCom":5008,"ĠSammen":5009,"ĠOrganis":5010,"oft":5011,"engt":5012,"ĠDel":5013,"ĠÃ¥rlig":5014,"Ã¥te":5015,"ction":5016,"Ġartikkelen":5017,"Ġ2004":5018,"Ġhim":5019,"Ġkamera":5020,"zz":5021,"spÃ¸r":5022,"ĠLars":5023,"ĠSn":5024,"sjef":5025,"ĠbÃ¦rekraft":5026,"alist":5027,"Ġinteg":5028,"own":5029,"Ġposisjon":5030,"Ġpositivt":5031,"Ġvent":5032,"taket":5033,"akte":5034,"Ġfortalte":5035,"lass":5036,"enk":5037,"ĠÃĺy":5038,"ĠFord":5039,"ĠnÃ¸dvendige":5040,"ĠIt":5041,"Ġstaten":5042,"ld":5043,"ĠTom":5044,"Ġkop":5045,"IG":5046,"ai":5047,"Ġspesial":5048,"spiller":5049,"Ġdokumentasjon":5050,"slige":5051,"Ġgass":5052,"Ġsynlig":5053,"ĠFredrik":5054,"Ġlykkes":5055,"Ġgra":5056,"ĠElekt":5057,"ĠSkole":5058,"-,":5059,"Ġskjema":5060,"ĠVG":5061,"Ġufor":5062,"haug":5063,"://":5064,"Ġmill":5065,"Ġrelasjoner":5066,"Ġbab":5067,"onse":5068,"Ġbegynt":5069,"essor":5070,"vekt":5071,"Ġumulig":5072,"Ġkalles":5073,"Ġstats":5074,"prosjekt":5075,"Ġforbruker":5076,"Ġtrodde":5077,"ĠFar":5078,"litt":5079,"reditt":5080,"Ġbehandlet":5081,"Ġundervisning":5082,"Ġsender":5083,"sels":5084,"ringen":5085,"Ġlandets":5086,"ĠÃ¸ynene":5087,"Ġfrisk":5088,"Ġtilfredsstil":5089,"Ġansvaret":5090,"bÃ¦r":5091,"ÑĤ":5092,"ida":5093,"Ġsiv":5094,"holdet":5095,"Pro":5096,"Ġnakne":5097,"Ġforuts":5098,"Ġrevol":5099,"Ġlive":5100,"Ã¥ringen":5101,"Ġfrykt":5102,"Ġsti":5103,"smiddel":5104,"Ġstemme":5105,"Ġveier":5106,"Ġopplevelser":5107,"Ġfla":5108,"Ġkamper":5109,"Der":5110,"Ġbransje":5111,"Ġsjelden":5112,"Ġnot":5113,"Ġstod":5114,"istiske":5115,"ialt":5116,"amb":5117,"ĠFN":5118,"jet":5119,"Ġtilfeldig":5120,"Ġsal":5121,"bÃ¸ker":5122,"Ġmottatt":5123,"ĠstÃ¸tter":5124,"Ġplanlagt":5125,"Ġpresident":5126,"Ġflykt":5127,"han":5128,"aksjoner":5129,"skjer":5130,"oper":5131,"ĠKristian":5132,"Ġserver":5133,"Ġnei":5134,"Ġbergen":5135,"drer":5136,"deler":5137,"ĠOlav":5138,"Ġsikt":5139,"ĠStatens":5140,"Ġforbered":5141,"Ġbeskriv":5142,"ĠtÃ¸ff":5143,"iel":5144,"Ġleverer":5145,"dringer":5146,"Ġnytte":5147,"Ġtitt":5148,"Ġledere":5149,"Ġforskjellig":5150,"organ":5151,"Ġtradisjonelle":5152,"mask":5153,"Ġvekk":5154,"alia":5155,"Ġrelevant":5156,"nr":5157,"ĠRÃ¥d":5158,"legget":5159,"Ã¥ring":5160,"ĠÃ¸vrige":5161,"Ġdokumenter":5162,"ĠSi":5163,"Ġopplevd":5164,"Ġleie":5165,"ĠoppstÃ¥r":5166,"weg":5167,"Ġhelg":5168,"avgift":5169,"Ġvedkommende":5170,"Ġbibli":5171,"ĠfÃ¸lelser":5172,"Ġnyhet":5173,"lÃ¦ring":5174,"Ġselge":5175,"vn":5176,"Ġvurdert":5177,"Ġrettet":5178,"ulere":5179,"Ġrapport":5180,"Ġprim":5181,"Ġbruken":5182,"habil":5183,"Ġskuff":5184,"samling":5185,"Ġomkring":5186,"Ġgjest":5187,"Ġsolid":5188,"Ġ..":5189,"ura":5190,"lex":5191,"Ġrunde":5192,"Ġstatus":5193,"Ġkol":5194,"Hva":5195,"osisjon":5196,"avtalen":5197,"Ġhevder":5198,"amen":5199,"Ġretningslinjer":5200,"inke":5201,"Ġrekrutter":5202,"ĠErik":5203,"Ġbodde":5204,"Ġapo":5205,"Ġmotstand":5206,"ĠHver":5207,"somrÃ¥":5208,"sens":5209,"ilitet":5210,"we":5211,"ĠSen":5212,"tning":5213,"Ġspis":5214,"ĠMÃ¥":5215,"bon":5216,"Ġminste":5217,"ĠforsÃ¸ker":5218,"ĠEv":5219,"inde":5220,"ĠData":5221,"28":5222,"Ġsub":5223,"ause":5224,"ĠstrÃ¥":5225,"Ġenhet":5226,"Ġrik":5227,"Ġundervis":5228,"entral":5229,"ese":5230,"Ġinstitusjon":5231,"Ġindre":5232,"enen":5233,"Ġredd":5234,"ĠÃ¸yeblikk":5235,"Ġandel":5236,"ĠtilnÃ¦r":5237,"Ġplassert":5238,"Ġfolket":5239,"ĠSa":5240,"Ġlivs":5241,"Ġsolgt":5242,"yrk":5243,"Ġ<":5244,"Ġhotellet":5245,"ĠhÃ¸rt":5246,"Ġdatamask":5247,"Ġkommentar":5248,"Ġkrigen":5249,"ĠÃ¥pning":5250,"aliteten":5251,"able":5252,"ĠundersÃ¸kelser":5253,"Ġkvart":5254,"Ġpositiv":5255,"Ġinnbyggere":5256,"ĠinnkjÃ¸p":5257,"Ġ45":5258,"Ġkne":5259,"Ġ:-)":5260,"Ġressurs":5261,"Ġpsykisk":5262,"Ġgen":5263,"ĠrÃ¸r":5264,"Ġrekl":5265,"Ġproblemet":5266,"havn":5267,"Ġkrimin":5268,"allet":5269,"Ġmateriale":5270,"ĠKir":5271,"virkning":5272,"ube":5273,"Ġdiagno":5274,"port":5275,"attet":5276,"ĠArk":5277,"rekk":5278,"meldinger":5279,"Ġsmar":5280,"stilt":5281,"vensjon":5282,"Ġavsluttet":5283,":)":5284,"Ġinkluderer":5285,"Ġkontroller":5286,"Ġinternasjonal":5287,"lett":5288,"26":5289,"kontroll":5290,"ĠNoe":5291,"Ġkul":5292,"ĠnÃ¦rmeste":5293,"Ġbehovet":5294,"Ġalkohol":5295,"Ġfremtiden":5296,"Ġfaste":5297,"ĠDram":5298,"virksomhet":5299,"ĠfÃ¸rt":5300,"elling":5301,"Ġklin":5302,"Ġutsikt":5303,"Ġengasjem":5304,"opplysninger":5305,"Ġple":5306,"alsk":5307,"ĠIndustri":5308,"27":5309,"gar":5310,"Ġslekt":5311,"spolit":5312,"struktur":5313,"slig":5314,"Ġhard":5315,"ĠPost":5316,"Ġqu":5317,"Ġinntrykk":5318,"Dag":5319,"atert":5320,"Ġgave":5321,"Ġforvaltning":5322,"slam":5323,"Ġsur":5324,"ĠTot":5325,"kjenn":5326,"Ġsektor":5327,"ksib":5328,"Ġorganisasjonen":5329,"Ġrent":5330,"Ġmotiver":5331,"Ġstrand":5332,"lÃ¸":5333,"ĠÃ¸kende":5334,"dommer":5335,"Ġdikt":5336,"ĠpÃ¥virke":5337,"Ġhuske":5338,"mo":5339,"Ġkristen":5340,"ĠBarne":5341,"Ġovenfor":5342,"ĠforstÃ¥r":5343,"Ġlek":5344,"Ġegnet":5345,"ĠCan":5346,"ace":5347,"ĠlÃ¸y":5348,"Ã¥rs":5349,"esel":5350,"ĠWil":5351,"Ġlevert":5352,"Ġnaturen":5353,"ime":5354,"Ġstein":5355,"Ġverk":5356,"Ġskyld":5357,"Ð½":5358,"ringe":5359,"Ġdekke":5360,"bur":5361,"Ġangrep":5362,"otball":5363,"har":5364,"ĠBod":5365,"ave":5366,"Ġekster":5367,"uter":5368,"Ġmelde":5369,"Av":5370,"Ġstr":5371,"ĠovervÃ¥":5372,"ĠsÃ¥kalte":5373,"Ġlokalt":5374,"Ġbank":5375,"mm":5376,"ĠHus":5377,"Ġlitteratur":5378,"Ġretur":5379,"Noen":5380,"ĠKontakt":5381,"ĠAll":5382,"Ġtyske":5383,"Ġligge":5384,"banen":5385,"Ġopprinnelig":5386,"Ġteknisk":5387,"Ġfaller":5388,"ĠForen":5389,"Ġledende":5390,"ĠChristian":5391,"Ġvalget":5392,"opplev":5393,"obling":5394,"ĠTransport":5395,"Ġlogg":5396,"Ġdriv":5397,"ĠLo":5398,"Ġkjend":5399,"Ġtrekk":5400,"inar":5401,"feltet":5402,"Ġloven":5403,"ĠSÃ¸ker":5404,"ĠLang":5405,"ĠBlant":5406,"Ġdemon":5407,"brukere":5408,"Ġspesiell":5409,"ĠKr":5410,"Ġrevisjon":5411,"wegian":5412,"Ġmistet":5413,"Ġreng":5414,"Ġhverdagen":5415,"Ġleke":5416,"terier":5417,"Ġbatter":5418,"Ġraskere":5419,"rikke":5420,"ĠNM":5421,"Ġetterhvert":5422,"Ġkunstner":5423,"Ġles":5424,"Ġliste":5425,"Ġmarker":5426,"ransjen":5427,"Ġlisten":5428,"Ġoppbe":5429,"Ġforsker":5430,"ĠomrÃ¥dene":5431,"fisk":5432,"Ġmelding":5433,"Ġvisste":5434,"ĠRed":5435,"Ġetablere":5436,"Mange":5437,"ips":5438,"Ġtal":5439,"gavene":5440,"ï¿":5441,"skv":5442,"Ġport":5443,"Ġtol":5444,"Ġpresent":5445,"ĠLondon":5446,"ĠSpesi":5447,"Ġklokken":5448,"ĠPorno":5449,"Ġforekom":5450,"Ġferdigheter":5451,"Ġkategorier":5452,"ĠRog":5453,"NU":5454,"Ġslipper":5455,"vokat":5456,"tar":5457,"80":5458,"Ġmangel":5459,"Ġ190":5460,"29":5461,"onen":5462,"Ġfrist":5463,"igheten":5464,"Ġkryss":5465,"Ġkandid":5466,"Ġsverige":5467,"ĠundersÃ¸kelsen":5468,"Ġutbet":5469,"Ġtide":5470,"Ġsymptom":5471,"ĠFÃ¸rst":5472,"Ġinteresser":5473,"ĠFylkes":5474,"Ġankom":5475,"ĠKjÃ¸pe":5476,"Ġeventuelle":5477,"Ġenige":5478,"OT":5479,"Ã¸rr":5480,"ĠDeretter":5481,"Ġdiv":5482,"oritet":5483,"lÃ¸se":5484,"Ġattrakt":5485,"Ġbutikken":5486,"Ã¦rre":5487,"Ġinvest":5488,"Ġkapasitet":5489,"ligheten":5490,"ï¿½":5491,"ĠnÃ¸ye":5492,"Ġsamfunns":5493,"skil":5494,"dyr":5495,".,":5496,"Ġpreget":5497,"ĠTelefon":5498,"ĠEd":5499,"Ġleil":5500,"imensjon":5501,"Ġansatt":5502,"Ġpapp":5503,"Ġkompet":5504,"Ġkarri":5505,"Ġrapporten":5506,"Ġegg":5507,"Ġbro":5508,"Ġeuropeiske":5509,"rus":5510,"Ġlegen":5511,"ĠInformasjon":5512,"Ġreligion":5513,"Ġviss":5514,"ĠlÃ¦rere":5515,"Ġminne":5516,"ĠEli":5517,"Ã¸vere":5518,"attes":5519,"Ġfungere":5520,"Ġgrun":5521,"Ġdyre":5522,"Ġ2003":5523,"igin":5524,"shem":5525,"ĠmÃ¥le":5526,"ÑĢ":5527,"Ġmangfold":5528,"ãģ":5529,"UN":5530,"rende":5531,"elem":5532,"Ġbakken":5533,"Ġskul":5534,"Ġprodusert":5535,"adem":5536,"ĠForskning":5537,"ĠVM":5538,"Ġdemokrat":5539,"Ġettermid":5540,"Ġtjenesten":5541,"Ġledet":5542,"ĠdÃ¸r":5543,"onne":5544,"ĠBjÃ¸r":5545,"ĠetterpÃ¥":5546,"Ġsjef":5547,"oller":5548,"Ġunderveis":5549,"amin":5550,"Ġkorre":5551,"Ġutel":5552,"Fra":5553,"gel":5554,"ĠBÃ¸":5555,"Ġiniti":5556,"minn":5557,"Ġ193":5558,"ty":5559,"Ġordet":5560,"ival":5561,"ĠGre":5562,"lÃ¸pet":5563,"SE":5564,"rak":5565,"Ġsvare":5566,"basert":5567,"Ġke":5568,"Ġsand":5569,"ĠDagbladet":5570,"Ġopptil":5571,"Ġkaller":5572,"Ġfullstendig":5573,"Ġskriftlig":5574,"bred":5575,"ĠhÃ¥ret":5576,"Ġbutikker":5577,"Ġkle":5578,"orene":5579,"ĠfÃ¸lte":5580,"setninger":5581,"ĠmÃ¸tes":5582,"ĠnÃ¦rmest":5583,"alske":5584,"Ġmedia":5585,"Ġsamling":5586,"Ġtypen":5587,"Ġtank":5588,"sse":5589,"Ġegenskaper":5590,"ĠLog":5591,"lade":5592,"boks":5593,"Ġevaluer":5594,"ĠkjÃ¸rt":5595,"valt":5596,"Ġtyp":5597,"Ġstim":5598,"Ġbarnehagen":5599,"Ġforbi":5600,"Ġveiledning":5601,"Ġomgiv":5602,"Ġsamarbeidet":5603,"Ġsov":5604,"ĠKjem":5605,"merk":5606,"ĠÃ¥nd":5607,"Ġhindre":5608,"anke":5609,"45":5610,"Ġleg":5611,"Ġsterkere":5612,"Ġkirk":5613,"Ġforum":5614,"Ġturer":5615,"ius":5616,"edskap":5617,"Ġmelder":5618,"ned":5619,"Ġpasse":5620,"ĠGam":5621,"Ġbredt":5622,"ĠInstit":5623,"Ġavtalen":5624,"ĠMidt":5625,"Ġdatingsider":5626,"Ġkjed":5627,"Ġpublisert":5628,"ĠpÃ¥virker":5629,"Ġsentralt":5630,"abler":5631,"ĠMus":5632,"ĠPetter":5633,"Ġbeskrevet":5634,"Ġopprettholde":5635,"skjema":5636,"tten":5637,"ĠVeg":5638,"Ġinnspill":5639,"ĠStyret":5640,"ala":5641,"Ġgiftet":5642,"Ġplanen":5643,"Ġtrekker":5644,"Ġpresentere":5645,"Ġadres":5646,"olum":5647,"vic":5648,"rimin":5649,"hev":5650,"ĠJenter":5651,"rapport":5652,"ĠEngland":5653,"Ġgud":5654,"bry":5655,"stjer":5656,"Ġfarlig":5657,"Ġmulige":5658,"ara":5659,"Ġforedrag":5660,"lagte":5661,"Ġfylle":5662,"Ġskaffe":5663,"bi":5664,"Ġmoro":5665,"AM":5666,"skyl":5667,"fatter":5668,"ĠkjÃ¸pes":5669,"misjon":5670,"Ġpil":5671,"ĠhÃ¥p":5672,"Under":5673,"Ġforny":5674,"ativer":5675,"Ġkonsekvenser":5676,"Ġtim":5677,"ĠBl":5678,"setting":5679,"ĠHaug":5680,"Ġspre":5681,"Ġtotal":5682,"Ġ300":5683,"ammer":5684,"cy":5685,"ĠslÃ¥r":5686,"tta":5687,"Ġfritid":5688,"Ġtilgjengelige":5689,"ĠSyn":5690,"Ġgrunner":5691,"Ġhvilket":5692,"stÃ¥tt":5693,"ĠAkershus":5694,"Ġenheter":5695,"ĠProsjekt":5696,"Ġsikrer":5697,"Ġmetoder":5698,"ĠDN":5699,"Ġgaran":5700,"Ġunivers":5701,"Ã¥s":5702,"Ġblomster":5703,"prosjektet":5704,"Ġfru":5705,"Ġfleksib":5706,"ĠThom":5707,"Ġgjer":5708,"ĠMartin":5709,"lege":5710,"ĠMÃ¥l":5711,"ĠNorway":5712,"Ġavdeling":5713,"ĠlÃ¥n":5714,"Ġvondt":5715,"Ġvurderes":5716,"Ġsannsynligvis":5717,"Ġboks":5718,"Ġtvers":5719,"hel":5720,"Ġbrukerne":5721,"Ġinform":5722,"Ġbetaling":5723,"Ġmodell":5724,"ĠNyheter":5725,"Ġni":5726,"Ġstatsb":5727,"90":5728,"Ġhuden":5729,"ommet":5730,"Ġinnovasjon":5731,"LE":5732,"Ġspare":5733,"pan":5734,"Ġnede":5735,"Ġmanglende":5736,"ssam":5737,"kle":5738,"Ġartikkel":5739,"Ġhode":5740,"Ġmiddel":5741,"ĠBet":5742,"--":5743,"analy":5744,"ita":5745,"Ġutmerket":5746,"Ġvert":5747,"The":5748,"ĠKnut":5749,"kkelen":5750,"Ġutarbeidet":5751,"ĠMy":5752,"lie":5753,"olde":5754,"ĠHÃ¸yre":5755,"ront":5756,"sky":5757,"Ġteknolog":5758,"ookies":5759,"ĠinnrÃ¸m":5760,"helse":5761,"âĢ¦]":5762,"ikre":5763,"Ġtillatelse":5764,"Ġdeltar":5765,"Ġminner":5766,"liggende":5767,"Ġkirken":5768,"ĠLeg":5769,"eier":5770,"Ġlands":5771,"ĠbesÃ¸kende":5772,"Ġgjens":5773,"ĠskjÃ¸nner":5774,"ĠFOR":5775,"liste":5776,"ĠAnders":5777,"Ġkravene":5778,"ĠLikevel":5779,"Ġillu":5780,"ĠoppgjÃ¸r":5781,"ĠHand":5782,"hl":5783,"Ġner":5784,"rets":5785,"ĠNAV":5786,"ffer":5787,"mÃ¥let":5788,"Ġnav":5789,"edre":5790,"ialer":5791,"skrig":5792,"iseres":5793,"Ġforhandling":5794,"byen":5795,"Ġmidten":5796,"ĠfÃ¦rre":5797,"habili":5798,"ĠstÃ¸y":5799,"Ġforventet":5800,"70":5801,"Ġpubli":5802,"Ġkreve":5803,"Ġlot":5804,"Ġkreves":5805,"ĠMad":5806,"Ġdelvis":5807,"Ã¸pt":5808,"Ġanalyse":5809,"Ġkombinasjon":5810,"Ġkonstru":5811,"ĠforsÃ¸ke":5812,"ĠReis":5813,"su":5814,"tÃ¸y":5815,"Ġovernatt":5816,"Ġlanser":5817,"Ġorigin":5818,"ĠMens":5819,"idig":5820,"skapsler":5821,"Ġgrenser":5822,"alisere":5823,"Ġavfall":5824,"ĠAnlegg":5825,"Ġsyns":5826,"ander":5827,"Ġbanen":5828,"Ġ1000":5829,"onym":5830,"Ġkg":5831,"ĠBre":5832,"asi":5833,"vesen":5834,"Ġinnh":5835,"idrett":5836,"ĠHo":5837,"Ġeld":5838,"ĠSpÃ¸r":5839,"ĠÃĺkonomi":5840,"Ġprogrammer":5841,"asin":5842,"Ġhtt":5843,"navn":5844,"angel":5845,"ĠInd":5846,"Ġkostnader":5847,"Ġfoku":5848,"ĠAs":5849,"ĠMor":5850,"Ġfotograf":5851,"Ñģ":5852,"Ġasyl":5853,"Hun":5854,"ĠFro":5855,"Ġplanlegging":5856,"autom":5857,"ĠIfÃ¸lge":5858,"posten":5859,"Ġneder":5860,"Ġmerker":5861,"jÃ¸en":5862,"vise":5863,"Ġutgitt":5864,"ktiv":5865,"sex":5866,"Ã´":5867,"lam":5868,"Ġhjul":5869,"Ġpenis":5870,"Ġoppstart":5871,"ĠutfÃ¸res":5872,"Ġrepar":5873,"Ġsold":5874,"Ġtvang":5875,"brit":5876,"kjÃ¸ring":5877,"pert":5878,"Ġsalt":5879,"ĠhÃ¥ndtere":5880,"stÃ¸tte":5881,"Ġfulgt":5882,"ĠforelÃ¸pig":5883,"kurran":5884,"Inn":5885,"Ġfitte":5886,"ĠSak":5887,"Ġutenlandske":5888,"snivÃ¥":5889,"Ġmedarbeidere":5890,"samfunn":5891,"ĠBruker":5892,"Ġavslut":5893,"ĠHau":5894,"Ġwww":5895,"rud":5896,"ĠRob":5897,"etting":5898,"Ġfamili":5899,"Ġideer":5900,"Ġfirma":5901,"Ġbygd":5902,"lagg":5903,"ĠdrÃ¸":5904,"Ġuka":5905,"Ġengasjement":5906,"rering":5907,"Tr":5908,"agelig":5909,"ĠSil":5910,"Ġdommer":5911,"Ġvirksomheter":5912,"ulering":5913,"Ġfelle":5914,"Ġdyp":5915,"ĠMC":5916,"ĠOG":5917,"stol":5918,"agram":5919,"aser":5920,"Ġskiller":5921,"Ġterror":5922,"Ġfjerde":5923,"Ġrelevante":5924,"Ġmotta":5925,"atning":5926,"Ġgalt":5927,"ĠMu":5928,"ions":5929,"Ġbeskriver":5930,"Ġjenta":5931,"arp":5932,"Ġkommunens":5933,"ĠdirektÃ¸r":5934,"Ġvelly":5935,"innen":5936,"Ġarkitekt":5937,"El":5938,"Ġfrig":5939,"Ġjust":5940,"??":5941,"Ġdeltakere":5942,"Ġdef":5943,"Ġlevende":5944,"Ġrapporter":5945,"ĠÃ¸l":5946,"blemer":5947,"ĠArt":5948,"dret":5949,"Ġpga":5950,"ĠHadde":5951,"Ġstudentene":5952,"ĠGu":5953,"jeg":5954,"sko":5955,"ĠBio":5956,"por":5957,"Ġbyer":5958,"Ġkontaktannonser":5959,"leser":5960,"Ġlev":5961,"ting":5962,"rip":5963,"Ġskip":5964,"vidt":5965,"Ġ36":5966,"ĠKvinner":5967,"Ġlinje":5968,"Ġnettside":5969,"ĠKina":5970,"elighet":5971,"ĠvilkÃ¥r":5972,"Ġbyr":5973,"ĠIsrael":5974,"urtig":5975,"Ġvisst":5976,"ryg":5977,"Ġrepresenterer":5978,"ĠForsvar":5979,"Ġdekker":5980,"Ġhendelser":5981,"Ġkommentarer":5982,"ĠBÃ¥t":5983,"Ġpraktiske":5984,"ĠArne":5985,"verktÃ¸y":5986,"Ġdit":5987,"skud":5988,"ĠFrankrike":5989,"stall":5990,"Ġhusker":5991,"Ġbeskytt":5992,"Ġbunn":5993,"gjÃ¸ring":5994,"Ġpersonen":5995,"kommun":5996,"Ġpus":5997,"hen":5998,"Ġserien":5999,"irektoratet":6000,"oms":6001,"Ġtils":6002,"Ġklim":6003,"Ġopprette":6004,"Ġfysiske":6005,"skrav":6006,"Ġvurderer":6007,"ĠST":6008,"lÃ¥r":6009,"oris":6010,"Ġsenter":6011,"spor":6012,"Kj":6013,"Ġsnakk":6014,"Ġkoselig":6015,"ĠnÃ¦ringsliv":6016,"Ġutvide":6017,"personer":6018,"nok":6019,"ĠGro":6020,"urens":6021,"Ġkapittel":6022,"Ġfulgte":6023,"Ġstede":6024,"Ġunike":6025,"ensasjon":6026,"Ġhyl":6027,"Ġkommunest":6028,"Ġkundene":6029,"iat":6030,"Ġflink":6031,"Ġhistorier":6032,"Ġhenger":6033,"Ġplatt":6034,"Ġeffektivt":6035,"Ġhjemmel":6036,"ĠpÃ¥pe":6037,"Ġkonfer":6038,"Ġartikler":6039,"systemet":6040,"Ġnasjonalt":6041,"Ġskru":6042,"Ġdobbelt":6043,"api":6044,"Ġbrudd":6045,"ĠPart":6046,"britann":6047,"Ġsig":6048,"ĠMÃ¥let":6049,"Ġkreditt":6050,"01":6051,"Ġfaglige":6052,"Ã¸tter":6053,"Ġky":6054,"Ġforeligger":6055,"Ġinnstilling":6056,"Ġnaturlige":6057,"oten":6058,"Ġromant":6059,"Ġlangsiktig":6060,"valget":6061,"ĠiP":6062,"serien":6063,"ama":6064,"Ġbistand":6065,"ĠforegÃ¥r":6066,"ĠStore":6067,"Ġsvensk":6068,"Ġmobilt":6069,"partiet":6070,"Ġball":6071,"aden":6072,"Ã¸mmer":6073,"Ġinstall":6074,"Ġslippe":6075,"99":6076,"ĠPaul":6077,"ĠMe":6078,"Ġenig":6079,"ĠmarkedsfÃ¸ring":6080,"Ã¸rte":6081,"Ġpedagog":6082,"ĠUniversitetet":6083,"orld":6084,"Ġvinteren":6085,"Ġmorsomt":6086,"Ġkonflikt":6087,"ĠArbeidsm":6088,"Ġulov":6089,"Ġerotikk":6090,"Ġkvinnen":6091,"che":6092,"Ġbeskytte":6093,"sreg":6094,"Ġlurer":6095,"rop":6096,"mos":6097,"skraft":6098,"fi":6099,"emid":6100,"Ġfengsel":6101,"Ġforklarer":6102,"ĠAu":6103,"Ġgeneral":6104,"Ġterreng":6105,"mentert":6106,"ĠMag":6107,"Ġareal":6108,"Ã¸ft":6109,"ĠgjennomgÃ¥":6110,"Se":6111,"ĠLitt":6112,"Ġfortj":6113,"Ġnevne":6114,"iverse":6115,"Ġkorte":6116,"ĠBra":6117,"kamp":6118,"ĠPeder":6119,"ĠCO":6120,"eleder":6121,"oppgaver":6122,"frika":6123,"ĠNÃ¸d":6124,"Ġros":6125,"ĠHed":6126,"Ġvokser":6127,"Ġgle":6128,"rÃ¥ket":6129,"bler":6130,"35":6131,"Ġdekket":6132,"Ġgrunnen":6133,"Ġspiser":6134,"ĠVÃ¥re":6135,"Ġslet":6136,"Ġkommunale":6137,"Ġdus":6138,"ĠKristiansand":6139,"Ġlen":6140,"Ġbedt":6141,"Ġkontor":6142,"ĠUtdanning":6143,"Ġkonkrete":6144,"Ġhelset":6145,"ĠgÃ¥rd":6146,"ĠamatÃ¸r":6147,"Ġavde":6148,"sby":6149,"innet":6150,"jeringen":6151,"ketÃ¸y":6152,"Ġpul":6153,"Ġsliter":6154,"system":6155,"Ġperspekt":6156,"Ġbefinner":6157,"ĠVÃ¦r":6158,"Ġsju":6159,"Ġreligi":6160,"Ġ2001":6161,"alisert":6162,"Ġerotisk":6163,"sre":6164,"illing":6165,"ĠIdrett":6166,"iluft":6167,"gren":6168,"uerlig":6169,"ĠnÃ¸yaktig":6170,"drift":6171,"Ġherunder":6172,"ĠYork":6173,"Ġkrevende":6174,"Ġvelferd":6175,"ĠbesÃ¸ker":6176,"ĠOlsen":6177,"aking":6178,"Ġsvarer":6179,"Ġfordeler":6180,"Ġhjertet":6181,"Ġnydelig":6182,"ona":6183,"Ġ2002":6184,"Ġfrivillige":6185,"god":6186,"Ġmester":6187,"Ġforster":6188,"Ġbetalt":6189,"Ġnettbutikk":6190,"Ġmyndighetene":6191,"Ġgjennomgang":6192,"Ð¾Ð":6193,"Ġsyntes":6194,"Ġtingene":6195,"Ġdaglige":6196,"ĠtrÃ¥":6197,"jeld":6198,"Ġkritikk":6199,"lend":6200,"Ġarrangert":6201,"Ġinitiativ":6202,"illet":6203,"Ġ[âĢ¦]":6204,"alinger":6205,"ĠVide":6206,"ĠlÃ¸per":6207,"Ġstyrem":6208,"Ġparkering":6209,"Ġstrategi":6210,"Ġtreffe":6211,"Ġmaksim":6212,"Ġmaster":6213,"Ġindust":6214,"Ġnest":6215,"jÃ¸re":6216,"Ġdreier":6217,"enhet":6218,"Ġsykeple":6219,"kser":6220,"ĠFiske":6221,"ĠMark":6222,"Ġidag":6223,"ĠOrd":6224,"Ġnegative":6225,"Ġuttal":6226,"ĠAb":6227,"Ġfortsatte":6228,"Dersom":6229,"ikro":6230,"Ġforebygg":6231,"Ġpat":6232,"istene":6233,"ĠMenn":6234,"Ġopprinnelige":6235,"Ġtale":6236,"Ġdvs":6237,"litter":6238,"Ġrike":6239,"lÃ¸sning":6240,"deren":6241,"ĠÃ¸yne":6242,"Ġfunn":6243,"ational":6244,"Ġasi":6245,"Ġfi":6246,"Ġutgifter":6247,"Ġsmerte":6248,"lÃ¥n":6249,"Ġoppgaven":6250,"ams":6251,"ĠbÃ¦r":6252,"Ġkaffe":6253,"minister":6254,"Ġverken":6255,"Ġboliger":6256,"Ġutvidet":6257,"Ġrutiner":6258,"amet":6259,"datter":6260,"Ġintens":6261,"likevel":6262,"Ġutforske":6263,"ĠUtvik":6264,"Ġengang":6265,"speri":6266,"inere":6267,"Ġsunn":6268,"Ġmatem":6269,"Ġskapt":6270,"Ġkampan":6271,"ollar":6272,"Ġforskere":6273,"Ġbokstav":6274,"igh":6275,"Ġtyn":6276,"Ġbehandle":6277,"Ġaltfor":6278,"ĠQu":6279,"ya":6280,"Ġvisse":6281,"ric":6282,"ĠBen":6283,"Ġalvorlige":6284,"rin":6285,"IfÃ¸lge":6286,"ĠKlikk":6287,"Ġepis":6288,"Ġmengder":6289,"ĠprÃ¸vde":6290,"ĠVik":6291,"Ġballen":6292,"Ġsykdommer":6293,"Ġdei":6294,"Ġopptak":6295,"ome":6296,"ĠJÃ¸r":6297,"ute":6298,"ĠmiljÃ¸et":6299,"send":6300,"Ġsjeld":6301,"Ġminimum":6302,"cc":6303,"ĠGrunn":6304,"isa":6305,"ĠJobb":6306,"rafikken":6307,"ĠundersÃ¸ke":6308,"ertif":6309,"kehus":6310,"Ġkilometer":6311,"Ġnatten":6312,"stikk":6313,"Ġfan":6314,"PP":6315,"Ġstruktur":6316,"skilt":6317,"ĠBla":6318,"ĠstÃ¸rst":6319,"Ġalbum":6320,"Ġregne":6321,"Ġleter":6322,"ĠHvorfor":6323,"ĠVe":6324,"ĠleverandÃ¸r":6325,"Ġkilder":6326,"ĠGenerisk":6327,"melt":6328,"ĠAnd":6329,"asjen":6330,"ĠSing":6331,"Ġhalvparten":6332,"Ġsene":6333,"ĠLy":6334,"Ġmek":6335,"Ġnettdating":6336,"Ġtildelt":6337,"Ġstoppe":6338,"sarbeid":6339,"stu":6340,"Ġsammenlignet":6341,"Ġfeir":6342,"Ġfylt":6343,"Ġforklare":6344,"ĠBa":6345,"Ġdan":6346,"givere":6347,"Ġsosialt":6348,"inert":6349,"Ġheldigvis":6350,"ĠEsc":6351,"ola":6352,"ansvarlig":6353,"Ġhovedsakelig":6354,"Ġmaten":6355,"Ġinvolvert":6356,"Ġdans":6357,"Ġoppover":6358,"âĢĿ,":6359,"ĠJohann":6360,"ĠIN":6361,"forskning":6362,"Ġutfordring":6363,"ĠVal":6364,"klubb":6365,".-":6366,"VÃ¥r":6367,"Ġkontra":6368,"Ġtilstand":6369,"ĠSuper":6370,"dommen":6371,"kningen":6372,"Ġomtale":6373,"Ġrolig":6374,"ĠprÃ¸vd":6375,"Ġregistrere":6376,"Ġdrar":6377,"Ġ33":6378,"ĠDav":6379,"sjonen":6380,"smidler":6381,"Ġna":6382,"ĠavgjÃ¸re":6383,"ĠMann":6384,"hengige":6385,"ĠForsikring":6386,"Ġspurte":6387,"Ġoffis":6388,"Ġbre":6389,"Ġresul":6390,"ĠÃ¸r":6391,"Ġlikte":6392,"ĠFrem":6393,"ĠOb":6394,"forbundet":6395,"fÃ¸rsel":6396,"osof":6397,"Ġutdannings":6398,"ykker":6399,"hÃ¸rer":6400,"Ġpresentert":6401,"Ġbehandlingen":6402,"Ġherlig":6403,"skol":6404,"Ġlette":6405,"Ġsamtale":6406,"ĠVÃ¥":6407,"Ġarter":6408,"ĠNye":6409,"foretak":6410,"Ġfeltet":6411,"Ġhit":6412,"ammen":6413,"ĠTakk":6414,"Ġnevnte":6415,"skrifter":6416,"ĠRa":6417,"Ġprofesjonelle":6418,"orden":6419,"bytte":6420,"Ġkoster":6421,"Ġavstand":6422,"ĠHusk":6423,"ĠRiksrevisjon":6424,"britannia":6425,"itivt":6426,"ĠDrammen":6427,"Ġstreng":6428,"Ġmorsom":6429,"spillet":6430,"ĠDessuten":6431,"avtale":6432,"Ġstasjon":6433,"Re":6434,"75":6435,"Ġtriv":6436,"ĠinngÃ¥r":6437,"Ġ!":6438,"Ġgrundig":6439,"skelige":6440,"ĠleverandÃ¸rer":6441,"Ġmenneskene":6442,"Ġgrep":6443,"Ġutnytte":6444,"Ġset":6445,"Ġytre":6446,"ĠbÃ¥ten":6447,"Ġavtaler":6448,"Ġau":6449,"ĠTrykk":6450,"istan":6451,"ual":6452,"ĠMel":6453,"Ġrart":6454,"ĠOL":6455,"Ġkonst":6456,"Ġkonsekvens":6457,"Ġinnskudd":6458,"ĠmÃ¸nster":6459,"ĠMedisin":6460,"Ġtilknytning":6461,"Ġbestemmer":6462,"Ġrepresentanter":6463,"kÃ¥rene":6464,"Ġmedlemmene":6465,"ĠNTB":6466,"blogg":6467,"Ġsove":6468,"Ġpause":6469,"Ġdeltag":6470,"appar":6471,"Ġbedriften":6472,"Ġfrivillig":6473,"Ġforskjeller":6474,"ĠNTNU":6475,"saken":6476,"kende":6477,"film":6478,"ĠfÃ¸les":6479,"Ġvelkommen":6480,"hi":6481,"ĠÃĺstfold":6482,"Ġfrihet":6483,"ema":6484,"Ġpartene":6485,"ctor":6486,"rut":6487,"biler":6488,"Ġinnsikt":6489,"Ġmodeller":6490,"Ġfordelt":6491,"alj":6492,"ĠElektron":6493,"Ġulik":6494,"merker":6495,"Ġkone":6496,"vitt":6497,"Ġovergang":6498,"kurs":6499,"ĠlÃ¸sningen":6500,"ĠlÃ¦rt":6501,"Ġansett":6502,"Ġkommende":6503,"ĠNÃ¦ring":6504,"ĠJohan":6505,"ĠÃĺvrige":6506,"ĠDi":6507,"Ja":6508,"Ġsteg":6509,"Ġskille":6510,"Ġoppgrader":6511,"ksen":6512,"result":6513,"act":6514,"Ġreglene":6515,"ony":6516,"ĠVan":6517,"Ġoftest":6518,"ĠLag":6519,"eldigvis":6520,"Ġinnfly":6521,"Ġgate":6522,"Ġdiskusjon":6523,"poeng":6524,"Ġgyl":6525,"Ġkontinuerlig":6526,"Ġinteressante":6527,"ĠKlÃ¦r":6528,"last":6529,"Ġturist":6530,"Ġmotsetning":6531,"ĠHvil":6532,"ĠrÃ¸de":6533,"beveg":6534,"Ġkvalitets":6535,"Ġtilbudet":6536,"Ġxxx":6537,"Ġigang":6538,"ioder":6539,"ĠnÃ¥vÃ¦rende":6540,"Ġgrunnlaget":6541,"ĠVen":6542,"Ġpupper":6543,"produkter":6544,"Ġobserv":6545,"gin":6546,"ĠGar":6547,"holdes":6548,"ĠRapp":6549,"Ġregnes":6550,"klÃ¦r":6551,"makt":6552,"ĠBegge":6553,"skoler":6554,"ĠsÃ¸rger":6555,"ĠArbeids":6556,"Ġdens":6557,"grens":6558,"Ġgjester":6559,"RI":6560,"Bru":6561,"ĠFÃ¸rste":6562,"dem":6563,"Ġbonus":6564,"sprÃ¥k":6565,"Ġbevil":6566,"Ġtekster":6567,"ktene":6568,"Ġforeg":6569,"Ġkvinnene":6570,"Ġsamarbeidspart":6571,"Ġhemmelig":6572,"Ġeventyr":6573,"Ġhavet":6574,"ivalen":6575,"esund":6576,"vennlig":6577,"apan":6578,"ĠhjÃ¸r":6579,"settelse":6580,"Ġforholdene":6581,"ĠOdd":6582,"ikerne":6583,"Ġkastet":6584,"AG":6585,"Ġregnet":6586,"Ġobser":6587,"inav":6588,"Ġselvstendig":6589,"ĠBli":6590,"skrivelse":6591,"senteret":6592,"Ġopplysningene":6593,"Ġregistrering":6594,"ĠInteriÃ¸r":6595,"Ġanses":6596,"ĠmedfÃ¸rer":6597,"retning":6598,"elset":6599,"Ġsjansen":6600,"eloven":6601,"mi":6602,"Ġlikt":6603,"ĠTw":6604,"Ġhil":6605,"ĠDin":6606,"Ġgev":6607,"Ġsies":6608,"Ġreal":6609,"ĠFritid":6610,"ĠsÃ¸te":6611,"ĠHansen":6612,"Ġ34":6613,"Ġfjellet":6614,"atten":6615,"Ġkonkurransen":6616,"ommer":6617,"stede":6618,"Ġvilje":6619,"ĠfÃ¸lelse":6620,"hy":6621,"Ġspar":6622,"Ġstikk":6623,"Ġfellesskap":6624,"Ġproduksjonen":6625,"Ġkritisk":6626,"ĠstÃ¥l":6627,"aket":6628,"Ġmeldinger":6629,"Ġmaskin":6630,"Ġjuster":6631,"holm":6632,"slut":6633,"Ġfaren":6634,"smÃ¥":6635,"Ġomfang":6636,"TV":6637,"Ġreiste":6638,"Ġproduktene":6639,"Ġutstilling":6640,"inerer":6641,"Ġ150":6642,"iland":6643,"iru":6644,"Ã¡":6645,"Ġmult":6646,"Ġiverks":6647,"ĠBeste":6648,"ulerer":6649,"Ġbelast":6650,"Ġmyndighet":6651,"Ġtestet":6652,"Ġanbefale":6653,"EM":6654,"Ġproduktet":6655,"Ikke":6656,"Ġdollar":6657,"stekn":6658,"Ġkvaliteten":6659,"Ġredde":6660,"Ġavdel":6661,"Ġkonto":6662,"Ġ32":6663,"Ġidentitet":6664,"Ġoverord":6665,"lÃ¸st":6666,"ĠinnfÃ¸rt":6667,"Ġperfekte":6668,"Ġpan":6669,"entur":6670,"Ġvurderinger":6671,"ĠFarm":6672,"Ġbygning":6673,"ffekter":6674,"skaff":6675,"ministrasjon":6676,"amme":6677,"skuddet":6678,"mand":6679,"ĠvÃ¥k":6680,"ĠFer":6681,"Ġhjemmet":6682,"okument":6683,"Ġleveres":6684,"ĠHÃ¸g":6685,"Reg":6686,"Ġklat":6687,"Ġhandel":6688,"Ġmulighetene":6689,"ĠSelskapet":6690,"stjenester":6691,"ilder":6692,"Ġriktige":6693,"Ġenorm":6694,"Ġdeltakelse":6695,"ĠPlan":6696,"lands":6697,"Ġalders":6698,"Ġstatistikk":6699,"ĠsÃ¸lv":6700,"ĠÃ¥penbart":6701,"Ġekstremt":6702,"ĠmÃ¸rke":6703,"ows":6704,"ĠSkjÃ¸nn":6705,"date":6706,"ansene":6707,"Ġutvalget":6708,"ĠEner":6709,"vernet":6710,"ĠBeg":6711,"Ġoverfl":6712,"Ġgrens":6713,"Ġ?":6714,"skon":6715,"kking":6716,"ĠbelÃ¸p":6717,"Ġkvinnelige":6718,"US":6719,"ĠFigur":6720,"Ġgenerelle":6721,"still":6722,"Ġbygges":6723,"ĠVir":6724,"espÃ¸r":6725,"Ġerstat":6726,"ĠPorn":6727,"Ã¥n":6728,"Ġutse":6729,"vanlig":6730,"baserte":6731,"ĠMassasje":6732,"Ġtrygge":6733,"Ġrammer":6734,"tting":6735,"vo":6736,"Ġivareta":6737,"service":6738,"Ġforhin":6739,"Ġsw":6740,"Ġledelsen":6741,"ĠBro":6742,"Ġford":6743,"KS":6744,"Ġgodkjenning":6745,"ĠAnn":6746,"Ġdeltakerne":6747,"Ġkompon":6748,"ĠPris":6749,"personell":6750,"ĠJac":6751,"ĠforsÃ¸kt":6752,"somhet":6753,"Ġtallet":6754,"ĠArbeider":6755,"kse":6756,"sinn":6757,"Ġopplyser":6758,"stiden":6759,"Ã¸mte":6760,"ĠnÃ¦rmer":6761,"Ġsingel":6762,"akene":6763,"Ġforventninger":6764,"melige":6765,"Ġsvak":6766,"Ġbestemme":6767,"adet":6768,"ĠKunnskap":6769,"fÃ¸lgende":6770,"Ġprodusere":6771,"ĠLov":6772,"lubb":6773,"Ġturner":6774,"ĠFly":6775,"ĠIS":6776,"gÃ¥rd":6777,"sla":6778,"Ġverne":6779,"Ġstrid":6780,"Ġgifte":6781,"asÃ¸yt":6782,"ĠjÃ¸d":6783,"Ġfortalt":6784,"Ġeldste":6785,"Ġpresenter":6786,"Ġislam":6787,"Ġsof":6788,"ĠdÃ¥rlige":6789,"Ġbritiske":6790,"Ġavgift":6791,"ĠParis":6792,"Ġplassen":6793,"Ġtonn":6794,"Ġlavt":6795,"Ġengasjer":6796,"Ġovers":6797,"ĠMet":6798,"ĠDrikke":6799,"ighetene":6800,"Ġsant":6801,"Ġelementer":6802,"ĠThai":6803,"Ġskrem":6804,"ĠBodÃ¸":6805,"ogra":6806,"ĠSV":6807,"ĠBor":6808,"geb":6809,"Ġnedover":6810,"Ġverdenskrig":6811,"Ġovergrep":6812,"Ġelektronisk":6813,"Ġsambo":6814,"ĠThomas":6815,"valgte":6816,"Ġfjern":6817,"ksjonene":6818,"ĠTur":6819,"ĠnÃ¸dvendigvis":6820,"ĠKap":6821,"Ġrisikoen":6822,"Ġutelu":6823,"ĠTroms":6824,"andinav":6825,"Ġhast":6826,"Ġsite":6827,"Ġadministrat":6828,"Be":6829,"Ġsystemer":6830,"rommet":6831,"ĠMedier":6832,"Ġhoteller":6833,"ĠFolke":6834,"Ġklikk":6835,"edal":6836,"sevne":6837,"Ġryggen":6838,"ĠSto":6839,"tegr":6840,"ĠEngros":6841,"Ġrene":6842,"undersÃ¸kelse":6843,"atch":6844,"Ġaksje":6845,"Ġekskl":6846,"Ã¸ks":6847,"isteret":6848,"bÃ¸r":6849,"rykket":6850,"Ġ75":6851,"Ġdiverse":6852,"Ġeleven":6853,"vene":6854,"Ġstolt":6855,"Ġutenom":6856,"Ġoverbe":6857,"ĠAntall":6858,"Ġinformasjonskapsler":6859,"barhet":6860,"ĠbesÃ¸kte":6861,"ktighet":6862,"ĠUnivers":6863,"Ġborger":6864,"Ġ400":6865,"Ġlandene":6866,"bildet":6867,"ĠarbeidsmiljÃ¸":6868,"Ġkines":6869,"Ġtjenestene":6870,"Ġberegnet":6871,"unden":6872,"ĠAnder":6873,"esse":6874,"Ġteksten":6875,"Ġopplevde":6876,"Ġlave":6877,"Ġteste":6878,"uttet":6879,"Ġfamilier":6880,"Ġsamler":6881,"Ġdesignet":6882,"ĠKarl":6883,"Ġpappa":6884,"Ġflertall":6885,"sst":6886,"Ġplikt":6887,"Ġbegrunn":6888,"Ġfjernet":6889,"ĠFree":6890,"Ġanbefales":6891,"Ġprofessor":6892,"Ġinstitusjoner":6893,"Ġpluss":6894,"ĠBel":6895,"ĠHell":6896,"ĠinngÃ¥tt":6897,"Ġsjekket":6898,"Ġhistoriske":6899,"ĠGa":6900,"Ġsover":6901,"ĠErot":6902,"ĠReiseliv":6903,"Ġmottar":6904,"ĠâĢ¢":6905,"aren":6906,"Ġender":6907,"eres":6908,"ĠMye":6909,"stiltak":6910,"ĠThor":6911,"adresse":6912,"jennom":6913,"09":6914,"ĠLandbruk":6915,"ordning":6916,"Ġbehandles":6917,"jern":6918,"Ġettermiddag":6919,"Ġsving":6920,"ĠUkjent":6921,"elet":6922,"aterte":6923,"ĠSpania":6924,"ĠValg":6925,"uta":6926,"ĠbÃ¸l":6927,"Ġjurid":6928,"foreningen":6929,"Ġtverr":6930,"ĠMal":6931,"ĠLogistikk":6932,"ĠSÃ¸knad":6933,"Ġmenneskerett":6934,"Ġbursdag":6935,"Ġregionale":6936,"ĠFolk":6937,"Ġtrygghet":6938,"Ġlansert":6939,"tokoll":6940,"Ġoppfordrer":6941,"ĠHÃ¸":6942,"Ġmetode":6943,"ynam":6944,"givning":6945,"AP":6946,"organisasjon":6947,"Ġglade":6948,"ĠFinnmark":6949,"Ġviktigere":6950,"ĠOffentlige":6951,"akult":6952,"Ġkilde":6953,"ira":6954,"ited":6955,"ĠtÃ¸rr":6956,"vart":6957,"ĠutfÃ¸rer":6958,"Ġsekunder":6959,"prosjekter":6960,"Ġforsikring":6961,"egrupp":6962,"behov":6963,"brett":6964,"anti":6965,"Ġtakket":6966,"Ġallmenn":6967,"messige":6968,"Ġsmart":6969,"Ġusikker":6970,"Ġholdes":6971,"dalen":6972,"ria":6973,"Ġstilte":6974,"ĠNOK":6975,"tende":6976,"amper":6977,"ague":6978,"EG":6979,"ĠinteriÃ¸r":6980,"Ġlikestilling":6981,"Ġbryllu":6982,"ĠLiv":6983,"Ġimponer":6984,"Kan":6985,"strer":6986,"ĠEid":6987,"Ġstoppet":6988,"ĠMedlem":6989,"ĠsÃ¸knaden":6990,"engde":6991,"ĠGran":6992,"Ġdigital":6993,"Ġnormal":6994,"Ġforholde":6995,"ĠbÃ¸kene":6996,"atsen":6997,"Ġinspirert":6998,"Ġbestemmelser":6999,"skost":7000,"kobling":7001,"Ġforslaget":7002,"enom":7003,"Ġstyring":7004,"AD":7005,"Ġsenior":7006,"leverand":7007,"Ġgrense":7008,"Ġoppbevar":7009,"Ġspillerne":7010,"ĠUansett":7011,"Ġag":7012,"Ġtemaet":7013,"Ġvellykket":7014,"Ġantallet":7015,"Ġnoens":7016,"opper":7017,"Ġlunsj":7018,"myndig":7019,"imer":7020,"osjon":7021,"Ġhull":7022,"Ġskilt":7023,"ĠForel":7024,"Ġverre":7025,"Ġbetrakt":7026,"Ġcan":7027,"Ġhjemmeside":7028,"Ġrehabili":7029,"Ġsjanse":7030,"Ġmengde":7031,"regn":7032,"inerte":7033,"ĠgrÃ¸nne":7034,"Ġutarbeide":7035,"ĠpopulÃ¦rt":7036,"Ġbegren":7037,"okus":7038,"Ġnorway":7039,"ĠstÃ¥tt":7040,"ĠnÃ¦rt":7041,"EF":7042,"Ġhj":7043,"aktÃ¸r":7044,"fre":7045,"ĠIng":7046,"Ġframtid":7047,"veksling":7048,"likket":7049,"ĠTrump":7050,"Ġkravet":7051,"Ġrus":7052,"Ġstyrker":7053,"Ġminutt":7054,"pas":7055,"nsker":7056,"ĠforeslÃ¥r":7057,"Ġforsik":7058,"Ġarrangement":7059,"Ġsidene":7060,"Ġdum":7061,"arch":7062,"Ġkjemp":7063,"arter":7064,"Ġslutte":7065,"Ġarbeidslivet":7066,"Ġparti":7067,"Ġspred":7068,"ĠSj":7069,"ĠStyr":7070,"teknologisk":7071,"Ġpersonopplysninger":7072,"omrÃ¥dene":7073,"Ġseksuelle":7074,"Ġbetaler":7075,"behÃ¸r":7076,"Ġhunder":7077,"Ġseil":7078,"ĠDat":7079,"Ġdimensjon":7080,"user":7081,"Ġtilpasse":7082,"Ġdanske":7083,"Ġoblig":7084,"Ġvarmt":7085,"Ġberedskap":7086,"Ġbransjen":7087,"Ġserie":7088,"Ġsikret":7089,"abell":7090,"planen":7091,"yer":7092,"Ġmikro":7093,"Ġektef":7094,"ĠdÃ¸mt":7095,"anken":7096,"Ġaksjer":7097,"Ġfattig":7098,"ĠTekn":7099,"rise":7100,"prisen":7101,"stasjon":7102,"ĠUi":7103,"ega":7104,"Ġapotek":7105,"elemark":7106,"Ã¸ye":7107,"splikt":7108,"Ġhender":7109,"angementer":7110,"ĠlÃ¸fte":7111,"ĠGunn":7112,"programmet":7113,"kretÃ¦r":7114,"bilde":7115,"Ġpassasjer":7116,"Ġed":7117,"ĠHele":7118,"Ġske":7119,"Ġskriv":7120,"Ġdrevet":7121,"Ġjub":7122,"flu":7123,"Ġuen":7124,"ĠSig":7125,"Ġkonsept":7126,"ĠsÃ¸t":7127,"Ġvirket":7128,"Ġvanskelige":7129,"ini":7130,"Ġkonkl":7131,"filmer":7132,"kultur":7133,"renn":7134,"Ġopphav":7135,"Ġanlegget":7136,"Ġlat":7137,"Vis":7138,"Ġsertif":7139,"ĠKjemisk":7140,"Ġtotale":7141,"Ġskjermen":7142,"ĠLind":7143,"Ġmilf":7144,"veier":7145,"Ġvedlegg":7146,"Ġfriluft":7147,"Ġbeholde":7148,"Ġmagen":7149,"ĠCity":7150,"ĠMod":7151,"ĠÃ¥rlige":7152,"Ġoppgitt":7153,"Ġutfordrende":7154,"36":7155,"faglig":7156,"Ġpasienten":7157,"Ġarbeidstaker":7158,"ĠUnderholdning":7159,"Ġ1990":7160,"Ġvegne":7161,"Ġbrukeren":7162,"Ġprofiler":7163,"Ġsirk":7164,"entre":7165,"ĠVÃ¥rt":7166,"asert":7167,"politikk":7168,"ĠElektronikk":7169,"Ġskogen":7170,"ĠPeter":7171,"Ġende":7172,"Ġvakt":7173,"Ġkurset":7174,"odene":7175,"Ġentrepren":7176,"asÃ¸ytisk":7177,"ĠSki":7178,"opping":7179,"ĠdÃ¸pt":7180,"Ġnom":7181,"Ġkunden":7182,"ĠCon":7183,"lyst":7184,"Ġhovedstad":7185,"ĠÃ¸ya":7186,"ĠHÃ¥per":7187,"Ġnu":7188,"Ġmotivasjon":7189,"Ġvarierer":7190,"ley":7191,"Ġengasjert":7192,"ĠDetalj":7193,"ementet":7194,"ĻĤ":7195,"Ġretter":7196,"Ġaksjon":7197,"Ġdog":7198,"Ġbefolkning":7199,"Ġklage":7200,"Ġredig":7201,"Ġkarriere":7202,"vard":7203,"frastruktur":7204,"Ġteater":7205,"opplÃ¦ring":7206,"klart":7207,"iert":7208,"Ġanled":7209,"Ġtysk":7210,"ĠWeb":7211,"ĠRiksrevisjonens":7212,"Ġregionen":7213,"Ġflu":7214,"klokke":7215,"Ġreser":7216,"ĠetterspÃ¸r":7217,"ĠItalia":7218,"Ġutforming":7219,"ĠStorbritannia":7220,"mater":7221,"Ġeffektive":7222,"rog":7223,"ullet":7224,"ĠSw":7225,"Ġsort":7226,"ska":7227,"ĠArbeidsmarked":7228,"Ġforskjellen":7229,"ĠsÃ¥pass":7230,"que":7231,"fang":7232,"olig":7233,"ĠidÃ©":7234,"Ġforbe":7235,"Ġsykdommen":7236,"Ġhunden":7237,"Ġforretnings":7238,"Ġnettleser":7239,"Ġliksom":7240,"ĠWe":7241,"ssystem":7242,"inerende":7243,"ĠPe":7244,"ĠStart":7245,"Ġreflekter":7246,"Ġoppdage":7247,"Ġlikhet":7248,"menne":7249,"Ġoverrasket":7250,"ĠRett":7251,"ĠNei":7252,"Ġorganisert":7253,"Ġfrokost":7254,"rolig":7255,"ĠLev":7256,"Ã¸nder":7257,"ĠVelv":7258,"Ġstillinger":7259,"Ġsendte":7260,"byrÃ¥":7261,"Ġsluttet":7262,"ĠHÃ¥ndverk":7263,"ĠNO":7264,"ĠProgram":7265,"ĠSkjÃ¸nnhet":7266,"Ġtakt":7267,"Ġtolk":7268,"ĠAlex":7269,"Ġpartiet":7270,"Ġbordet":7271,"Ġsykehuset":7272,"ismen":7273,"Ġsamarbeide":7274,"Ġutgave":7275,"Ġtrengte":7276,"Ġtusenvis":7277,"gjen":7278,"minar":7279,"ĠOrganisasjoner":7280,"Ġrulle":7281,"Ġ38":7282,"ĠEngroshandel":7283,"Ġinformer":7284,"Ġ37":7285,"ĠKvinne":7286,"ĠâĢĶ":7287,"Ġvanskeligere":7288,"press":7289,"Ġfasts":7290,"ĠnÃ¸dt":7291,"ĠBon":7292,"Ġsyv":7293,"data":7294,"Ġregulering":7295,"Ġorden":7296,"ĠVelvÃ¦re":7297,"oli":7298,"cu":7299,"Ġhandlinger":7300,"Ġselskapets":7301,"irur":7302,"otter":7303,"ĠSkogbruk":7304,"Ġskuespiller":7305,"Ġforeta":7306,"ÃĺS":7307,"ĠdrÃ¸mmer":7308,"ĠHos":7309,"ikasjoner":7310,"Ġoverraskende":7311,"ĠLok":7312,"Ġhurtig":7313,"Ġskjerm":7314,"Ġprosed":7315,"Ġmedisinsk":7316,"Ġarena":7317,"edrift":7318,"Ġstavanger":7319,"Ġprosesser":7320,"05":7321,"Ġoperasjon":7322,"Ġvand":7323,"edlemmer":7324,"ĠStra":7325,"Ġmillion":7326,"ĠForeninger":7327,"NT":7328,"Ġ188":7329,"Ġsinn":7330,"ĠDere":7331,"Ãĥ":7332,"fullt":7333,"Ġsites":7334,"Ġeksklus":7335,"Ġprog":7336,"Siden":7337,"smiljÃ¸":7338,"Ġalternativer":7339,"ĠAp":7340,"feksjon":7341,"Ġ189":7342,"nden":7343,"Ġutvalgte":7344,"ĠskjÃ¸":7345,"ĠSal":7346,"Ġwh":7347,"Ġforetatt":7348,"forn":7349,"Ġandres":7350,"fÃ¸rings":7351,"arkedet":7352,"Ġklokka":7353,"Ġorientering":7354,"rister":7355,"ĠLO":7356,"Ġfornuft":7357,"Ġverste":7358,"Ġimple":7359,"ĠHarald":7360,"olje":7361,"ĠFarmasÃ¸ytisk":7362,"VE":7363,"ĠlÃ¥ne":7364,"Man":7365,"Ġnys":7366,"Ġorg":7367,"Ġlevering":7368,"kere":7369,"Ġfacebook":7370,"ĠSim":7371,"ĠsÃ¸vn":7372,"ĠNÃ¦ringsmiddel":7373,"melen":7374,"produs":7375,"ĠAut":7376,"Ġfulle":7377,"ĠAften":7378,"ĠbÃ¦rer":7379,"abet":7380,"FO":7381,"Ġbuss":7382,"Ġintegr":7383,"Ġvirkeligheten":7384,"hop":7385,"HO":7386,"ĠLeague":7387,"Ġinvolver":7388,"ĠmilitÃ¦r":7389,"Ġsmil":7390,"ĠPri":7391,"ĠBioteknologisk":7392,"ĠspÃ¸rsmÃ¥lene":7393,"splass":7394,"ĠTelefoni":7395,"famil":7396,"ĠkjÃ¸kkenet":7397,"Ġprogramvare":7398,"Ġfranske":7399,"resten":7400,"ĠmÃ¥ltid":7401,"ĠVI":7402,"Ġmiste":7403,"illa":7404,"mosf":7405,"ĠMaria":7406,"riksen":7407,"ĠðŁĻĤ":7408,"Ġregi":7409,"33":7410,"ĠNe":7411,"abelt":7412,"ĠgrÃ¸nnsaker":7413,"faring":7414,"Ġindusti":7415,"ĠdÃ¥rligere":7416,"Ġmaterialer":7417,"ĠÃ¦rlig":7418,"ĠNÃ¸dnummer":7419,"ĠMagn":7420,"Ġmaler":7421,"Ġsum":7422,"Ġforurens":7423,"hot":7424,"ĠoppfÃ¸rt":7425,"smod":7426,"Ã¥pentlig":7427,"str":7428,"gir":7429,"ĠWind":7430,"Ġkje":7431,"lingene":7432,"Ġunik":7433,"vask":7434,"Ġmg":7435,"Ġspenning":7436,"ving":7437,"kra":7438,"Ġpsykiske":7439,"Ġbevegelse":7440,"Ġforkant":7441,"markedet":7442,"Ġbekreftet":7443,"Ġtillate":7444,"leks":7445,"sendt":7446,"Ġup":7447,"ze":7448,"Ġleker":7449,"fug":7450,"ament":7451,"Ġreduksjon":7452,"Ġbygninger":7453,"stri":7454,"klass":7455,"viser":7456,"oppen":7457,"Ġstren":7458,"legging":7459,"Ġoppvar":7460,"Ġvidt":7461,"Mar":7462,"Â¸":7463,"Ġfaktorer":7464,"oth":7465,"ĠpÃ¥peker":7466,"ĠÃ¸ye":7467,"ĠPrÃ¸":7468,"Ġkonkluder":7469,"ovasjon":7470,"Ġinnk":7471,"ĠÃ¥rsaker":7472,"Ġvokse":7473,"sleder":7474,"alis":7475,"ĠbÃ¦rekraftig":7476,"ĠVestfold":7477,"alderen":7478,"ĠpÃ¥legg":7479,"Ġtrav":7480,"verden":7481,"ella":7482,"ĠHotel":7483,"Ġfaktum":7484,"ĠAir":7485,"Ġ55":7486,"ĠNet":7487,"low":7488,"direktÃ¸r":7489,"ĠÃ¥rsaken":7490,"listen":7491,"cel":7492,"Ġnoensinne":7493,"Ġbidratt":7494,"ĠStrÃ¸m":7495,"Ġmassage":7496,"Ļ¥":7497,"Ġkonkurrans":7498,"ora":7499,"Ġsepar":7500,"Ġatferd":7501,"UT":7502,"Ġpolitikere":7503,"hammer":7504,"ance":7505,"ĠOla":7506,"Ġpra":7507,"Ġrammet":7508,"Ġforventer":7509,"Jo":7510,"alog":7511,"sÃ¸ker":7512,"ross":7513,"Ġdekk":7514,"Ġkapit":7515,"ãĥ":7516,"park":7517,"onert":7518,"AK":7519,"Ġtit":7520,"Ã¦rum":7521,"innene":7522,"selskap":7523,"Ġkaste":7524,"Ġsamtykke":7525,"ĠdÃ¸gn":7526,"Ġsnar":7527,"ĠJens":7528,"ĠsÃ¸kte":7529,"Ġrestaurant":7530,"Ġkjerne":7531,"Ġdist":7532,"Ġknytte":7533,"lar":7534,"Ġskadet":7535,"ĠfÃ¸lelsen":7536,"ĠMarie":7537,"eten":7538,"Ġtrukket":7539,"Ġbibliotek":7540,"ĠTidligere":7541,"lister":7542,"Ġdeles":7543,"elske":7544,"miljÃ¸et":7545,"ĠDelt":7546,"ĠHelt":7547,"inske":7548,"Ġlab":7549,"ĠGul":7550,"ĠsÃ¥kalt":7551,"ĠgÃ¥rden":7552,"ĠinnfÃ¸ring":7553,"ĠRi":7554,"Ġtyder":7555,"Ġvakker":7556,"Ġvaske":7557,"Ġdukker":7558,"Ġgenerell":7559,"ĠDo":7560,"ografi":7561,"bransjen":7562,"ĠÃ¥rhund":7563,"edia":7564,"hu":7565,"Ġtillatt":7566,"sikkerhet":7567,"Ġpakke":7568,"Ġbestilling":7569,"krig":7570,"sdal":7571,"iseringen":7572,"ĠSaks":7573,"ĠutendÃ¸rs":7574,"Ġgradvis":7575,"Ġcookies":7576,"Ġtungt":7577,"sprosjekt":7578,"Ġlengde":7579,"Ġukene":7580,"undt":7581,"Ġradio":7582,"ĠRogaland":7583,"ĠDavid":7584,"komst":7585,"papir":7586,"Ġtilbakemeldinger":7587,"Ã¸sning":7588,"Ġplikter":7589,"Ġfokusere":7590,"ĠAndreas":7591,"egen":7592,"hengighet":7593,"Ġkjennet":7594,"ĠDetaljvarer":7595,"visor":7596,"Ġperioder":7597,"Ġ1999":7598,"ĠProdu":7599,"yk":7600,"Ġinfo":7601,"ĠVelg":7602,"Ag":7603,"ĠVin":7604,"fÃ¸dt":7605,"ĠProsjektet":7606,"pensjon":7607,"Ġstilt":7608,"ĠYou":7609,"jenter":7610,"Ã¨":7611,"fjorden":7612,"iteten":7613,"ĠmÃ¥neden":7614,"Ġklasser":7615,"Ã¥fÃ¸r":7616,"lement":7617,"ĠTra":7618,"skader":7619,"ĠDagens":7620,"ĠutÃ¸ver":7621,"offer":7622,"ÃĺR":7623,"Ġkyst":7624,"Ġsamliv":7625,"chat":7626,"06":7627,"ĠfartÃ¸y":7628,"Ġgjennomsnittlig":7629,"Ġmekan":7630,"ĠbyrÃ¥":7631,"hal":7632,"!!!":7633,"Ġstuder":7634,"Ġhytte":7635,"rette":7636,"Ġfortell":7637,"Ġvill":7638,"ĠNasjonal":7639,"ĠNatur":7640,"perioden":7641,"Ġtiltre":7642,"2017":7643,"umentet":7644,"vakt":7645,"Ġplanlegge":7646,"Ġpeker":7647,"ĠSo":7648,"Ġulovlig":7649,"Ġinntekter":7650,"ĠÃ¸delagt":7651,"Ġmeldt":7652,"bÃ¥nd":7653,"ĠFredrikstad":7654,"Ġgutta":7655,"ĠÃ¦re":7656,"Ġsor":7657,"Ġfing":7658,"ĠAP":7659,"ĠKjÃ¦rlighet":7660,"Ġhomofile":7661,"TrÃ¸ndelag":7662,"ĠFÃ¥":7663,"Ġpark":7664,"08":7665,"medlem":7666,"Ġfersk":7667,"onger":7668,"Ġsamtaler":7669,"ttene":7670,"ico":7671,"ĠÃ¸yeblikket":7672,"Ġtanken":7673,"Ġpresset":7674,"Ġkult":7675,"Ġlete":7676,"ĠSolberg":7677,"organisasjoner":7678,"ain":7679,"Ġbein":7680,"Ġsivil":7681,"ĠÃ¸re":7682,"ĠlÃ¸pende":7683,"funksjon":7684,"hailand":7685,"Ġklassen":7686,"Ġinneholde":7687,"ennene":7688,"esen":7689,"ĠNorwegian":7690,"IM":7691,"ĠSjekk":7692,"ĠMiljÃ¸":7693,"Ġtaket":7694,"Ġskum":7695,"Ã¥ter":7696,"iness":7697,"Ġubehag":7698,"roller":7699,"ĠEksemp":7700,"Ġukjent":7701,"ordningen":7702,"Ġhenholdsvis":7703,"ikon":7704,"Ġsystematisk":7705,"Ġbeskrivelse":7706,"hjel":7707,"Ġyour":7708,"bert":7709,"39":7710,"Ġbag":7711,"ĠIKT":7712,"ÌĬ":7713,"SS":7714,"ĠforsÃ¸kte":7715,"Ġgrov":7716,"ĠundertÃ¸y":7717,"vold":7718,"Ġkunnskaps":7719,"Vel":7720,"ĠvÃ¦":7721,"ĠavlÃ¸p":7722,"innes":7723,"Ġ1800":7724,"sforsk":7725,"ĠVann":7726,"Ġhenge":7727,"idar":7728,"Ġkontrollere":7729,"Ġstudiet":7730,"Ġcont":7731,"Ġlede":7732,"Ġaktuelt":7733,"isiner":7734,"Ġgaver":7735,"boka":7736,"Ġomtalt":7737,"Ġkortere":7738,"Ġmidlertidig":7739,"Ġkonsul":7740,"ĠfÃ¸lges":7741,"ingelser":7742,"Ġyt":7743,"Ġregner":7744,"Ġess":7745,"butikken":7746,"Ġdiskutere":7747,"Ġklassisk":7748,"Ġvunnet":7749,"Ġtrengs":7750,"Ġtempo":7751,"Ġcamp":7752,"Ġprofesjonell":7753,"Ġmail":7754,"RO":7755,"ĠtilhÃ¸rer":7756,"Ġvennlig":7757,"strid":7758,"gikk":7759,"ĠtilhÃ¸rende":7760,"ii":7761,"Ġgo":7762,"ĠSenter":7763,"Ġspilleautom":7764,"FF":7765,"Ġallikevel":7766,"ĠBus":7767,"splanen":7768,"ĠMand":7769,"elde":7770,"utslipp":7771,"Ġlovlig":7772,"frie":7773,"Ġinstitutt":7774,"ĠPort":7775,"Ġfastsatt":7776,"ĠdrÃ¸y":7777,"31":7778,"Ġnull":7779,"Ġkonge":7780,"ĠMorten":7781,"ordet":7782,"Ġeffekten":7783,"Ġatmosf":7784,"Ġinnvil":7785,"Ġlesere":7786,"valtning":7787,"ĠCol":7788,"Ġkonsert":7789,"anp":7790,"Ġforetre":7791,"Ġgulv":7792,"Ġobjekt":7793,"ĠLegg":7794,"sperson":7795,"ĠArkiv":7796,"ĠAgentur":7797,"Ġhest":7798,"Ġiv":7799,"Ġlast":7800,"gjennom":7801,"Norsk":7802,"ielt":7803,"uk":7804,"Ġvidereutvik":7805,"ĠMolde":7806,"Ġtung":7807,"Ġstilles":7808,"Ġstatsminister":7809,"ivirk":7810,"ektet":7811,"Ġsatse":7812,"penger":7813,"ĠHvem":7814,"alk":7815,"irken":7816,"ums":7817,"ĠStand":7818,"Ġoppdatere":7819,"Ġadvokat":7820,"Ġ48":7821,"Ġbetal":7822,"Ġnysgjer":7823,"Ġtester":7824,"Ġspesialist":7825,"ĠPros":7826,"Ġtemaer":7827,"Ġungdommer":7828,"sku":7829,"Ġformen":7830,"aktiviteter":7831,"ĠDamer":7832,"ĠpopulÃ¦r":7833,"Ġarbeidsplasser":7834,"Ġdivisjon":7835,"mbol":7836,"obby":7837,"regi":7838,"ĠbÃ¥nd":7839,"Ġbarnehager":7840,"ĠRegion":7841,"band":7842,"65":7843,"Ġoppsummer":7844,"Ġnark":7845,"Ġansiktet":7846,"Ġfinansiering":7847,"Ġdefinitivt":7848,"ĠsÃ¸ster":7849,"Ġoffisielle":7850,"Ġutbygging":7851,"Ġbryte":7852,"ĠkÃ¥ret":7853,"gruppa":7854,"ĠmÃ¸teplass":7855,"Ġbryst":7856,"ĠSpesielt":7857,"ikter":7858,"iff":7859,"ĠÃ¸velser":7860,"At":7861,"Ġveter":7862,"okol":7863,"foss":7864,"ĠpÃ¥rÃ¸rende":7865,"Ġmuslim":7866,"Ġandelen":7867,"atorer":7868,"Ġavis":7869,"rup":7870,".âĢĿ":7871,"Ġkonsentrasjon":7872,"Ġfoto":7873,"Ġbeskyttelse":7874,"egging":7875,"Ġrepresentant":7876,"ĠhÃ¸res":7877,"ssitu":7878,"Ġkapital":7879,"ĠFun":7880,"Ġfabri":7881,"Ġsan":7882,"ĠAB":7883,"Ġgjestene":7884,"Ġ09":7885,"ĠHels":7886,"ĠAV":7887,"astro":7888,"hn":7889,"ĠOnline":7890,"Ġfasc":7891,"ĠViagra":7892,"lesund":7893,"sprosessen":7894,"ĠkjÃ¸nns":7895,"Ġstrekker":7896,"34":7897,"Ġinvitert":7898,"stisk":7899,"Ġpresenterer":7900,"ĠGjÃ¸r":7901,"Ġkommersi":7902,"Ġtapt":7903,"erende":7904,"Min":7905,"Ġevt":7906,"Ġeksamen":7907,"orth":7908,"oteket":7909,"ĠPub":7910,"ĠPet":7911,"Ġoppdrett":7912,"ĠhÃ¥pet":7913,"ĠGrupp":7914,"Ã¥pentligvis":7915,"ĠHistor":7916,"ĠGi":7917,"akultet":7918,"vinner":7919,"amera":7920,"Ġtrist":7921,"Ġendres":7922,"Ġattra":7923,"500":7924,"LO":7925,"Ġspurt":7926,"selskapet":7927,"likasjoner":7928,"Ġmuskel":7929,"Ġmister":7930,"ĠFelles":7931,"Ġframover":7932,"ĠInstitutt":7933,"vind":7934,"ĠUN":7935,"Ġetablerte":7936,"Ġsikte":7937,"frem":7938,"Ġkoble":7939,"sliv":7940,"Ġekspert":7941,"stilbud":7942,"plett":7943,"spar":7944,"Ġmal":7945,"vesenet":7946,"sund":7947,"Ġstatlige":7948,"kunst":7949,"merke":7950,"Ġkvartal":7951,"Ġgrensen":7952,"Ġ39":7953,"kalling":7954,"anner":7955,"anpix":7956,"Ã¸nsberg":7957,"Ġunderstreker":7958,"Ġvask":7959,"Ġglemme":7960,"ĠKor":7961,"iven":7962,"ĠApple":7963,"lest":7964,"Â»-":7965,"Ġitali":7966,"Ġplanlegger":7967,"Ġspeed":7968,"Ġforebygge":7969,"Ġtrom":7970,"ydro":7971,"bjÃ¸rn":7972,"ĠLund":7973,"smessige":7974,"Ã¸vrig":7975,"ittet":7976,"ĠAss":7977,"Ġkonsesjon":7978,"alp":7979,"Ġmotsatt":7980,"Ġreager":7981,"Ġraske":7982,"Ġpleier":7983,"Ġ00":7984,"ĠEsp":7985,"reise":7986,"unget":7987,"Ġoppleves":7988,"Ġrente":7989,"Ġbalanse":7990,"ulert":7991,"Ġbrutt":7992,"ĠEM":7993,"appen":7994,"Ġutenriks":7995,"ãĤ":7996,"avtaler":7997,"anda":7998,"Ġforsvarlig":7999,"Ġtilfellet":8000,"ĠmedfÃ¸re":8001,"kreft":8002,"stoffer":8003,"ktes":8004,"Ġdanmark":8005,"Ġ;)":8006,"verdige":8007,"Ġsymptomer":8008,"ĠNOR":8009,"Ġparter":8010,"Ġforleng":8011,"ĠSE":8012,"rosoft":8013,"Ġklikke":8014,"Ġrevolusjon":8015,"iment":8016,"grepet":8017,"ĠBestille":8018,"Ġfilosof":8019,"47":8020,"sats":8021,"Ġassist":8022,"Ġifra":8023,"Ġflyktninger":8024,"Ġeventuell":8025,"Ġtyng":8026,"pos":8027,"Ġinvesteringer":8028,"aksjonen":8029,"Ġfransk":8030,"ĠNS":8031,"ĠEllers":8032,"Ġskudd":8033,"leg":8034,"Ġoppfatning":8035,"oppgjÃ¸r":8036,"ĠSan":8037,",.":8038,"ĠMatt":8039,"Ġorganisering":8040,"hone":8041,"ensikt":8042,"Ġdatab":8043,"kninger":8044,"spunktet":8045,"Ġstopper":8046,"ĠBib":8047,"ful":8048,"Ġbeskrive":8049,"trekk":8050,"Ġmi":8051,"ĠstÃ¥ende":8052,"ames":8053,"Ġidentifisere":8054,"Ġpotensielle":8055,"stille":8056,"Ġirri":8057,"ĠnÃ¸kkel":8058,"Kom":8059,"orks":8060,"ĠdÃ¸g":8061,"Ġescorte":8062,"Ġkjennskap":8063,"Ġmedie":8064,"Ġvegg":8065,"Ġinnvandrere":8066,"ĠnÃ¦ringslivet":8067,"do":8068,"Ġreaksjon":8069,"âĢ¢":8070,"Ġplassering":8071,"Ġsynd":8072,"Ġutseende":8073,"smeld":8074,"ĠBakgrunn":8075,"bal":8076,"ĠkjÃ¸ring":8077,"kjenning":8078,"Ġdypt":8079,"Ġinnt":8080,"Ġjap":8081,"ĠChar":8082,"ĠkjÃ¸le":8083,"ouse":8084,"assdrag":8085,"Or":8086,"ova":8087,"Ġvaks":8088,"Ġjevnt":8089,"ĠRegjeringen":8090,"Ġsnu":8091,"egler":8092,"Ġmusik":8093,"luttet":8094,"ĠMac":8095,"Ġsammenligne":8096,"kkede":8097,"Ġbegrepet":8098,"ading":8099,"busjon":8100,"Ġkommunisere":8101,"ĠutfÃ¸r":8102,"Ġstudere":8103,"undersÃ¸kelsen":8104,"Ġspeil":8105,"skerud":8106,"Ġoppfylle":8107,"Ġtrond":8108,"fatt":8109,"Ġbebo":8110,"stralia":8111,"ĠAndersen":8112,"moen":8113,"ĠEskorte":8114,"ktoren":8115,"Ġkose":8116,"Ġredeg":8117,"Ġmuligens":8118,"Ġspen":8119,"Ġprosjektleder":8120,"ati":8121,"misjonen":8122,"Ġslapp":8123,"Ġfrom":8124,"Ð»":8125,"Ġfanget":8126,"ĠPol":8127,"Ġlykke":8128,"Ġetterl":8129,"Ġstoffer":8130,"Ġskifte":8131,"Ġdyktige":8132,"illere":8133,"Ġgay":8134,"IV":8135,"itÃ©":8136,"irke":8137,"Ġinstaller":8138,"ĠstÃ¸v":8139,"ĠhÃ¸g":8140,"ffet":8141,"helset":8142,"Ġhistorisk":8143,"Ġforvente":8144,"ĠKontroll":8145,"ĠJust":8146,"Ġshow":8147,"ĠhÃ¸yest":8148,"Ġlatter":8149,"ness":8150,"Ġsamtlige":8151,"fakt":8152,"kjennelse":8153,"Ġregistrerte":8154,"sjoner":8155,"isser":8156,"ĠDig":8157,"skyld":8158,"avisen":8159,"ĠAug":8160,"ksomheten":8161,"ition":8162,"ĠKort":8163,"Ġleir":8164,"Ġdukket":8165,"klub":8166,"Ġetn":8167,"lish":8168,"Ġdiskrimin":8169,"Ġfront":8170,"ec":8171,"ĠIsland":8172,"merika":8173,"ĠSvein":8174,"Ġalderen":8175,"Ġforutsetning":8176,"Ġleste":8177,"Ġtankene":8178,"ssystemet":8179,"Ġoverf":8180,"Ġmorsomme":8181,"Ġkro":8182,"ografer":8183,"Ġutbygg":8184,"itar":8185,"igen":8186,"orme":8187,"Ġamerikansk":8188,"ĠhÃ¸rte":8189,"ĠNes":8190,"Ġmatematikk":8191,"Ġslutter":8192,"Ġfremfor":8193,"Ġfriske":8194,"rerende":8195,"Ġhjelpemid":8196,"ĠTrÃ¸ndelag":8197,"ĠstrÃ¸k":8198,"ĠJe":8199,"legen":8200,"ĠInt":8201,"Ġkjedelig":8202,"Ġinngang":8203,"Ã¥ten":8204,"Ġkok":8205,"ĠFjell":8206,"www":8207,"elin":8208,"nda":8209,"NO":8210,"Ġplate":8211,"Ġstram":8212,"ĠPark":8213,"Ġnedsatt":8214,"Ġbade":8215,"Ġinfrastruktur":8216,"Ġhandlet":8217,"ĠkjÃ¸nnsle":8218,"ype":8219,"Ġoppfylt":8220,"Tid":8221,"Ġneppe":8222,"Ġutstyrt":8223,"Ġhenven":8224,"Ġgram":8225,"Ġtenk":8226,"ĠTelemark":8227,"fÃ¸d":8228,"jor":8229,"ĠpÃ¥virket":8230,"Ġargu":8231,"Ġtrakk":8232,"Ġhuman":8233,"Ġkosthold":8234,"wa":8235,"Ġsunt":8236,"37":8237,"Ġperspektiv":8238,"eliggen":8239,"ĠtenÃ¥r":8240,"ysi":8241,"ĠHedmark":8242,"Ġmusikken":8243,"Ġeksper":8244,"ĠSK":8245,"Ġsamhandling":8246,"attere":8247,"Ã¸ve":8248,"Ġnordiske":8249,"ĠforeslÃ¥tt":8250,"spillere":8251,"Ġbruks":8252,"Ġtilknyttet":8253,"Ġbevege":8254,"anna":8255,"Ġtrondheim":8256,"Over":8257,"ĠmÃ¥lene":8258,"istrer":8259,"Ġutfordringene":8260,"ky":8261,"ĠutÃ¸vere":8262,"ssels":8263,"Ġutdannet":8264,"Ġhumor":8265,"Ġfunksjonshem":8266,"Gjennom":8267,"Ġsykehjem":8268,"frihet":8269,"tein":8270,"anlegget":8271,"Ġsakene":8272,"Ġtunge":8273,"stolen":8274,"Ġbyens":8275,"ĠforespÃ¸r":8276,"ĠWindows":8277,"ĠRad":8278,"Ġhendene":8279,"Ġbarnets":8280,"ĠmilitÃ¦re":8281,"ĠSande":8282,"batter":8283,"skontroll":8284,"Ġbind":8285,"kommer":8286,"Ġfremmed":8287,"ĠFylkesmannen":8288,"ilsynet":8289,"ĠHeldigvis":8290,"ump":8291,"Ġfyller":8292,"Ġproduserer":8293,"eled":8294,"forsvar":8295,"Ġuri":8296,"Ġblogger":8297,"cam":8298,"Ġkollega":8299,"fond":8300,"ĠskjÃ¸nnhet":8301,"Ġknapt":8302,"Ġforutsetninger":8303,"ystem":8304,"Ġnorges":8305,"ards":8306,"Ġarrangementer":8307,"sper":8308,"ieren":8309,"Ġforsvinner":8310,"udsjettet":8311,"skerne":8312,"Ġbla":8313,"ĠÃ¸verste":8314,"ĠByg":8315,"vinning":8316,"ĠMÃ¸t":8317,"ĠJensen":8318,"Ġinviterer":8319,"Ġcam":8320,"Ġdr":8321,"ĠnÃ¦re":8322,"Ġeiendommen":8323,"smet":8324,"hild":8325,"ĠBÃ¦rum":8326,"ĠKommunen":8327,"sland":8328,"klÃ¦ring":8329,"Ġras":8330,"oe":8331,"industrien":8332,"Ġadgang":8333,"Hvor":8334,"Ġstillingen":8335,"Ġtjener":8336,"Ġskyte":8337,"ĠforÃ¥r":8338,"bÃ¥t":8339,"Ġkontakte":8340,"Ġendrer":8341,"ĠLin":8342,"Ġvib":8343,"Ġrollen":8344,"Ġseksuell":8345,"ĠtilbehÃ¸r":8346,"ĠInst":8347,"Ġstab":8348,"Ġarg":8349,"ĠMc":8350,"ĠHu":8351,"job":8352,"fÃ¸lelse":8353,"03":8354,"Ġnyeste":8355,"ĠEks":8356,"Ġforventes":8357,"ĠvÃ¦ret":8358,"Ġarbeidstakere":8359,"48":8360,"Ġdanse":8361,"Ġtilstede":8362,"Ġjorden":8363,"setningen":8364,"Ġfenom":8365,"delse":8366,"Ġbasis":8367,"Ġscenen":8368,"omet":8369,"akerne":8370,"forel":8371,"hagen":8372,"Ġmere":8373,"veil":8374,"strand":8375,"ĠNÃ¦rings":8376,"Ġstengt":8377,"Ġventil":8378,"Ġtypisk":8379,"UR":8380,"institusjoner":8381,"ware":8382,"Ġsatser":8383,"Ġhet":8384,"Ġskred":8385,"ynte":8386,"ĠJun":8387,"Ġveggen":8388,"Ġdeleg":8389,"Ġanskaff":8390,"Ġfange":8391,"Ġordentlig":8392,"ney":8393,"ordaland":8394,"Ġriks":8395,"Ġlesbisk":8396,"ĠTotalt":8397,"Ġbyttet":8398,"Ġgal":8399,"forstÃ¥":8400,"pend":8401,"haver":8402,"Ġmisten":8403,"ĠstÃ¸ttet":8404,"meter":8405,"âĢĭ":8406,"ĠFakt":8407,"Ġsikkerhets":8408,"vilkÃ¥r":8409,"Ġholdninger":8410,"02":8411,"Ġkrefter":8412,"Ġtillits":8413,"ford":8414,"Ġ65":8415,"vendelse":8416,"sborg":8417,"Ġlagene":8418,"sbygg":8419,"ĠSist":8420,"Ġanmel":8421,"Ġkoste":8422,"ĠLarsen":8423,"alender":8424,"muse":8425,"Ġthat":8426,"Ġforbundet":8427,"Ġfork":8428,"Ġfisker":8429,"ĠsÃ¸knader":8430,"Ġoverskudd":8431,"ĠUnn":8432,"Ġmenings":8433,"ugen":8434,"Ġbarns":8435,"Ġenorme":8436,"Ġjevnlig":8437,"Ġapps":8438,"Dagbladet":8439,"Ġskam":8440,"Ġbeina":8441,"Ġsanger":8442,"havet":8443,"Ġlokaler":8444,"samlingen":8445,"ano":8446,"Ġbivirk":8447,"Ġoppgavene":8448,"Ġhoppe":8449,"ĠVeldig":8450,"Ġcon":8451,"Ġdebatten":8452,"Ġformidle":8453,"tillit":8454,"bit":8455,"ĠlÃ¦rings":8456,"ĠBlir":8457,"ĠAkt":8458,"Ġtallene":8459,"val":8460,"ĠTIL":8461,"ĠHav":8462,"Ġevaluering":8463,"sprosjekter":8464,"32":8465,"Ġhjernen":8466,"Arbeid":8467,"Ġopplevelsen":8468,"wn":8469,"Ġtrykke":8470,"ĠDon":8471,"blemet":8472,"lagene":8473,"ellig":8474,"Ġordningen":8475,"Ġalli":8476,"Ġmodellen":8477,"Ã¥rd":8478,"Ġplanter":8479,"Ġkalle":8480,"iets":8481,"Ġetablering":8482,"Ġglobale":8483,"04":8484,"ĠRep":8485,"Ġfigur":8486,"ĠBlu":8487,"boken":8488,"100":8489,"iftelsen":8490,"Ġkjendiser":8491,"HF":8492,"Ġsamarbeider":8493,"blÃ¥":8494,"Ġbetong":8495,"krav":8496,"test":8497,"egger":8498,"Ġok":8499,"Ġhavnet":8500,"Ġbeveger":8501,"kapital":8502,"2015":8503,"Ã¼n":8504,"ĠfullfÃ¸rt":8505,"Ġutvikles":8506,"ĠSlike":8507,"egnet":8508,"ĠKrF":8509,"Ġ1998":8510,"Ġagg":8511,"ĠsÃ¸kemot":8512,"Ġklassiske":8513,"ĠfornÃ¸yde":8514,"Ġformann":8515,"mÃ¸tet":8516,"ĠLeder":8517,"ittil":8518,"ĠResultatet":8519,"itenskap":8520,"IC":8521,"ĠTim":8522,"Ġhagen":8523,"amm":8524,"Ġlytte":8525,"virke":8526,"ollege":8527,"anserte":8528,"ĠNav":8529,"Ġop":8530,"Ġfakta":8531,"Ġscene":8532,"selskaper":8533,"Ġteknikk":8534,"igg":8535,"Oslo":8536,"ĠNils":8537,"Ã¸dvendig":8538,"Ġvillig":8539,"lings":8540,"Ġliggende":8541,"195":8542,"Ġleger":8543,"Ġklubber":8544,"Ġvokste":8545,"Ġbeslutning":8546,"arden":8547,"bÃ¸":8548,"elag":8549,"appe":8550,"Ġlom":8551,"Ġregelverk":8552,"ĠsjÃ¸en":8553,"dat":8554,"ĠDato":8555,"feranse":8556,"Ġsvaret":8557,"38":8558,"Ã´r":8559,"ĠBlack":8560,"pot":8561,"AC":8562,"bevis":8563,"eper":8564,"Ġservic":8565,"Ġimponerende":8566,"varen":8567,"IK":8568,"ĠKjell":8569,"Ġ1997":8570,"Ġerstatning":8571,"kampen":8572,"Ġoppvekst":8573,"Ġille":8574,"Ġbehandler":8575,"ĠAkkurat":8576,"sdatter":8577,"Ġnavig":8578,"Ġkorrekt":8579,"smu":8580,"ĠsÃ¸nnen":8581,"Ġgarantert":8582,"Ġepost":8583,"Ã¥rige":8584,"Ġstraks":8585,"Ġsalgs":8586,"ilbud":8587,"Ġbesluttet":8588,"klin":8589,"Ġsms":8590,"2016":8591,"ĠordfÃ¸rer":8592,"akkert":8593,"Ġanalys":8594,"ĠvedrÃ¸rende":8595,"Ġpent":8596,"Ġgenerasjon":8597,"ĠOfte":8598,"kjÃ¸":8599,"armer":8600,"aldt":8601,"Ġtilbakemelding":8602,"Ġsmartt":8603,"styrr":8604,"ely":8605,"ingers":8606,"ble":8607,"ografiske":8608,"Ġeksplo":8609,"ĠAk":8610,"ĠAL":8611,"ĠJacob":8612,"onsen":8613,"asj":8614,"oga":8615,"aga":8616,"ĠâĢĺ":8617,"Ġbaby":8618,"ĠPedersen":8619,"ĠgjennomfÃ¸rte":8620,"Ġlaks":8621,"ĠHenrik":8622,"ĠoppstÃ¥":8623,"ĠordinÃ¦re":8624,"Ġ08":8625,"Ã¸yd":8626,"inga":8627,"Ġnaturligvis":8628,"Ġkull":8629,"Ġprodusenter":8630,"kjenne":8631,"Polit":8632,"ĠVenstre":8633,"ĠHF":8634,"Ġgjelde":8635,"ĠEvent":8636,"ĠsÃ¸kt":8637,"ĠÃ¥pnes":8638,"design":8639,"ĠTek":8640,"Ġleilighet":8641,"Ġ1980":8642,"Ġmetall":8643,"Ġ2019":8644,"ĠRy":8645,"Ġlagre":8646,"Ġprisene":8647,"Ġreklame":8648,"Ġtelefonen":8649,"Ġtunn":8650,"Ġsenest":8651,"stitusjon":8652,"ĠMos":8653,"Ġflinke":8654,"ĠBle":8655,"Ġhevdet":8656,"âĢľ":8657,"DE":8658,"Ġakutt":8659,"partement":8660,"Ġprosjektene":8661,"ĠÂ»":8662,"itim":8663,"oble":8664,"ĠTore":8665,"Ġgulvet":8666,"rÃ¸d":8667,"skip":8668,"ĠtÃ¥r":8669,"Ġkonkurr":8670,"ĠElev":8671,"ĠPlay":8672,"bor":8673,"Ġskritt":8674,"Ġbryter":8675,"reft":8676,"Ġreaksjoner":8677,"ĠKol":8678,"meldt":8679,"nÃ¦ring":8680,"Ġwe":8681,"Ġgrat":8682,"Ã¸ster":8683,"ower":8684,"Ðº":8685,"esenter":8686,"07":8687,"Ġsymbol":8688,"Ġfris":8689,"Ġmaterialet":8690,"ddet":8691,"ĠNed":8692,"itive":8693,"Ġegner":8694,"ĠFisk":8695,"abeth":8696,"ĠnivÃ¥er":8697,"ĠpÃ¥lit":8698,"Ġlaveste":8699,"ĠTwitter":8700,"ĠGeir":8701,"Ġstiftet":8702,"Ġdepresjon":8703,"God":8704,"lf":8705,"ĠVenn":8706,"UL":8707,"Ġhttp":8708,"redi":8709,"Ġkaldt":8710,"ĠlÃ¸st":8711,"slutning":8712,"Ġeksist":8713,"elat":8714,"Ġreist":8715,"Ġspilles":8716,"Ġteori":8717,"stur":8718,"lerede":8719,"Ġhelsepersonell":8720,"retter":8721,"kkere":8722,"Ġnyhetsb":8723,"avdelingen":8724,"sgiver":8725,"atÃ¸rer":8726,"Ġkule":8727,"ĠrengjÃ¸ring":8728,"Ġforelsket":8729,"Ġmorgenen":8730,"kten":8731,"Ġavholdt":8732,"Ġsees":8733,"Ġrelasjon":8734,"bre":8735,"andel":8736,"Ġmobile":8737,"kons":8738,"wood":8739,"Ġbegrense":8740,"Ġ44":8741,"ĠtiÃ¥r":8742,"Ġovernatting":8743,"istikken":8744,"Ġvolum":8745,"Ġforberedt":8746,"Ġlivsstil":8747,"ilige":8748,"ĠLever":8749,"ĠFinland":8750,"Ġhelhetlig":8751,"ĠÃ¸verst":8752,"Ġtilbys":8753,"Disse":8754,"ĠKa":8755,"roid":8756,"Ġmaskiner":8757,"ikkel":8758,"ĠEÃĺS":8759,"ĠWorld":8760,"Ġpersonlighet":8761,"iko":8762,"ĠHamar":8763,"fast":8764,"styring":8765,"ĠPrem":8766,"Ġomgivelser":8767,"Ġengelske":8768,"ineres":8769,"ĠMang":8770,"Ġmedlemskap":8771,"ĠfravÃ¦r":8772,"talen":8773,"ĠKat":8774,"Ġbygging":8775,"Ġvirkning":8776,"egÃ¥rd":8777,"lic":8778,"Ġreduserer":8779,"Ġtrives":8780,"ĠWh":8781,"ĠhÃ¥pe":8782,"Ġsmerter":8783,"nevnt":8784,"bake":8785,"Ġkilo":8786,"Ġmoren":8787,"ĠSP":8788,"ĠRobert":8789,"ĠJohansen":8790,"Ġutgiv":8791,"ĠBÃ¸r":8792,"Ġlandskap":8793,"sidene":8794,"Ġkunn":8795,"Ġbarnevern":8796,"stiske":8797,"ĠutlÃ¸p":8798,"lÃ¸sninger":8799,"Ġhvorvidt":8800,"obbing":8801,"vannet":8802,"ĠGl":8803,"Ġhensiktsmessig":8804,"Ġbehagelig":8805,"hÃ¸g":8806,"Ġvariere":8807,"Ġbib":8808,"lima":8809,"Ã¦l":8810,"yrkia":8811,"55":8812,"To":8813,"ĠFinans":8814,"Ġdrives":8815,"Ġmedisiner":8816,"okolade":8817,"Ġoppn":8818,"Ġadresse":8819,"Ġmunt":8820,"sjekk":8821,"vika":8822,"bes":8823,"Ġstyrket":8824,"ĠdÃ¸ren":8825,"Ġhage":8826,"ids":8827,"Ġskapte":8828,"Ġinnflytelse":8829,"Ã¸yer":8830,"ppel":8831,"ĠkÃ¥te":8832,"Ġslappe":8833,"stider":8834,"Ġglemt":8835,"Ġvarslet":8836,"ĠsÃ¸kes":8837,"Ġvokst":8838,"ĠKristin":8839,"Ġbekjem":8840,"Ġforank":8841,"Ġheng":8842,"Ġskinn":8843,"feil":8844,"Ġutgift":8845,"Ġangrepet":8846,"ĠBrann":8847,"besÃ¸k":8848,"Ġpenge":8849,"ĠstrÃ¥lende":8850,"Ġdetalj":8851,"ĠRÃ¸r":8852,"ĠÃ¥rsmÃ¸tet":8853,"Ġbety":8854,"Ġpreg":8855,"kehuset":8856,"Ġbringe":8857,"Ġunnt":8858,"Ġhusk":8859,"Ġsym":8860,"Ġtittelen":8861,"Ġboligen":8862,"ĠMicrosoft":8863,"Ġklager":8864,"Ã¸rrelse":8865,"jeller":8866,"ĠreligiÃ¸se":8867,"ding":8868,"Ġfalle":8869,"Ġoppgir":8870,"ĠSjÃ¸":8871,"kna":8872,"Ġdepartementet":8873,"fot":8874,"Ġoverlev":8875,"Ġfantas":8876,"gra":8877,"ĠBur":8878,"ĠForslag":8879,"vurder":8880,"ĠPolitiet":8881,"Ġinvestering":8882,"ĠCialis":8883,"ĠAud":8884,"ĠKart":8885,"Ġreduseres":8886,"stemmig":8887,"TER":8888,"Ġpartnere":8889,"Ġakadem":8890,"Ġselskapene":8891,"ĠÃ¥rsmÃ¸te":8892,"irka":8893,"OgsÃ¥":8894,"back":8895,"Ġstk":8896,"Ġanonym":8897,"ĠbrÃ¸d":8898,"Ġbekrefter":8899,"betaling":8900,"alistisk":8901,"somrÃ¥der":8902,"Ny":8903,"Ġsvanger":8904,"edy":8905,"Ġhvitt":8906,"ĠEi":8907,"Ġoftere":8908,"skar":8909,"reis":8910,"iken":8911,"vendt":8912,"eting":8913,"bestemm":8914,"Ġknulle":8915,"gjorde":8916,"Ġfien":8917,"2018":8918,"Ġfortjener":8919,"Ġ1970":8920,"Ġplante":8921,"Ġkomb":8922,"irm":8923,"Ġanti":8924,"Ġmuseum":8925,"Ġavtalt":8926,"Ġlagring":8927,"Ġveget":8928,"ĠtilnÃ¦rming":8929,"Ġforfatteren":8930,"Ġlyse":8931,"Ġkonver":8932,"ĠGra":8933,"Ġblikk":8934,"Ġforsvant":8935,"ĠtrÃ¦r":8936,"Ġforbudt":8937,"Ġrussisk":8938,"ĠFamil":8939,"Flere":8940,"Ġalternative":8941,"bygd":8942,"Ġtradisjonell":8943,"bot":8944,"ĠRÃ¸":8945,"ĠjordbÃ¦r":8946,"ĠFotball":8947,"Ã¸konom":8948,"Ġunderholdning":8949,"ĠEnkel":8950,"tjenester":8951,"ĠdÃ¸gnet":8952,"ĠAgder":8953,"Ġitalien":8954,"Ġ46":8955,"rul":8956,"nytt":8957,"sesongen":8958,"Ġtaler":8959,"Ġbens":8960,"Ġpasset":8961,"Ġsoldater":8962,"Ġtapte":8963,"Ġgrunnet":8964,"Ġstolte":8965,");":8966,"cer":8967,"Ġnettverket":8968,"ĠBuskerud":8969,"ystemet":8970,"ĠHÃ¸gskolen":8971,"Ġins":8972,"Ġfoster":8973,"ĠEscort":8974,"ĠHy":8975,"ripe":8976,"Ġspiste":8977,"fg":8978,"Ġmunnen":8979,"Ġopptre":8980,"Ġkreative":8981,"Ġstyres":8982,"ĠSpe":8983,"Ġ250":8984,"ail":8985,"Ġendringene":8986,"ianter":8987,"Ġguide":8988,"itiv":8989,"Ġrot":8990,"Ġsingler":8991,"Ġintervjuet":8992,"Ġkollekt":8993,"ighets":8994,"Ġforhindre":8995,"Ġutdannelse":8996,"Ġ600":8997,"innlegg":8998,"Ġevner":8999,"Ġrepresentert":9000,"mord":9001,"Ch":9002,"Ġspania":9003,"Ġsamarbeidspartnere":9004,"Ġutfyl":9005,"Ġintrodu":9006,"Ġaktiver":9007,"undersÃ¸kelser":9008,"finans":9009,"ĠSos":9010,"ĠSandnes":9011,"Ġmunn":9012,"Ġ1900":9013,"Ġbeliggen":9014,"Ġarbeidsliv":9015,"JON":9016,"ĠHold":9017,"Ġmedisinske":9018,"Ġ42":9019,"Ġfig":9020,"Ġpresentasjon":9021,"omb":9022,"Ġtakke":9023,"Ġlyset":9024,"Ġank":9025,"ng":9026,"profil":9027,"Ġoppskrift":9028,"ĠbesÃ¸kt":9029,"Ġprat":9030,"ĠPr":9031,"Ġregelverket":9032,"ĠTerje":9033,"ravÃ¦r":9034,"ĠJapan":9035,"Ġhelga":9036,"Ġproblemene":9037,"jÃ¸p":9038,"Ġspesifikke":9039,"Ġrehabilitering":9040,"Ġstakk":9041,"ĠsÃ¸kere":9042,"ĠtÃ¥ler":9043,"ĠKo":9044,"burg":9045,"Ġvelg":9046,"Ġbandet":9047,"Ġhypp":9048,"ĠCarl":9049,"44":9050,"Ġintegrert":9051,"Ġisted":9052,"Ã¸nnet":9053,"Ã¸nte":9054,"ĠIL":9055,"dager":9056,"Ġtilgjengelighet":9057,"Ġdis":9058,"Ġdannet":9059,"leketÃ¸y":9060,"Ġforlate":9061,"ikip":9062,"ĠSett":9063,"Ġbortsett":9064,"ĠMagnus":9065,"Ġutbred":9066,"Ġgjennomsiktig":9067,"ĠvilkÃ¥rene":9068,"ĠvÃ¥t":9069,"Ġvedtaket":9070,"esult":9071,"Ġtillater":9072,"Ġskolene":9073,"Pl":9074,"ildo":9075,"Ġsakte":9076,"Ġkomplett":9077,"ĠgjenstÃ¥r":9078,"Ġgjenstander":9079,"Ġintensjon":9080,"Ġetasje":9081,"elte":9082,"stasjonen":9083,"avner":9084,"elever":9085,"ĠAftenposten":9086,"ĠGjer":9087,"Norges":9088,"ĠrÃ¸dt":9089,"Ã¸yen":9090,"Ġoppdatering":9091,"umin":9092,"Ġtoal":9093,"Ġtant":9094,"-/":9095,"Ġindividuelle":9096,"ĠOper":9097,"ĠChat":9098,"Ġservert":9099,"rukket":9100,"bra":9101,"ĠRet":9102,"Ġvakkert":9103,"AB":9104,"forslag":9105,"Ġ187":9106,"ĠÃħs":9107,"Ġliden":9108,"mail":9109,"ĠFu":9110,"lage":9111,"ĠPS":9112,"ĠCont":9113,"veksten":9114,"ĠFull":9115,"Ġflyplassen":9116,"!)":9117,"Ġtilsier":9118,"lyd":9119,"ĠgjennomfÃ¸rer":9120,"problemer":9121,"Ġguttene":9122,"ĠbÃ¥ter":9123,"Ġaksept":9124,"musikk":9125,"Ġminer":9126,"ulen":9127,"ĠHei":9128,"rine":9129,"represent":9130,"forum":9131,"ĠAsker":9132,"ĠAnna":9133,"Ġeiere":9134,"Ġgammelt":9135,"Ġangst":9136,"Ġbunnen":9137,"Ġgleden":9138,"ani":9139,"Ġtendens":9140,"Ġhelseforetak":9141,"Ġfremtidige":9142,"ĠUndersÃ¸k":9143,"styre":9144,"ĠavgjÃ¸relse":9145,"skede":9146,"Ġinnbyggerne":9147,"ĠStein":9148,"oku":9149,"Ġ47":9150,"Ġdispensasjon":9151,"NS":9152,"norsk":9153,"ĠÃħp":9154,".:":9155,"analyse":9156,"Ġmisjon":9157,"Ġnevnes":9158,"Ġarkiv":9159,"oil":9160,"Ġstyrer":9161,"onering":9162,"hem":9163,"ĠIndia":9164,"Ġutil":9165,"EC":9166,"Ġvariasjon":9167,"esterett":9168,"ĠSon":9169,"risten":9170,"Ġflytter":9171,"ensikten":9172,"Ġrabatt":9173,"Bar":9174,"agere":9175,"Ġklem":9176,"ĠsprÃ¥ket":9177,"Ġtube":9178,"Ġsammenlik":9179,"Ġvarsel":9180,"Ġforestil":9181,"voll":9182,"ĠmÃ¥nedene":9183,"Ġringe":9184,"Ġdriften":9185,"Ġinkl":9186,"Ġpersonvern":9187,"Ġstykke":9188,"Ġnektet":9189,"Ġoppfyller":9190,"ĠnivÃ¥et":9191,"Ġstrikke":9192,"Ġkunnskapen":9193,"smann":9194,"Ġveks":9195,"Ġvitne":9196,"ĠfÃ¸dsel":9197,"Ġteknologien":9198,"seth":9199,"grad":9200,"Ġrester":9201,"Ġtilfredsstillende":9202,"Ġdrev":9203,"ool":9204,"Ġanbefalt":9205,"Ġkombinert":9206,"Ġforetrekker":9207,"yrene":9208,"yren":9209,"orge":9210,"Ġvirkelige":9211,"199":9212,"Ġvirkelighet":9213,"Agder":9214,"itasjon":9215,"brev":9216,"Ġreda":9217,"Ġalminn":9218,"Ġdekor":9219,"EK":9220,"Ġelektriske":9221,"ĠKun":9222,"Ġarv":9223,"Ġmobilen":9224,"ĠVol":9225,"klare":9226,"Ġunderlagt":9227,"Ġrestauranter":9228,"erg":9229,"Ġselges":9230,"ĠBj":9231,"Ġdefinert":9232,"ĠforÃ¸vrig":9233,"ĠinnfÃ¸re":9234,"etid":9235,"Ġpasientene":9236,"ikipedia":9237,"Ġhyggelige":9238,"Ġgunst":9239,"stjenesten":9240,"Le":9241,"ledelse":9242,"Ġtradisjoner":9243,"Ġnew":9244,"Ã¸yet":9245,"Ġrekord":9246,"Ġodd":9247,"ĠDem":9248,"ionen":9249,"ĠRing":9250,"viten":9251,"Ġhimmel":9252,"vÃ¥pen":9253,"ĠiPhone":9254,"Ġbosatt":9255,"Euro":9256,"hallen":9257,"Ġfeste":9258,"Ġappen":9259,"Ġdyb":9260,"Ġforretning":9261,"AF":9262,"ypt":9263,"klokker":9264,"Ġhaug":9265,"sil":9266,"ĠopprÃ¸r":9267,"lers":9268,"IR":9269,"ligvis":9270,"Ã¥sen":9271,"Ġfaget":9272,"ĠGir":9273,"Ġskutt":9274,"funnet":9275,"ĠNi":9276,"ĠDessverre":9277,"jent":9278,"ĠRune":9279,"ĠSvar":9280,"forskriften":9281,"Ġtermin":9282,"Ġenheten":9283,"Ġarrangeres":9284,"ĠundersÃ¸kt":9285,"ativitet":9286,"odd":9287,"Ġmeninger":9288,"ĠmÃ¥lt":9289,"Ġharde":9290,"Ġkant":9291,"Ġsamles":9292,"ingens":9293,"ĠprimÃ¦rt":9294,"Ġsamlede":9295,"illi":9296,"ĠSaken":9297,"sammen":9298,"Ġvedt":9299,"Ġomsetning":9300,"ĠSven":9301,"Hvordan":9302,"Ã¥det":9303,"utdan":9304,"alu":9305,"key":9306,"Ġdeltatt":9307,"aton":9308,"legger":9309,"kontor":9310,"bibli":9311,"ĠIP":9312,"Ġhandels":9313,"Ġrettferdig":9314,"Ġscoret":9315,"historie":9316,"otika":9317,"Nord":9318,"mert":9319,"jo":9320,"iva":9321,"sgrunn":9322,"Ġflo":9323,"blo":9324,"ĠFNs":9325,"Ġetterkant":9326,"NING":9327,"Ġhytta":9328,"Ġuvanlig":9329,"Ġgress":9330,"Ġsyssels":9331,"iligheten":9332,"ĠformÃ¥let":9333,"Ġettertid":9334,"ĠJak":9335,"ĠGer":9336,"Ġforvaltnings":9337,"Ġgjaldt":9338,"isipl":9339,"ĠTÃ¸nsberg":9340,"ary":9341,"ĠhÃ¸ring":9342,"ĠLillehammer":9343,"Ġeksempelvis":9344,"Ġprom":9345,"Ġfinansier":9346,"fÃ¸lger":9347,"ĠlÃ¸nns":9348,"Ġavhenger":9349,"Ã¸ben":9350,"air":9351,"Ġdynam":9352,"Ġrosa":9353,"Ġuro":9354,"ĠpÃ¥fÃ¸lgende":9355,"butikker":9356,"Ġstig":9357,"Ġeffekter":9358,"Ġnyere":9359,"retten":9360,"Ġsamlinger":9361,"Ġutgangen":9362,"ĠJohannes":9363,"Ġmengden":9364,"lubben":9365,"gjÃ¸res":9366,"Ġpassord":9367,"Ġstudi":9368,"Alt":9369,"Ġbit":9370,"cks":9371,"pon":9372,"indel":9373,"etningen":9374,"bolig":9375,"Ġbror":9376,"Ġstill":9377,"Ġmnd":9378,"ydelige":9379,"Ġinterne":9380,"Ġkysten":9381,"mund":9382,"engden":9383,"Ġsolgte":9384,"istrikt":9385,"Ġdron":9386,"Ġ186":9387,"lÃ¸pende":9388,"Ġmv":9389,"Ġild":9390,"Ġeksterne":9391,"atorisk":9392,"sem":9393,"ulÃ¦re":9394,"Ġens":9395,"Ġendel":9396,"ĠLuft":9397,"skel":9398,"apeut":9399,"Ġskjel":9400,"oss":9401,"skade":9402,"Ġarrest":9403,"Ġforbedring":9404,"Ġforbruk":9405,"Ġreisen":9406,"sal":9407,"Ġug":9408,"ally":9409,"ĠRev":9410,"handlere":9411,"feransen":9412,"ĠstÃ¸rrelsen":9413,"Ġdekning":9414,"Ġgli":9415,"ĠSommer":9416,"Ġelektroniske":9417,"Ġkampene":9418,"Ġgarn":9419,"rek":9420,"Ġhvile":9421,"Ġoffer":9422,"Ġgjem":9423,"orgen":9424,"Ġsammenhenger":9425,"arpsborg":9426,"ĠAust":9427,"Ġhvorav":9428,"now":9429,"ĠCasino":9430,"skort":9431,"Ġbegrep":9432,"ĠsvÃ¸mme":9433,"Ġutstyret":9434,"regel":9435,"fallet":9436,"ĠTu":9437,"ical":9438,"dater":9439,"bro":9440,"ĠUnited":9441,"Ġinnsatsen":9442,"ĠnyttÃ¥r":9443,"Ġlidenskap":9444,"Ġytelse":9445,"Ġkast":9446,"salg":9447,"Ġukjente":9448,"lÃ¸k":9449,"EST":9450,"Ġlandslag":9451,"Ġstemning":9452,"Ġmottok":9453,"Ġdansk":9454,"angrep":9455,"Ġbakgrunnen":9456,"Ġhavner":9457,"roppen":9458,"Ġnysgjerrig":9459,"ĠGodt":9460,"Ġï":9461,"Ëĩ":9462,"gjÃ¸relse":9463,"Ġmottak":9464,"ĠDate":9465,"ĠtÃ¸rre":9466,"ÃĨ":9467,"ĠInge":9468,"befolk":9469,"hodet":9470,"Ġshopping":9471,"ualitet":9472,"load":9473,"Ġtraff":9474,"Ġpsykolog":9475,"ĠgrÃ¸nt":9476,"Ġdestin":9477,"kontakt":9478,"kompetanse":9479,"Ġkolon":9480,"ĠEldre":9481,"Ġtreffer":9482,"iskap":9483,"ĠunÃ¸dvendig":9484,"ĠNB":9485,"Ġulem":9486,"ĠpÃ¥p":9487,"Ġparall":9488,"Ġkontakter":9489,"lok":9490,"ĠDom":9491,"idens":9492,"Ġregelmessig":9493,"ennelse":9494,"Ġkategori":9495,"elatende":9496,"Ġsolen":9497,"Ġperman":9498,"Ad":9499,"Ġvelges":9500,"ĠLed":9501,"Ġ149":9502,"Ã¸benhavn":9503,"Ġpale":9504,"Ġmom":9505,"Ġpersonell":9506,"Ġforutsetter":9507,"ĠKrav":9508,"Ġlam":9509,"Ġkostnadene":9510,"Ġtilrettelegging":9511,"Ġlangvar":9512,"elor":9513,"Ġbyene":9514,"ĠNavn":9515,"Ġstudien":9516,"ĠhÃ¥nden":9517,"ĠJer":9518,"pres":9519,"Ġhalvt":9520,"organisasjonen":9521,"ĠMÃ¸teplassen":9522,"Ġbaks":9523,"rasil":9524,"urset":9525,"ĠAlf":9526,"bakken":9527,"cial":9528,"Ġbook":9529,"Ġinformere":9530,"utviklingen":9531,"ĠmÃ¥ler":9532,"Ġarab":9533,"ĠInnhold":9534,"ferie":9535,"ĠpÃ¥ske":9536,"Ġavsla":9537,"Ġrunder":9538,"Ġrute":9539,"rygg":9540,"ĠFest":9541,"ĠÃ¥rsak":9542,"Ġkvalitetss":9543,"ĠĠ":9544,"Ġbane":9545,"Ġkulturelle":9546,"Ġmyk":9547,"Ġ120":9548,"selv":9549,"spolitikk":9550,"Ġtiltakene":9551,"Ġfinalen":9552,"ĠRomsdal":9553,"Ġdeltaker":9554,"kjÃ¸tt":9555,"anset":9556,"jev":9557,"ĠWest":9558,"hjul":9559,"DF":9560,"Ġakk":9561,"Ġskiftet":9562,"sdepartementet":9563,"Ġerfarne":9564,"ĠFrp":9565,"ĠbehÃ¸ver":9566,"fÃ¸dte":9567,"Ġkonvensjon":9568,"rator":9569,"Ver":9570,"prÃ¸ve":9571,"role":9572,"Ġfokuserer":9573,"jesel":9574,"Ġtilpas":9575,"formid":9576,"ĠmÃ¸rk":9577,"Ġmennesket":9578,"ĠNeste":9579,"ografisk":9580,"ots":9581,"Ġtida":9582,"Ġbivirkninger":9583,"bygget":9584,"Ġbrygg":9585,"Ġfargen":9586,"Ã¸sten":9587,"fekt":9588,"ĠÃ¸delegge":9589,"sforhold":9590,"ĠMerk":9591,"emale":9592,"Ġforklaring":9593,"Ġunderteg":9594,"ĠÃĺnsker":9595,"smed":9596,"splasser":9597,"Ġplattform":9598,"ĠSyria":9599,"Ġutbytte":9600,"unge":9601,"Ta":9602,"ĠStar":9603,"ĠuÃ¸n":9604,"ĠGÃ¥":9605,"ĠSunn":9606,"ĠFordi":9607,"ĠKari":9608,"ĠKe":9609,"Ġkommunestyret":9610,"gge":9611,"Ġevnen":9612,"pes":9613,"Ġoveralt":9614,"mag":9615,"Ġideen":9616,"sekretÃ¦r":9617,"Ġskuffet":9618,"Ġusikkerhet":9619,"reen":9620,"delses":9621,"Ġdelene":9622,"Ġkoordin":9623,"Ġkandidater":9624,"Ã³":9625,"Ġforbin":9626,"Ġbryr":9627,"Ġforpliktelser":9628,"annet":9629,"lutt":9630,"Ġenstemmig":9631,"ĠNÃ¦r":9632,"ations":9633,"Ġbredde":9634,"Ġselvtillit":9635,"Ġlegemidler":9636,"ĠKors":9637,"ĠFikk":9638,"vitenskap":9639,"Ġoppkobling":9640,"ĠTror":9641,"Ġbetydningen":9642,"Ġprotein":9643,"ckholm":9644,"ĠaktÃ¸rene":9645,"Ġmaskinen":9646,"Ġbanken":9647,"oda":9648,"Ġtidspunktet":9649,"Ã¥lmod":9650,"ĠSenere":9651,"ĠNeder":9652,"ĠoverfÃ¸ring":9653,"ĠlÃ¦rte":9654,"OD":9655,"Ġhag":9656,"Ġferdige":9657,"ĠCup":9658,"ĠMuse":9659,"ugh":9660,"Ġ800":9661,"Ġinnvandrer":9662,"Ġannonse":9663,"ĠAfrika":9664,"Ġ1996":9665,"spesi":9666,"ĠDeres":9667,"Ġavd":9668,"ĠsÃ¸rget":9669,"Ġanalyser":9670,"Ġlisens":9671,"Ġutk":9672,"Ġvanligste":9673,"ĠfremgÃ¥r":9674,"Ġluks":9675,"Ã¸velse":9676,"Ġreferanse":9677,"sÃ¸kere":9678,"ĠLi":9679,"innhold":9680,"ĠVideo":9681,"88":9682,"sanlegg":9683,"Ġnabo":9684,"Ġordene":9685,"Ġstyrings":9686,"Ġmannlige":9687,"rikk":9688,"stjeneste":9689,"tekst":9690,"ĠNytt":9691,"endal":9692,"Ġleiligheten":9693,"ĠoppnÃ¥dd":9694,"Les":9695,"XX":9696,"ĠSÃ¦":9697,"ĠforhÃ¥pentligvis":9698,"ĠGunnar":9699,"Ġlagret":9700,"nal":9701,"cont":9702,"ĠAnsvar":9703,"outube":9704,"Ġtimen":9705,"ĠÃĺr":9706,"Ġsliten":9707,"He":9708,"sser":9709,"Ġsittende":9710,"Ġspist":9711,"ĠLÃ¸":9712,"Ġout":9713,"Ġintellig":9714,"box":9715,"ortering":9716,"vig":9717,"ĠTusen":9718,"Ġsnitt":9719,"Ġkommunal":9720,"Ġlykkelig":9721,"ĠhÃ¥ndtering":9722,"ĠAks":9723,"mannens":9724,"ĠInstagram":9725,"ĠDr":9726,"Ġorgas":9727,"Ġinternt":9728,"melse":9729,"ĠNilsen":9730,"Sel":9731,"Ġtrekkes":9732,"Ġomd":9733,"ĠmÃ¸bler":9734,"Ġmig":9735,"Ġdeilige":9736,"hael":9737,"ĠÃħrets":9738,"Ġkino":9739,"46":9740,"Ġmak":9741,"ĠfremstÃ¥r":9742,"ĠHeg":9743,"aktige":9744,"handlet":9745,"making":9746,"Ġ1995":9747,"49":9748,"Ġoppvarming":9749,"Ġlengst":9750,"aliser":9751,"Ġfemte":9752,"Ġliter":9753,"allene":9754,"skrevet":9755,"ĠsÃ¥ledes":9756,"osa":9757,"Ġnegativ":9758,"Ġavslutter":9759,"Ġangitt":9760,"Ġvedtok":9761,"Ġforetak":9762,"kvalitet":9763,"Ġkunstnere":9764,"Ġbost":9765,"olusjon":9766,"fol":9767,"ĠinnrÃ¸mme":9768,"Ġressur":9769,"Ġbilligere":9770,"Ã¸der":9771,"Ġdelte":9772,"skop":9773,"Ġdags":9774,"ternativ":9775,"ĠkjÃ¦rester":9776,"Ġdanner":9777,"ĠFormann":9778,"Ġvisjon":9779,"oppdrag":9780,"ĠgjennomgÃ¥tt":9781,"Ġproblemstillinger":9782,"ĠHordaland":9783,"Ġsne":9784,"vennlige":9785,"Nett":9786,"Ġ2020":9787,"core":9788,"Ġprodusent":9789,"ĠoverfÃ¸rt":9790,"Ġtilsvarer":9791,"ĠCa":9792,"izza":9793,"dra":9794,"bank":9795,"ci":9796,"Ġungene":9797,"ĠfÃ¸lg":9798,"Ġbygde":9799,"Ġfund":9800,"begyn":9801,"jour":9802,"Ġthis":9803,"sfag":9804,"forbruk":9805,"ĠKro":9806,"ĠHi":9807,"Ġtakknem":9808,"dato":9809,"ĠRon":9810,"ĠBir":9811,"ĠStrand":9812,"ĠTri":9813,"sprogrammet":9814,"lÃ¦r":9815,"Ġpkt":9816,"nettsteder":9817,"Ġoppfor":9818,"Ġbekymret":9819,"vde":9820,"sperioden":9821,"Ġull":9822,"punkter":9823,"Ġsjokolade":9824,"ĠMobil":9825,"skritt":9826,"2014":9827,"treff":9828,"Ġforbruks":9829,"meldingen":9830,"ĠSpar":9831,"ĠForfatter":9832,"Ġgenerasjoner":9833,"Ġgruppene":9834,"Ġelsket":9835,"Ġvariert":9836,"Ġhekte":9837,"slÃ¸s":9838,"kontoret":9839,"Ġ01":9840,"Ġverdien":9841,"maskin":9842,"Ġokku":9843,"SP":9844,"Ġdokumentere":9845,"Takk":9846,"Ġdistribusjon":9847,"Ġinni":9848,"ĠMarit":9849,"ingsf":9850,"Ġnedgang":9851,"legge":9852,"Ġtrafikken":9853,"Ġfase":9854,"Ġdokumentert":9855,"ĠhÃ¥ndball":9856,"Ġintervj":9857,"Ġfattige":9858,"Ġkalde":9859,"Ġkirur":9860,"spunkter":9861,"ĠfullfÃ¸re":9862,"oppgave":9863,"Ġbrem":9864,"skapets":9865,"Ġpet":9866,"inasjon":9867,"ĠHaugesund":9868,"ĠTenk":9869,"Ġgjenstand":9870,"Ġblanding":9871,"teriene":9872,"ĠÃ¥penhet":9873,"Ġtvunget":9874,"Ġkartlegging":9875,"sjetter":9876,"ĠsÃ¥nt":9877,"Ġtrykket":9878,"ĠTar":9879,"Ġoppmun":9880,"etaten":9881,"Ã¦rende":9882,"ĠðŁĺ":9883,"Ġsamboer":9884,"Ġmennene":9885,"ĠStandard":9886,"somrÃ¥det":9887,"Ġfremgang":9888,"Ġisoler":9889,"smater":9890,"Ġfinger":9891,"Ġfrie":9892,"Ġmusli":9893,"Ġgraf":9894,"ĠHMS":9895,"ĠUtvalg":9896,"AND":9897,"Ġforberede":9898,"Ġtalt":9899,"ĠStatoil":9900,"delsene":9901,"Ġgevin":9902,"Ġsamleie":9903,"KKE":9904,"Ġfylkeskommune":9905,"ĠFormÃ¥let":9906,"ylling":9907,"Ġkongen":9908,"anere":9909,"Ġnegativt":9910,"Ġforresten":9911,"sretten":9912,"rÃ¥der":9913,"ĠHum":9914,"asp":9915,"Ġposten":9916,"pool":9917,"klassen":9918,"Ġrekruttering":9919,"ledere":9920,"ĠUtdan":9921,"Ġarrangementet":9922,"Ġekteskapet":9923,"prÃ¸ver":9924,"Ġkriterier":9925,"ĠsÃ¦re":9926,"Ġbeliggenhet":9927,"Ġavanserte":9928,"ĠfortlÃ¸pende":9929,"Ġelektrisk":9930,"Ġoks":9931,"Ġnettbrett":9932,"nelse":9933,"hei":9934,"Ġarm":9935,"Ġetiske":9936,"kurranse":9937,"Ġpartier":9938,"Ġturn":9939,"ĠstÃ¸rrelser":9940,"ĠFÃ¸lg":9941,"Ġhjemmelaget":9942,"Ġarrangerer":9943,"Ġavisen":9944,"Ġoppdager":9945,"ĠdrÃ¸mme":9946,"jere":9947,"Ġheldige":9948,"banken":9949,"pli":9950,"ĠAF":9951,"ifter":9952,"ĠMeld":9953,"42":9954,"Ġjournalister":9955,"sene":9956,"Ġanerkjente":9957,"opplevelse":9958,"ĠTabell":9959,"Ġrelatert":9960,"Ġ185":9961,"ĠEnergi":9962,"kjenner":9963,"opplys":9964,"ĠSum":9965,"ksÃ¥":9966,"Ġprinsipper":9967,"seier":9968,"Ñĥ":9969,"Ġstudio":9970,"Ġ43":9971,"Ġsult":9972,"gruppene":9973,"Ġskolens":9974,"Ġskilsm":9975,"ĠSandefjord":9976,"Ġlevde":9977,"givende":9978,"Ġkonkurranser":9979,"fle":9980,"2013":9981,"tal":9982,"Ġkjendis":9983,"Ġblad":9984,"Ġbidro":9985,"ĠMoss":9986,"Ġkategorien":9987,"ĠCanada":9988,"Ġveileder":9989,"Ġteoret":9990,"ĠTen":9991,"lisere":9992,"Ġvennene":9993,"Ġtilsynelatende":9994,"Ġgrunnlagt":9995,"Ġutformet":9996,"Ã¸yene":9997,"Ġkunnskaper":9998,"Ġmotsatte":9999,"Ġintroduksjon":10000,"Ġevig":10001,"Ġ49":10002,"Ġoffent":10003,"Ġvideoen":10004,"Ġinf":10005,"skift":10006,"Ġaff":10007,"Ġcum":10008,"Ġmore":10009,"Ġsvake":10010,"uset":10011,"ĠTelen":10012,"Ġ1994":10013,"Ġhimmelen":10014,"handle":10015,"Ġskar":10016,"Ġtegnet":10017,"Ġvenninne":10018,"kortet":10019,"fÃ¸ringer":10020,"Ġhjalp":10021,"ĠPass":10022,"ĠHvilke":10023,"Ġspons":10024,"jort":10025,"enga":10026,"alitets":10027,"Ġhundrevis":10028,"Ġhekt":10029,"umper":10030,"Ġrens":10031,"Ġflyet":10032,"Ġmoden":10033,"Ġanbefalinger":10034,"Ġsjanser":10035,"ĠFilm":10036,"ĠÃĺster":10037,"Ġskjemaet":10038,"Ġhd":10039,"Ġhei":10040,"ray":10041,"Ġnoveller":10042,"ĠSl":10043,"Ġkaff":10044,"oline":10045,"ĠHD":10046,"Ġversjonen":10047,"ĠtenÃ¥ring":10048,"ĠÃ¸nskelig":10049,"ĠFant":10050,"Bil":10051,"ĠAnaly":10052,"Ġfond":10053,"Ġelske":10054,"eldige":10055,"ĠbelÃ¸pet":10056,"Ġkalk":10057,"Ġpoker":10058,"Ġdanne":10059,"Ġ1960":10060,"Ġbanker":10061,"Ġkatt":10062,"Ġmobbing":10063,"fen":10064,"Ġgeb":10065,"komne":10066,"gaard":10067,"ĠSÃ¦rlig":10068,"Ġgjentatte":10069,"Mens":10070,"Ġhavn":10071,"ĠNar":10072,"Ġlukket":10073,"fravÃ¦r":10074,"omer":10075,"Ġmelk":10076,"Ġdels":10077,"bordet":10078,"ttende":10079,"kunnskap":10080,"ĠsmÃ¸r":10081,"Ġ67":10082,"Ġovertok":10083,"ĠStad":10084,"ĠâĨ":10085,"Ġasiatiske":10086,"Ġarbeidsplass":10087,"Ġimport":10088,"Ġsopp":10089,"ĠForlag":10090,"Ġrydde":10091,"ttere":10092,"**":10093,"ĠBilder":10094,"Ġinnblikk":10095,"ĠArbeiderpartiet":10096,"Ġkjeller":10097,"ĠNov":10098,"Ġpoli":10099,"ĠReal":10100,"Ġkameraet":10101,"Ġskrives":10102,"Ġambass":10103,"Ġfantes":10104,"Ġagen":10105,"Ġsle":10106,"atoriske":10107,"Ġvev":10108,"tektene":10109,"ĠBarna":10110,"ĠHÃ¸r":10111,"ĠSystem":10112,"anny":10113,"Ġmaterial":10114,"ĠElis":10115,"ĠAustralia":10116,"Ġdrap":10117,"ATO":10118,"ĠÃħlesund":10119,"mentering":10120,"nadene":10121,"ĠMay":10122,"ĠTyrkia":10123,"alb":10124,"kkelt":10125,"kkert":10126,"somrÃ¥de":10127,"eksjon":10128,"pri":10129,"ĠimÃ¸te":10130,"vester":10131,"Ġknappen":10132,"Ġlesbiske":10133,"frik":10134,"ĠKÃ¸benhavn":10135,"Ġseminar":10136,"Ġvarianter":10137,"Ġsekund":10138,"ĠHit":10139,"Ġsmaker":10140,"stod":10141,"ĠÃ¥pningen":10142,"ĠflÃ¸rt":10143,"Ġhavne":10144,"Ġklipp":10145,"ĠhumÃ¸r":10146,"oro":10147,"Ġforvir":10148,"Ġholdning":10149,"eden":10150,"Ġbassen":10151,"Ġvirkemidler":10152,"Ġmale":10153,"marks":10154,"ĠnoksÃ¥":10155,"Ġlure":10156,"Ġbevare":10157,"ĠrÃ¸yk":10158,"Ġskjulte":10159,"bered":10160,"Ġtel":10161,"Ġarbeidstid":10162,"Ġtegne":10163,"uller":10164,"klasse":10165,"Ġkorn":10166,"Ġhovedstaden":10167,"ĠNorden":10168,"Ġkald":10169,"vnen":10170,"Ġdets":10171,"avdeling":10172,"Ġbach":10173,"Ġ41":10174,"Ġeffektivitet":10175,"ĠVet":10176,"Ġgutten":10177,"Ġrapportering":10178,"ĠFe":10179,"Ġquiz":10180,"Ġgn":10181,"uminium":10182,"Ġbillett":10183,"Ġhittil":10184,"ssyn":10185,"Ġbron":10186,"Ġsper":10187,"ĠAnt":10188,"Ġpolitid":10189,"Ġberg":10190,"Ġsistnevnte":10191,"Ġakseptere":10192,"olt":10193,"terende":10194,"chester":10195,"Ġanvende":10196,"Ġbrun":10197,"ĠRen":10198,"ĠsÃ¸ket":10199,"Ġplukket":10200,"Ġtykk":10201,"Ġoppdraget":10202,"Kon":10203,"ĠTem":10204,"Ġvinn":10205,"Ġspent":10206,"hÃ¸yde":10207,"Ġfungerte":10208,"ĠAD":10209,"ifisert":10210,"Ġbadet":10211,"Ġsterkeste":10212,"Ġtolv":10213,"kode":10214,"Ġvurderingen":10215,"ĠskjÃ¸nte":10216,"Ġforebyggende":10217,"kart":10218,"annonse":10219,"ĠtÃ¸y":10220,"Stat":10221,"Ġkjer":10222,"Ġveiled":10223,"Ġcirka":10224,"ĠBes":10225,"ĠKristus":10226,"akse":10227,"Ã¸mming":10228,"Ġvegvesen":10229,"Ġgirls":10230,"ĠPat":10231,"ologien":10232,"Ġvestlige":10233,"ila":10234,"ula":10235,"Ã¸nstre":10236,"ĠForbruker":10237,"Ġkonsekvensene":10238,"fabri":10239,"Ġsengen":10240,"Ġson":10241,"Ġfunksjonen":10242,"Â¥":10243,"Ġkommunes":10244,"Ġdrifts":10245,"ĠJern":10246,"ĠbestÃ¥ende":10247,"ĠPR":10248,"ĠRosen":10249,"ĠHÃ¥kon":10250,"Ġbarnas":10251,"Ġroman":10252,"Ġregjeringens":10253,"Ġhende":10254,"Ġbudsjettet":10255,"ĠEnd":10256,"Ġblogge":10257,"ĠsÃ¦rskilt":10258,"sdagen":10259,"Ġstrenge":10260,"PR":10261,"Ġsnill":10262,"ĠInnovasjon":10263,"log":10264,"Ġbillige":10265,"asinet":10266,"ĠSund":10267,"Ã¸ken":10268,"Ġtredjepart":10269,"Ġnakenbilder":10270,"âĢĶ":10271,"ĠBerlin":10272,"Ġjournalist":10273,"bak":10274,"chen":10275,"ĠArbeidet":10276,"Ġbygningen":10277,"ĠSexy":10278,"inÃ¦r":10279,"Ġhendelsen":10280,"Ġhaha":10281,"Ġriktignok":10282,"ĠEN":10283,"smuligheter":10284,"ĠrÃ¥dgiver":10285,"cker":10286,"elsens":10287,"Ġstoffet":10288,"Ġpast":10289,"taler":10290,"ĠStudent":10291,"Ġerstattet":10292,"Ġmobiltelefoner":10293,"Ġhell":10294,"ĠSMS":10295,"Ġteknikker":10296,"jes":10297,"krev":10298,"Ġlevet":10299,"Ġgyldig":10300,"ĠhÃ¸rings":10301,"Ġluften":10302,"komiteen":10303,"sset":10304,"Ġfortid":10305,"Ġhorm":10306,"areal":10307,"stendige":10308,"%.":10309,"Ġgrei":10310,"ĠMÃ¸re":10311,"Ġbodd":10312,"ict":10313,"Ġnabol":10314,"ĠTopp":10315,"ennis":10316,"Bok":10317,"ĠKle":10318,"ĠskjÃ¸nne":10319,"ĠJakob":10320,"Ġsammenhengen":10321,"Ġargumenter":10322,"Ġdekkes":10323,"Ġomhandler":10324,"Ġomstendig":10325,"ĠFram":10326,"ĠIr":10327,"Ġph":10328,"Ã¸nnen":10329,"Ġgarder":10330,"SM":10331,"VÃ¥re":10332,"ĠGrand":10333,"stilsynet":10334,"ĠkÃ¸":10335,"ĠPal":10336,"Ġbilletter":10337,"ady":10338,"Ġstole":10339,"rete":10340,"Ġforskrifter":10341,"driv":10342,"ulasjon":10343,"Ġfuktighet":10344,"slov":10345,"sverk":10346,"instituttet":10347,"ĠmÃ¸rket":10348,"Ġdildo":10349,"utdann":10350,"ĠVelkommen":10351,"rerer":10352,"Ġreagerer":10353,"Ġhjerne":10354,"Ġtiltaket":10355,"veren":10356,"ĠFÃ¸lgende":10357,"Ġgeneralfor":10358,"ĠFire":10359,"Ġarbeidskraft":10360,"Ser":10361,"ĠEle":10362,"Ñĭ":10363,"ĠKjÃ¦re":10364,"Ġoverv":10365,"Ġklubbens":10366,"Ġformidling":10367,"Ġelement":10368,"ĠseriÃ¸st":10369,"systemer":10370,"ÃŃ":10371,"Ġbarnevernet":10372,"video":10373,"anker":10374,"aritet":10375,"smyndig":10376,"holt":10377,"Ġurin":10378,"administrasjon":10379,"ĠPriv":10380,"Ġfordeling":10381,"Ġ1500":10382,"Ġbeslutninger":10383,"ms":10384,"rerte":10385,"Ġutlend":10386,"verdier":10387,"ĠKjÃ¸":10388,"Ġmerkelig":10389,"priser":10390,"avis":10391,"Ġarrangere":10392,"Ġplassere":10393,"Ġsjokk":10394,"wer":10395,"ĠUniversity":10396,"Ġinnsyn":10397,"Ġfeire":10398,"Ġbussen":10399,"Ġvidereutvikle":10400,"Ġtreningen":10401,"Ġgjenspe":10402,"Ġinnslag":10403,"anlegging":10404,"ĠhÃ¸yden":10405,"elÃ¸p":10406,"ĠId":10407,"ĠLib":10408,"idi":10409,"bevegelsen":10410,"Ġscener":10411,"Ġkutte":10412,"Ġinnbygger":10413,"alls":10414,"ĠGrÃ¸n":10415,"ĠSof":10416,"Ġkritiske":10417,"Â®":10418,"Ġavslutte":10419,"ĠmÃ¸t":10420,"Ġautomat":10421,"Ġunnskyld":10422,"ĠâĨĴ":10423,"43":10424,"fru":10425,"Ġstimulere":10426,"reet":10427,"Ġbetydelige":10428,"Ġlink":10429,"Ġinnle":10430,"Ġhverken":10431,"Ġ85":10432,"Ġdatteren":10433,"ĠProf":10434,"Ġverdiskap":10435,"ĠHammer":10436,"uel":10437,"Ġeleg":10438,"Ġutle":10439,"Ġimmun":10440,"Andre":10441,"helsetjenesten":10442,"Ġsaksbehandling":10443,"Ġvassdrag":10444,"apper":10445,"ĠKost":10446,"Ġlagres":10447,"abetes":10448,"lav":10449,"Ġdiskusjoner":10450,"Ġmalt":10451,"ENT":10452,"On":10453,"Ġomgivelsene":10454,"ryt":10455,"nivÃ¥et":10456,"ĠgjennomfÃ¸ringen":10457,"Ġstedene":10458,"Ġbeteg":10459,"Ġfullmakt":10460,"ĠSukker":10461,"ĠtrÃ¸":10462,"Tor":10463,"Ġrettss":10464,"Ġsykepleier":10465,"ĠStorting":10466,"2012":10467,"ftes":10468,"ttal":10469,"ĠopplÃ¦ringen":10470,"Ġstandarder":10471,"Ġfalske":10472,"ĠÃ¸vre":10473,"lymp":10474,"Ġlangrenn":10475,"aluering":10476,"sar":10477,"Ġhjerter":10478,"ĠInternational":10479,"ĠHard":10480,"strekk":10481,"Ġherre":10482,"vikt":10483,"Ġattraktive":10484,"Ġutelukkende":10485,"ĠSamarbeid":10486,"ĠUSAs":10487,"Ġlandbruks":10488,"ĠForsvaret":10489,"strategi":10490,"Ġnyttige":10491,"ĠhÃ¥ndverk":10492,"Ġutredning":10493,"Ġsola":10494,"Ġstav":10495,"ĠDis":10496,"Ġcup":10497,"ĠWilli":10498,"Ġkartlegge":10499,"ppy":10500,"Ġhastighet":10501,"igelse":10502,"ĠEinar":10503,"Ġ,-":10504,"imellom":10505,"Ġfremste":10506,"Ġappar":10507,"ĠPre":10508,"ĠHalvor":10509,"haugen":10510,"skostnader":10511,"neren":10512,"skjerm":10513,"ĠHall":10514,"Ġfremmer":10515,"Ġfaktiske":10516,"ĠThailand":10517,"Ġbestilt":10518,"ĠpÃ¥virkning":10519,"Ġsavnet":10520,"ileum":10521,"Ġback":10522,"Ġlinjer":10523,"sign":10524,"Ġfordy":10525,"yp":10526,"Ġunderhold":10527,"Ġdetaljert":10528,"Ġmetoden":10529,"Ġatom":10530,"Ġopplyst":10531,"Ġglim":10532,"ferien":10533,"Ġprinsippet":10534,"edirektoratet":10535,"Ġtegnes":10536,"Ġmaling":10537,"odden":10538,"Ġscor":10539,"Ġkjempet":10540,"orea":10541,"ota":10542,"ronten":10543,"cher":10544,"ĠMaster":10545,"Ġlikes":10546,"ĠEurope":10547,"Wh":10548,"valgt":10549,"ded":10550,"slutt":10551,"Ġoppskriften":10552,"cm":10553,"Ġregistrerer":10554,"fghan":10555,"Ġkombinere":10556,"vat":10557,"iki":10558,"ĠdÃ¸den":10559,"\":":10560,"ĠBi":10561,"strasjoner":10562,"Ġmeldte":10563,"egang":10564,"Ġgolf":10565,"Ġemner":10566,"status":10567,"ebygg":10568,"bus":10569,"ekont":10570,"Ġadvar":10571,"Ġsannheten":10572,"Ġtenner":10573,"Ġglipp":10574,"Ġambisjoner":10575,"ĠHR":10576,"rapporten":10577,"Ġopplegg":10578,"DI":10579,"ikeren":10580,"vekkende":10581,"ĠRek":10582,"Ġtruet":10583,"mis":10584,"ĠGode":10585,"Ġanim":10586,"ĠRÃ¸de":10587,"sik":10588,"Ġasf":10589,"Ġkra":10590,"regist":10591,"ĠMass":10592,"Fre":10593,"Ġcollege":10594,"Ġdyrt":10595,"ĠhÃ¸ydepunkt":10596,"Ġhave":10597,"terings":10598,"Ġpassende":10599,"orgrad":10600,"ĠBrasil":10601,"Ġdatert":10602,"Ġsvikt":10603,"Ġintet":10604,"Ġpleie":10605,"UM":10606,"otiske":10607,"ĠJord":10608,"Ġaktivitets":10609,"undervisning":10610,"Ġbevegelser":10611,"samfunnet":10612,"dert":10613,"aljer":10614,"ĠRegn":10615,"skvalitet":10616,"drende":10617,"Ġslette":10618,"Ġinspirere":10619,"ĠAre":10620,"studier":10621,"ĠTro":10622,"Ġhunde":10623,"ĠBal":10624,"Ġenighet":10625,"stiller":10626,"Ġskaff":10627,"Ġregnskaps":10628,"Ġgodkjennes":10629,"aa":10630,"Ġavsk":10631,"ĠâĻ¥":10632,"Ġinvestere":10633,"Ġaviser":10634,"ĠnÃ¦rhet":10635,"skene":10636,"Ġforenk":10637,"akken":10638,"ĠEmil":10639,"ax":10640,"ĠNot":10641,"Ġdug":10642,"Ġkompetansen":10643,"Ġvaluta":10644,"ĠEUs":10645,"alter":10646,"Ġorganisasjons":10647,"Ã¦v":10648,"aka":10649,"Ġforferd":10650,"landske":10651,"ĠsjÃ¥fÃ¸r":10652,"Ġtariff":10653,"ĠMenne":10654,"ĠutgjÃ¸re":10655,"serie":10656,"Ġsannsynlighet":10657,"ĠoppfÃ¸rsel":10658,"Ġarbeidsoppgaver":10659,"ĠRand":10660,"Ġstiler":10661,"Ġkorrig":10662,"ĠCor":10663,"kasser":10664,"litteratur":10665,"Ġhilsen":10666,"ĠVerdens":10667,"store":10668,"ansatte":10669,"gam":10670,"ĠdÃ¸ds":10671,"Ġvri":10672,"Ġsykler":10673,"Ġ1992":10674,"ĠInnen":10675,"grense":10676,"Ġreserv":10677,"Ġspark":10678,"ĠDrift":10679,"ox":10680,"ĠLES":10681,"legges":10682,"Kv":10683,"preg":10684,"Ġkreativitet":10685,"stasjoner":10686,"klubben":10687,"ĠdÃ¸rer":10688,"bedrift":10689,"FOR":10690,"eist":10691,"skytt":10692,"Ġsofaen":10693,"ĠSentral":10694,"41":10695,"Ġmuntlig":10696,"farge":10697,"Ġlidelser":10698,"ĠStockholm":10699,"Ġsamspill":10700,"Ġstrategisk":10701,"Ġavdelinger":10702,"ĠMusikk":10703,"jente":10704,"Ġspillene":10705,"Ġ56":10706,"una":10707,"Ġlande":10708,"visningen":10709,"Ġuv":10710,"Ġhttps":10711,"ĠÃ¸yet":10712,"Ġpalestin":10713,"Ġlandsby":10714,"Ġprioritere":10715,"Ġif":10716,"Ġloj":10717,"feksjoner":10718,"Ġsjekker":10719,"Ġskjeb":10720,"Ġkjekt":10721,"ĠsexleketÃ¸y":10722,"Ġforsvare":10723,"SD":10724,"ĠatmosfÃ¦re":10725,"Ġ1993":10726,"Ġkode":10727,"spital":10728,"Ġmobiltelefon":10729,"ĠFj":10730,"Ġgodkjente":10731,"Ġoppskrifter":10732,"ĠinnendÃ¸rs":10733,"jenestene":10734,"Ġunikt":10735,"Ġforpliktet":10736,"ĠkÃ¥t":10737,"ituasjonen":10738,"utikk":10739,"sykdom":10740,"ĠBI":10741,"Ġnedlast":10742,"Ġforetas":10743,"Ġvitenskapelig":10744,"kr":10745,"ĠdÃ¸dsf":10746,"Ġferien":10747,"Ġkolleger":10748,"ĠTinder":10749,"ownload":10750,"Ġforhandlinger":10751,"ĠmÃ¸teplassen":10752,"Ġdefinisjon":10753,"ĠKim":10754,"Ġavansert":10755,"vd":10756,"Ġbekreft":10757,"Ġsivile":10758,"ĠAlta":10759,"Ã¥rets":10760,"Ġturister":10761,"Ã¥rig":10762,"Ġsmarttelefoner":10763,"itten":10764,"sektoren":10765,"konstru":10766,"jan":10767,"Ġaktiviteten":10768,"Ġstammer":10769,"Ġstatlig":10770,"La":10771,"Ġnetto":10772,"Ġ95":10773,"inge":10774,"Ġforbund":10775,"ĠUkra":10776,"ĠBjer":10777,"ĠBesÃ¸k":10778,"ferdighet":10779,"list":10780,"ĠLÃ¦r":10781,"ĠPres":10782,"Ġpc":10783,"Ġtradisjonelt":10784,"Ġannons":10785,"Ġnat":10786,"faglige":10787,"Ġoppbevaring":10788,"Ġrevid":10789,"Ġnevner":10790,"Ġendelige":10791,"sforbund":10792,"Ġflagg":10793,"Ġledige":10794,"brand":10795,"ript":10796,"Ġbri":10797,"Ġringer":10798,"Ġvinduer":10799,"usia":10800,"Ġdatamaskiner":10801,"Ġmatchmaking":10802,"Ġkonflikter":10803,"Ġeksisterer":10804,"TA":10805,"Ġpunkter":10806,"Ġomfattet":10807,"illes":10808,"Ġmuslimske":10809,"Ġfingrene":10810,"Ġelva":10811,"gÃ¥rden":10812,"lette":10813,"arkiv":10814,"ee":10815,"ĠSpÃ¸rsmÃ¥l":10816,"Ġanalysere":10817,"ĠSmÃ¥":10818,"ansere":10819,"Ġinkludere":10820,"Ġbedriftene":10821,"Ġpremie":10822,"ĠSiste":10823,"Ġutstillingen":10824,"ĠbrÃ¥":10825,"ĠnedbÃ¸r":10826,"ĠEnkelte":10827,"skogen":10828,"Ġ99":10829,"Ġstjerne":10830,"Ġfat":10831,"ĠforstÃ¥tt":10832,"ĠUtdannings":10833,"ĠJonas":10834,"produksjonen":10835,"oblet":10836,"ĠID":10837,"ĠLarvik":10838,"Ġhellig":10839,"Ġhobby":10840,"Ġkomple":10841,"klaring":10842,"Ġbetalings":10843,"Ġpersonal":10844,"Ġbevissthet":10845,"CC":10846,"akon":10847,"issen":10848,"Ġselvmord":10849,"rap":10850,"Ġmestring":10851,"Ġgjengen":10852,"ory":10853,"behandler":10854,"firma":10855,"ĠBedrift":10856,"slene":10857,"ĠTest":10858,"ĠsprÃ¸y":10859,"ĠBrit":10860,"Ġemp":10861,"to":10862,"ĠHvert":10863,"Ġmas":10864,"ĠIran":10865,"Ġsluppet":10866,"sprosess":10867,"ĠVictor":10868,"Th":10869,"Ġerkl":10870,"Ġgrill":10871,"KE":10872,"ĠGamle":10873,"Ġuttalelse":10874,"forsÃ¸k":10875,"Ġroller":10876,"Ġkinesiske":10877,"Ġtrenere":10878,"Ġmenneskelige":10879,"Ġytr":10880,"Ġbryllup":10881,"Ġoverflate":10882,"ĠKlo":10883,"umpe":10884,"ĠBoken":10885,"BS":10886,"Ġ66":10887,"Ġdusj":10888,"teret":10889,"Ã¸rsmÃ¥l":10890,"esta":10891,"Ġplanene":10892,"ĠGren":10893,"stillatelse":10894,"bakgrunn":10895,"ĠHem":10896,"outh":10897,"Ġsem":10898,"ĠMotor":10899,"ous":10900,"marked":10901,"Ġengasjere":10902,"ĠCD":10903,"ĠAc":10904,"Ġsymbo":10905,"Ġranger":10906,"85":10907,"ĠAngel":10908,"Ġtydeligvis":10909,"Ġestet":10910,"Ġtemp":10911,"Ã¸nning":10912,"Ġmage":10913,"ĠKS":10914,"Ġhester":10915,"ĠTema":10916,"Ġreklam":10917,"Ġkoblet":10918,"Ġfotografer":10919,"Ġsed":10920,"iren":10921,"funksjonen":10922,"Ġpartiene":10923,"Ġspilleautomater":10924,"ĠSep":10925,"vurdering":10926,"sykkel":10927,"Ġjula":10928,"Ġseksjon":10929,"ĠJar":10930,"splaner":10931,"annsyn":10932,"Ġfriluftsliv":10933,"Ġnederst":10934,"Ġsatsing":10935,"ĠNederland":10936,"enke":10937,"setter":10938,"jerne":10939,"Ġinnsiden":10940,"mott":10941,"Ġtape":10942,"Ġtildeling":10943,"riper":10944,"ĠOppland":10945,"Ġfarlige":10946,"ĠUtvikling":10947,"umentene":10948,"grid":10949,"ĠsnÃ¸en":10950,"billetter":10951,"Ġcamping":10952,"Ġpersonene":10953,"Ġstorm":10954,"ĠLof":10955,"Ġ07":10956,"ality":10957,"ĠWi":10958,"Ġkrets":10959,"ĠMath":10960,"bÃ¸l":10961,"Ingen":10962,"ugar":10963,"ĠmÃ¸ttes":10964,"ementene":10965,"Ha":10966,"Ġnydelige":10967,"ĠTelenor":10968,"svoll":10969,"Ġisrael":10970,"Ġsiktet":10971,"ĠberÃ¸mte":10972,"Ġinteressen":10973,"Kommun":10974,"ago":10975,"vÃ¥g":10976,"ĠRus":10977,"Ġslipp":10978,"Ġtroen":10979,"Ġris":10980,"Ġmenighet":10981,"ĠRas":10982,"ĠEspen":10983,"Ġpermanent":10984,"savtale":10985,"Ġbegre":10986,"ĠPolen":10987,"Ġoperasjoner":10988,"Ġinnhente":10989,"Ġkonserter":10990,"esn":10991,"ĠÃ¸velse":10992,"stedev":10993,"atoren":10994,"ritt":10995,"inering":10996,"Ġoppholdet":10997,"ĠRagn":10998,"budsjett":10999,"ategori":11000,"Ġordre":11001,"Ġdype":11002,"Ġbestand":11003,"alistiske":11004,"ushet":11005,"Ġintim":11006,"Ġsjakk":11007,"Ġknall":11008,"Ġheve":11009,"institusjon":11010,"Kr":11011,"sprosesser":11012,"Ġurett":11013,"Ġglatt":11014,"Ġtilrettelagt":11015,"ĠSiv":11016,"sing":11017,"Ġteller":11018,"Ġendt":11019,"Ġrekker":11020,"levering":11021,"ĠSkulle":11022,"interv":11023,"zy":11024,"Ġkartet":11025,"Ġfysi":11026,"sÃ¸ke":11027,"Ġpresenteres":11028,"Ġkniv":11029,"Ġanerkjent":11030,"ĠSpill":11031,"Ġbekymring":11032,"opptak":11033,"olske":11034,"Ġderfra":11035,"Ġprofilen":11036,"Ġforlot":11037,"ĠfÃ¸dsels":11038,"Ġindividuell":11039,"Ġadministrative":11040,"ĠSent":11041,"ivert":11042,"strert":11043,"Ġgaranti":11044,"festivalen":11045,"Ġbun":11046,"Ġpepper":11047,"Ġlade":11048,"Var":11049,"onere":11050,"Ġrasjon":11051,"ĠlÃ¥ter":11052,"Ġfargene":11053,"].":11054,"ĠoverfÃ¸res":11055,"Ġdop":11056,"Ġoverordnede":11057,"Ġtabell":11058,"celler":11059,"Ġfet":11060,"Ġkren":11061,"ĠVÃ¥ler":11062,"sbrudd":11063,"spris":11064,"udi":11065,"Ġkasino":11066,"Ġspek":11067,"Ġopprinnelse":11068,"ĠNorth":11069,"Ġrettes":11070,"speriode":11071,"Ġferske":11072,"Ġchatte":11073,"Ġanledninger":11074,"Ġartig":11075,"fiske":11076,"Ġinnvandring":11077,"ristian":11078,"Ġsjeldne":11079,"Ġpakk":11080,"Ġkopi":11081,"ĠfrÃ¸":11082,"Ġarkitektur":11083,"tap":11084,"Ġkvalifisert":11085,"Ġinnled":11086,"ĠtÃ¸ffe":11087,"shistor":11088,"Ġfornuftig":11089,"ĠordinÃ¦r":11090,"ektor":11091,"ĠVoks":11092,"ĠRÃ¸d":11093,"Ġforeles":11094,"ĠForsknings":11095,"Ġstrategier":11096,"seri":11097,"ĠEkte":11098,"Ġliber":11099,"Ġtabellen":11100,"mÃ¸ter":11101,"Ġinntak":11102,"engen":11103,"ĠRam":11104,"Ġlove":11105,"Ġavgang":11106,"ĠChamp":11107,"nettet":11108,"ydra":11109,"Ġbegrensninger":11110,"Ġartister":11111,"Ġfylte":11112,"ĠBry":11113,"ruk":11114,"splassen":11115,"Ġ52":11116,"adrat":11117,"astisk":11118,"Ġskjult":11119,"Ġlesing":11120,"ĠentreprenÃ¸r":11121,"ĠMichael":11122,"Ġrespons":11123,"Ġplager":11124,"ĠHelge":11125,"Ġfestet":11126,"ĠmiljÃ¸er":11127,"Ġfjernes":11128,"ĠOK":11129,"Ġded":11130,"Ġforholdsvis":11131,"Ġforfattere":11132,"Ġskept":11133,"Ġler":11134,"ĠnÃ¥dd":11135,"Ã¸dsel":11136,"Ġapote":11137,"ĠAnbef":11138,"ianne":11139,"Ġundervisningen":11140,"ĠNic":11141,"sprosjektet":11142,"Ġ1950":11143,"Ġskipet":11144,"Like":11145,"ĠskjÃ¸t":11146,"ĠGjÃ¸":11147,"Ġantas":11148,"Ġplukke":11149,"plom":11150,"ĠOS":11151,"Ġdokt":11152,"Ñı":11153,"Ġbeholder":11154,"strÃ¥":11155,"Ġkonstant":11156,"ĠAugust":11157,"Ġutgaven":11158,"Ġbot":11159,"Ġordning":11160,"kron":11161,"bruken":11162,"skiftet":11163,"Ġjuridisk":11164,"Ġtillitsvalgte":11165,"ces":11166,"Ġgreier":11167,",\"":11168,"Ġutsted":11169,"Ġruter":11170,"ĠredaktÃ¸r":11171,"Ġstortings":11172,"slÃ¥":11173,"Ġsorg":11174,"Ġforbrukere":11175,"Ġutv":11176,"Ġkonsern":11177,"ĠHensikten":11178,"stemt":11179,"Spesi":11180,"ĠAsia":11181,"skurs":11182,"so":11183,"Ber":11184,"ĠavgjÃ¸relsen":11185,"Ġgaller":11186,"stopp":11187,"Ġbudskap":11188,"ux":11189,"Ġfoss":11190,"Ġavsnitt":11191,"zen":11192,"ĠpÃ¸l":11193,"iserings":11194,"ifik":11195,"Vil":11196,"Ġjunior":11197,"formÃ¥l":11198,"Ġgran":11199,"Ġadministrasjonen":11200,"bakk":11201,"ĠSarpsborg":11202,"ĠNATO":11203,"Ã¥Ã¥":11204,"Ġkvinners":11205,"Ġradik":11206,"enny":11207,"prosessen":11208,"Ġmotoren":11209,"Ġekstraordin":11210,"ĠtÃ¸rke":11211,"Ġinstrukt":11212,"elva":11213,"ĠSSB":11214,"partementets":11215,"IA":11216,"ĠDaniel":11217,"faget":11218,"Ġenormt":11219,"ĠlÃ¸ftet":11220,"Ġdataene":11221,"ĠBlogg":11222,"Tidligere":11223,"ĠSalt":11224,"Ġforandret":11225,"ĠIvar":11226,"MA":11227,"Ġukra":11228,"ĠRu":11229,"Ġmodne":11230,"Ġregional":11231,"Ġprins":11232,"ista":11233,"ĠhÃ¸yst":11234,"Ġdypere":11235,"Ġfisken":11236,"ĠpÃ¥grepet":11237,"Ġkake":11238,"seren":11239,"Ġsamtid":11240,"ĠWar":11241,"sje":11242,"Ð°Ð":11243,"ĠAsk":11244,"asy":11245,"iew":11246,"iter":11247,"go":11248,"casino":11249,"Ġstiv":11250,"ience":11251,"ĠÃ¥penbar":11252,"forsikring":11253,"Ġpin":11254,"allere":11255,"ĠLine":11256,"filmen":11257,"ĠCamp":11258,"Finn":11259,"ĠSov":11260,"Ġforskriften":11261,"ĠfÃ¸dselen":11262,"Ġromantisk":11263,"Ġfylket":11264,"Ġvoksende":11265,"ĠKvinn":11266,"Ġoverordnet":11267,"Ġkredittkort":11268,"Po":11269,"Ġsmake":11270,"Ġantatt":11271,"Ġhelses":11272,"Ġ64":11273,"Ġgravide":11274,"instru":11275,"Ġeksport":11276,"Ġutbed":11277,"Ġutvidelse":11278,"Ġtemperaturen":11279,"Ġforutsig":11280,"Ġlabor":11281,"Ġisol":11282,"Ġanser":11283,"ĠÃ¸kologisk":11284,"byr":11285,"hun":11286,"Ġreddet":11287,"Ġavv":11288,"Ġavkast":11289,"Ġkjenneteg":11290,"Ġcas":11291,"ĠkjÃ¸ttet":11292,"Ġdramatisk":11293,"ĠPu":11294,"kanten":11295,"Ġbegeist":11296,"styrrelser":11297,"Ġscen":11298,"ĠFem":11299,"Ġlyder":11300,"ĠElevene":11301,"Ġrock":11302,"ĠMax":11303,"ffen":11304,"Ġfagfolk":11305,"2011":11306,"Ġlages":11307,"parken":11308,"orget":11309,"ĠInternasjon":11310,"ĠBlÃ¥":11311,"Ġoppdateringer":11312,"zon":11313,"las":11314,"Ġpotet":11315,"ĠHolm":11316,"Ġplag":11317,"Ãĺst":11318,"Ġstraffe":11319,"Ġdatamaskinen":11320,"ĠBibelen":11321,"Ġbeskrives":11322,"teknologi":11323,"Ġmeldingen":11324,"Skal":11325,"ĠStol":11326,"ĠLÃ¸nn":11327,"Ġ1991":11328,"gener":11329,"ĠPerfekt":11330,"skifte":11331,"Ġkrise":11332,"Ġhellige":11333,"BÃ¥de":11334,"ortere":11335,"Ġinnvendig":11336,"ĠIKKE":11337,"Ġassos":11338,"Ġinstallasjon":11339,"Ġtoget":11340,"jening":11341,"sr":11342,"norske":11343,"Ġoppfattet":11344,"Ġdatoen":11345,"ĠbistÃ¥":11346,"ĠoverfÃ¸re":11347,"Ġ06":11348,"Ġmur":11349,"Ġmateriell":11350,"ĠElisabeth":11351,"Ġvinduet":11352,"ĠGutt":11353,"Ġjuridiske":11354,"Ġemosjon":11355,"Ġseieren":11356,"iverpool":11357,"Ġsupport":11358,"ĠMari":11359,"Ġsikkerheten":11360,"Ġsmarte":11361,"Ġherlige":11362,"Ġforbedret":11363,"Ġmatvarer":11364,"Ġspredt":11365,"Ġspekter":11366,"ĠÃ¸konomien":11367,"Ġfakultet":11368,"problem":11369,"Ġeksperi":11370,"95":11371,"studenter":11372,"lÃ¦rer":11373,"Ġmuslimer":11374,"Ġimponert":11375,"Ġanbud":11376,"Ġansvarlige":11377,"ĠBig":11378,"ferdsel":11379,"Ġgig":11380,"ĠMannen":11381,"fjellet":11382,"Ġpal":11383,"Ġfremmet":11384,"Ġsynlige":11385,"Ġgreie":11386,"redningen":11387,"ĠFA":11388,"Ġorganisere":11389,"ĠOversikt":11390,"jellen":11391,"forholdet":11392,"Ġgenet":11393,"ĠfÃ¸res":11394,"Ġuttrykke":11395,"muligheter":11396,"ĠpÃ¥vist":11397,"Ġbegravet":11398,"slet":11399,"pset":11400,"Ġavdelingen":11401,"ĠUr":11402,"ĠJÃ¸rgen":11403,"Ġhjelpemidler":11404,"ĠVedlegg":11405,"ĠbrÃ¸t":11406,"ĠleketÃ¸y":11407,"Ġhindrer":11408,"Ġond":11409,"orger":11410,"tilbud":11411,"Ġundervisnings":11412,"Ġutfordringen":11413,"ĠFast":11414,"Ġuttalte":11415,"Ã¸yde":11416,"pat":11417,"Ġasp":11418,"Ġparad":11419,"Ġriv":11420,"Ġvitenskapelige":11421,"Ġfleksibilitet":11422,"Ġsyd":11423,"ĠoppfÃ¸lg":11424,"ones":11425,"seks":11426,"Ġhek":11427,"ĠER":11428,"ĠKunne":11429,"ĠforeslÃ¥s":11430,"ĠopplÃ¸sning":11431,"Ġistedenfor":11432,"Ġtrent":11433,"ĠRoy":11434,"ington":11435,"Ġdyrene":11436,"ĠKy":11437,"ĠJul":11438,"Ġstjerner":11439,"Ġoppgi":11440,"Ġkanaler":11441,"ĠOne":11442,"Ġcru":11443,"ĠopplÃ¦rings":11444,"iliteter":11445,"Ġpakket":11446,"ĠLyn":11447,"Ġivaretatt":11448,"Ġdrivstoff":11449,"keple":11450,"forsy":11451,"unk":11452,"Ġyngste":11453,"Ġyrke":11454,"Ġutnytt":11455,"vete":11456,"OG":11457,"Ġkontrollen":11458,"ungen":11459,"Ġabs":11460,"ĠAllerede":11461,"sselskap":11462,"dder":11463,"Ġindik":11464,"ĠRich":11465,"Ġektem":11466,"Ġ700":11467,"ĠSem":11468,"Ġmodern":11469,"OMM":11470,"akelse":11471,"Ġarbeidsplassen":11472,"ĠÃ¦":11473,"Ġgruppa":11474,"Ġdamene":11475,"Ġutveksling":11476,"Ġlovet":11477,"Ġslitt":11478,"unch":11479,"ĠkjÃ¸res":11480,"Ġvegger":11481,"omen":11482,"hard":11483,"allige":11484,"inket":11485,"ife":11486,"ĠkjÃ¸pet":11487,"ummen":11488,"rollen":11489,"Ġhon":11490,"Ġobservert":11491,"sette":11492,"Ġtomt":11493,"Ġerstatte":11494,"ĠTipp":11495,"paret":11496,"ĠEriksen":11497,"Ġdyktig":11498,"grav":11499,"Ġbudsjetter":11500,"rich":11501,"Ġledig":11502,"forvaltning":11503,"Ġstykker":11504,"Ġsamarbeids":11505,"Ġskremmende":11506,"lan":11507,"turer":11508,"aktive":11509,"naden":11510,"Ġveksten":11511,"Ġstemp":11512,"Ġflyr":11513,"ĠtÃ¸mmer":11514,"Ġgraviditet":11515,"ĠseriÃ¸se":11516,"yting":11517,"Ġtilrettelegge":11518,"Ġantar":11519,"Ġpoly":11520,"lide":11521,"Ġcar":11522,"Ġforsink":11523,"ĠRefer":11524,"Ġkontaktet":11525,"Ġjazz":11526,"ĠKommunest":11527,"NE":11528,"Ġkollektivt":11529,"ĠFÃ¥r":11530,"ĠÃ¸kes":11531,"Ġuttak":11532,"Ġsalget":11533,"Ġunntatt":11534,"ettig":11535,"isielt":11536,"Ġbeman":11537,"Ġforskerne":11538,"Ø§":11539,"Ġplant":11540,"Ġast":11541,"Ġkomplisert":11542,"Gr":11543,"kveld":11544,"sikker":11545,"Ġgjeste":11546,"imet":11547,"Ġflyktning":11548,"Ġkulturer":11549,"Ġjorda":11550,"Ġwebcam":11551,"Ġkontoret":11552,"ekort":11553,"lund":11554,"ĠTry":11555,"Ġavdekket":11556,"Ġstry":11557,"Ġlinken":11558,"ĠDire":11559,"ĠBillig":11560,"Ġinformert":11561,"Ġfisket":11562,"porno":11563,"Ġulykker":11564,"Ġsmitte":11565,"Ġbestiller":11566,"ĠSty":11567,"Ġ58":11568,"Ġutsettes":11569,"ulÃ¦r":11570,"Ġfrakt":11571,"Ġbydel":11572,"ĠsÃ¸sken":11573,"PA":11574,"uen":11575,"Ġtapet":11576,"Ġfemin":11577,"Ġoppi":11578,"ĠPhil":11579,"Ġkret":11580,"Ġbevar":11581,"spo":11582,"Ġutry":11583,"Ġlegemiddel":11584,"sfjord":11585,"ĠMÃ¸tested":11586,"onder":11587,"ĠsÃ¸ppel":11588,"Ġlandbruk":11589,"Ġidrettslag":11590,"ĠforÃ¥rsak":11591,"Ġbilene":11592,"pping":11593,"Ġtilstedev":11594,"ĠBM":11595,"Ġpeke":11596,"ĠMS":11597,"Ġkatastro":11598,"ĠtÃ¥le":11599,"ĠAndroid":11600,"Ġinnse":11601,"FÃ¸rst":11602,"ĠnÃ¦rliggende":11603,"ĠhÃ¸ytid":11604,"Ġdrep":11605,"ĠKommune":11606,"Ġkona":11607,"ĠasylsÃ¸kere":11608,"Ġblind":11609,"Ġsjeldent":11610,"Ġgrunne":11611,"ĠArendal":11612,"veit":11613,"Ġstranden":11614,"ĠpÃ¥lagt":11615,"Ġresep":11616,"Ġlogistikk":11617,"Ġpilot":11618,"stÃ¸t":11619,"obe":11620,"spr":11621,"rakter":11622,"Ġovert":11623,"Ġstatens":11624,"Ġvitner":11625,"forsker":11626,"settet":11627,"yggen":11628,"Ġbarndom":11629,"Ġinstallert":11630,"Ġkaster":11631,"Ġlangtid":11632,"Ġdisipl":11633,"ĠlÃ¸ft":11634,"?)":11635,"ĠLou":11636,"Ġtrykker":11637,"Ġmellomrom":11638,"Ġuend":11639,"Ġinc":11640,"Ġfestival":11641,"Ġkvitt":11642,"ĠGroup":11643,"Ġvende":11644,"Ġforstyr":11645,"Ġrepet":11646,"kering":11647,"ĠTour":11648,"ĠAnton":11649,"ĠÃ¸kningen":11650,"Ġtekstil":11651,"Ġtruffet":11652,"ĠskrÃ¥":11653,"ĠÃ¥rhundre":11654,"Ġheft":11655,"Ġbekjent":11656,"Ġindiker":11657,"Ġskilsmisse":11658,"Ġfaktura":11659,"Ġvideok":11660,"fÃ©":11661,"ĠsykefravÃ¦r":11662,"Ġbringer":11663,"âĢ¦.":11664,"direkte":11665,"debatt":11666,"fyr":11667,"Ġrefusjon":11668,"VA":11669,"Ġlim":11670,"ĠSamfunn":11671,"Ġprioritert":11672,"rakte":11673,"Ġinvesterings":11674,"dretter":11675,"ĠHerren":11676,"Fr":11677,"Ġbutikkene":11678,"reiser":11679,"Ġtrang":11680,"Ġinteresserte":11681,"Ġtakle":11682,"ĠRoma":11683,"Hoved":11684,"ĠSvÃ¦rt":11685,"Ġavslutning":11686,"ĠtÃ¥lmod":11687,"ĠKirken":11688,"Ġsyl":11689,"derne":11690,"Ġretningslinjene":11691,"Ġvarmen":11692,"ĠMellom":11693,"ĠBehandling":11694,"Ġlangsiktige":11695,"Ġsamvitt":11696,"ĠAfghan":11697,"Ġattraksjoner":11698,"Ġepisode":11699,"ĠSkolen":11700,"ĠDok":11701,"Ġvarsler":11702,"Best":11703,"fla":11704,"Ġcelle":11705,"streme":11706,"Ġjevne":11707,"ĠCre":11708,"ĠMarked":11709,"ĠklÃ¦rne":11710,"Ġgitar":11711,"apchat":11712,"Ġtrag":11713,"Ġstam":11714,"ysning":11715,"ienser":11716,"Ġrevolusjonen":11717,"Ġbegr":11718,"ĠAng":11719,"Ġflytende":11720,"Ġpizza":11721,"Ġhushold":11722,"Ġstrikket":11723,"Ġfiks":11724,"ĠHagen":11725,"Ġforlag":11726,"Ġhenter":11727,"Ġutleie":11728,"66":11729,"skan":11730,"Ġbase":11731,"parti":11732,"Ġposisjoner":11733,"Ġinngrep":11734,"ues":11735,"Ġoppslag":11736,"Ġswingers":11737,"Ġaluminium":11738,"ppa":11739,"ĠSingle":11740,"ĠHov":11741,"identen":11742,"ners":11743,"Ġektefelle":11744,"Ġstikke":11745,"ĠDokument":11746,"Ġlagde":11747,"fondet":11748,"Ġklinisk":11749,"orgere":11750,"Ġkompli":11751,"Ġringte":11752,"Ġ51":11753,"oph":11754,"Ġnormale":11755,"Ġ62":11756,"Ġkortet":11757,"eiere":11758,"dis":11759,"Ġrede":11760,"sbehandling":11761,"dringene":11762,"Ġkalte":11763,"Ġmottaker":11764,"ikop":11765,"gutt":11766,"ĠMai":11767,"Ġmob":11768,"Ġ57":11769,"ĠInnledning":11770,"Ġmedvirkning":11771,"Ġ%.":11772,"Ġvinden":11773,"ahl":11774,"Ġoverleve":11775,"oversikt":11776,"ĠTiltak":11777,"Ġpartneren":11778,"Ġhang":11779,"2010":11780,"Ġharmon":11781,"Ġmontert":11782,"kat":11783,"Ġalternativet":11784,"Ġrefleksjon":11785,"Ġlogge":11786,"ikali":11787,"sselskapet":11788,"Ġrust":11789,"funksjoner":11790,"ĠÃ¦r":11791,"Ġdukke":11792,"iblant":11793,"ettene":11794,"Ġsamisk":11795,"Ġsid":11796,"ĠLav":11797,"ĠSogn":11798,"ĠsjÃ¸l":11799,"Ġuttalt":11800,"tto":11801,"Ġkrem":11802,"Ãħrets":11803,"Ġfoten":11804,"vedtak":11805,"otisk":11806,"Ġforskningen":11807,"hall":11808,"aktiv":11809,"Ġkomfortabel":11810,"kurransen":11811,"ts":11812,"Ġwill":11813,"navnet":11814,"ĠMest":11815,"uli":11816,"ĠMich":11817,"befolkningen":11818,"vang":11819,"Ġflat":11820,"Ġinspirerende":11821,"minner":11822,"Ġtilbudt":11823,"Ġtrenge":11824,"ĠfÃ¸lelses":11825,"Ġavh":11826,"ĠTren":11827,"Ġrevet":11828,"Ġone":11829,"Ġkeeper":11830,"onnement":11831,"Ġdagers":11832,"Ġtax":11833,"ĠTeam":11834,"ights":11835,"Ġkommentere":11836,"cing":11837,"Ġrase":11838,"planer":11839,"Foto":11840,"ĠbÃ¸nn":11841,"Ġsenga":11842,"Ġoppdaterte":11843,"ĠlÃ¸fter":11844,"ĠsammenslÃ¥":11845,"Ġsparer":11846,"Ġfinansielle":11847,"ĠKongsberg":11848,"Ġflyplass":11849,"Ġoppmerksomheten":11850,"Ġsus":11851,"virksomheten":11852,"srÃ¥d":11853,"ĠNVE":11854,"Ġbrennende":11855,"Ġminoritet":11856,"ads":11857,"ĠLive":11858,"ĠDahl":11859,"Ġnedre":11860,"Ġhyppig":11861,"Ġplasseres":11862,"Ġkalender":11863,"Ġligget":11864,"Ġ@":11865,"Ġnybegyn":11866,"Ġuheldig":11867,"Ġfornybar":11868,"forfatter":11869,"Ġskatter":11870,"Ġkonstruksjon":11871,"Ġslite":11872,"Ġomfatte":11873,"ua":11874,"ĠFoss":11875,"Ġbegrunnelse":11876,"Ġregulert":11877,"Ġodds":11878,"bÃ¸kene":11879,"ĠInger":11880,"Ġ59":11881,"Ġhundene":11882,"ĠmÃ¥lrettet":11883,"gs":11884,"Ġbegj":11885,"Ġbekjempe":11886,"Ġbrenner":11887,"Ġpressemelding":11888,"hage":11889,"Ġombord":11890,"Ġprotest":11891,"Ġsykle":11892,"Te":11893,"fristen":11894,"ij":11895,"ĠnÃ¸yt":11896,"Ġtittel":11897,"skrev":11898,"fare":11899,"yse":11900,"ssykehus":11901,"Ġtilbringe":11902,"Ġapoteket":11903,"Ġbosted":11904,"medisin":11905,"Hver":11906,"Ġgjensidig":11907,"grunnlag":11908,"Ġusa":11909,"Ġengasjerte":11910,"ĠLik":11911,"Ġseverdig":11912,"Ġpolitikken":11913,"Ġbaserer":11914,"cia":11915,"Ġgled":11916,"ĠMedia":11917,"ĠdÃ¸ra":11918,"Ġbeskytter":11919,"Ġspr":11920,"ĠKirk":11921,"ĠSikkerhet":11922,"Ġgrave":11923,"ĠSky":11924,"Ġleverte":11925,"Ġsamtalen":11926,"Ġinvitere":11927,"Ġdemokrati":11928,"Ġkriminalitet":11929,"agement":11930,"otens":11931,"Ġfir":11932,"Ġfunksjonalitet":11933,"Ġmisly":11934,"Ġdiskutert":11935,"ĠSvalb":11936,"Ġbol":11937,"ĠViktig":11938,"sid":11939,"Ġblomst":11940,"Ġeksperter":11941,"Ġleiligheter":11942,"Ġdebut":11943,"TS":11944,"Ġorganer":11945,"Ġuavhengige":11946,"Ġvesentlige":11947,"hvertfall":11948,"orsk":11949,"ĠPsyk":11950,"ifisering":11951,"ĠIII":11952,"oni":11953,"Ġhinder":11954,"direktoratet":11955,"Ġfos":11956,"Politiet":11957,"ĠjÃ¸der":11958,"Ġmuskler":11959,"ĠGrim":11960,"Ġbio":11961,"ĠNHO":11962,"redienser":11963,"Ġsavner":11964,"ĠLÃ¸rdag":11965,"teringer":11966,"Ġutarbeid":11967,"foreldre":11968,"ĠbjÃ¸r":11969,"FÃ¸rste":11970,"Ġinnimellom":11971,"ĠRel":11972,"Ġfattigdom":11973,"Ġdefinere":11974,"Ġsynet":11975,"mil":11976,"relaterte":11977,"Ġmenyen":11978,"Ġautor":11979,"knings":11980,"ĠUtvalget":11981,"Ġtrusler":11982,"Ġbestemmelsene":11983,"VER":11984,"Ġdiffer":11985,"Ġvarig":11986,"ĠEtt":11987,"Ġkommand":11988,"strateg":11989,"Ġkoord":11990,"sjÃ¸":11991,"Ġhappy":11992,"Ġreell":11993,"varme":11994,"Ġnettsidene":11995,"ĠEnten":11996,"Ġtiltaks":11997,"Ġgym":11998,"Ġalp":11999,"Ġdistrikt":12000,"Ã¶r":12001,"Ġutmerk":12002,"ĠingeniÃ¸r":12003,"Ġrov":12004,"vilt":12005,"Ġtesten":12006,"Ġfeiret":12007,"sber":12008,"Ġutsette":12009,"ado":12010,"Ġeierskap":12011,"Ġtalent":12012,"Ġvilt":12013,"Ġoriginale":12014,"ĠIrak":12015,"Ġglobal":12016,"Ġinnover":12017,"Ġworks":12018,"ĠBab":12019,"Ġseksuelt":12020,"Ġdetaljerte":12021,"ĠHÃ¸yesterett":12022,"vises":12023,"ressurser":12024,"As":12025,"Ġmyke":12026,"Ġskjev":12027,"Samtidig":12028,"Ġbredere":12029,"lywood":12030,"fordringer":12031,"Ġapper":12032,"Ġnatta":12033,"Ġbakover":12034,"Ġlegitim":12035,"utdanningen":12036,"Ġplanlagte":12037,"Ġreisende":12038,"Ġavgrens":12039,"light":12040,"ĠEgypt":12041,"ĠGenerelt":12042,"eu":12043,"CO":12044,"Ġfunksjonshemmede":12045,"ĠavgjÃ¸relser":12046,"ĠoppnÃ¥r":12047,"seffekt":12048,"gata":12049,"Ġrespek":12050,"Ġoversett":12051,"ents":12052,"lopp":12053,"Ġsjansene":12054,"fylt":12055,"ĠGarder":12056,"Ġdrepe":12057,"Bruk":12058,"edyr":12059,"ĠSkien":12060,"Ġmenneskelig":12061,"ĠmiljÃ¸vennlig":12062,"ĠÃĺyvind":12063,"Ġsykkelen":12064,"dtr":12065,"Ġ54":12066,"eleg":12067,"ĠSkjer":12068,"Ġshemale":12069,"stim":12070,"ĠBB":12071,"Ġkonkurrere":12072,"Ġavl":12073,"Ġviktigheten":12074,"Ġeien":12075,"Ġmuseet":12076,"Ġdesto":12077,"Ġvog":12078,"skamp":12079,"Ġtryg":12080,"Ġtegneser":12081,"Ġinnvilget":12082,"Ġbake":12083,"Ġangi":12084,"Ġbryster":12085,"hyl":12086,"igger":12087,"vegen":12088,"ĠNok":12089,"Ġkoke":12090,"Ġkab":12091,"Ġforandring":12092,"ĠLek":12093,"Ġsteng":12094,"ordninger":12095,"alje":12096,"Ġetterforsk":12097,"Ġpetrole":12098,"Amerika":12099,"idder":12100,"Ġbevilg":12101,"ĠHjel":12102,"jÃ¸rdal":12103,"kkelige":12104,"Ġkontrakten":12105,"Ġsignal":12106,"Ġlivssyn":12107,"ped":12108,"Ġtilstanden":12109,"ĠFal":12110,"Ġstyreleder":12111,"Ġkonklusjon":12112,"Ġoverflaten":12113,"Ġfylles":12114,"Ġkommersielle":12115,"ĠaktÃ¸r":12116,"tim":12117,"ĠSkriv":12118,"ssystemer":12119,"ĠBay":12120,"Ġmakten":12121,"Ġforstand":12122,"lete":12123,"Ġspilleren":12124,"Ġlevetid":12125,"Ġutallige":12126,"Ġsminke":12127,"ĠPÃ¥l":12128,"ĠBang":12129,"Ġrest":12130,"Ġ97":12131,"Ġlandskapet":12132,"Ġ1989":12133,"Ġevangel":12134,"mal":12135,"bust":12136,"Ġbrede":12137,"ssent":12138,"sordningen":12139,"Ġstatsbudsjettet":12140,"Ġforandre":12141,"Ġtennene":12142,"Ġoperasjonen":12143,"skes":12144,"Ġpedagogisk":12145,"ĠAN":12146,"stituer":12147,"ĠsÃ¦rdeles":12148,"apparatet":12149,"gent":12150,"Ġfordelene":12151,"ĠManchester":12152,"Ġpermisjon":12153,"Ġrense":12154,"serende":12155,"redet":12156,"klasses":12157,"ĠAfghanistan":12158,"aliforn":12159,"ĠPan":12160,"visninger":12161,"Ġlomme":12162,"89":12163,"»¿":12164,"Ġorgasme":12165,"ĠSvalbard":12166,"verker":12167,"stilte":12168,"ĠFle":12169,"Ġregiss":12170,"sjÃ¸en":12171,"rÃ¥den":12172,"ĠGrÃ¸nn":12173,"Ġversjoner":12174,"Ġdiam":12175,"dage":12176,"espill":12177,"Ġvideos":12178,"ĠTing":12179,"Ġmargin":12180,"Ġhevde":12181,"ĠAas":12182,"Ġrakk":12183,"Ġfiler":12184,"Ġasfalt":12185,"Ġfinale":12186,"rive":12187,"Ġvend":12188,"SV":12189,"Ġkundeservice":12190,"ĠVold":12191,"df":12192,"Ġsammenligning":12193,"hv":12194,"Ġjustere":12195,"Ġmedhold":12196,"ĠLiverpool":12197,"Ġnekter":12198,"ĠGull":12199,"Ġposter":12200,"ĠTilbake":12201,"Ġtelefoner":12202,"Ġmedlems":12203,"ĠVedtak":12204,"Ġmediene":12205,"ĠNettdating":12206,"Ġavgifter":12207,"Ġenden":12208,"Ġeuropeisk":12209,"politikken":12210,"kastet":12211,"Ġmarkert":12212,"ooth":12213,"Ġskuespillere":12214,"Ġaktuell":12215,"rosj":12216,"ĠSkandinav":12217,"ĠSvart":12218,"Ġbrukernavn":12219,"spesif":12220,"Ġ1940":12221,"heve":12222,"Forsk":12223,"ĠkjÃ¸l":12224,"ĠJames":12225,"registeret":12226,"ĠResultatene":12227,"Ġlangvarig":12228,"Ġargument":12229,"ä¸":12230,"Ġgunstig":12231,"Ġinde":12232,"ates":12233,"ĠsÃ¦":12234,"Ġoversikten":12235,"Ġutbredt":12236,"komme":12237,"Ġhalvdel":12238,"vidde":12239,"Ġforhandler":12240,"ĠTone":12241,"Ġsannhet":12242,"ĠDy":12243,"cup":12244,"web":12245,"Ġetikk":12246,"ĠbestÃ¥":12247,"Ġsjarmer":12248,"Ġuriktige":12249,"Ġuniversiteter":12250,"Ġkontakten":12251,"styrke":12252,"dam":12253,"ĠSin":12254,"ican":12255,"ĠpÃ¥melding":12256,"Ġutroskap":12257,"edato":12258,"ĠvÃ¥knet":12259,"Ġuttale":12260,"Ġulikt":12261,"Ġsenteret":12262,"mingen":12263,"ĠKL":12264,"armen":12265,"Ġforutsatt":12266,"ĠHom":12267,"Ġovergangen":12268,"Ġindustrien":12269,"sling":12270,"Ġspanske":12271,"ĠLillestrÃ¸m":12272,"67":12273,"Ġrevidert":12274,"ĠSend":12275,"ffe":12276,"rekke":12277,"ĠOp":12278,"Ġinformasjons":12279,"Ġeie":12280,"ĠskjÃ¦re":12281,"ward":12282,"Ġkraftige":12283,"ĠFylke":12284,"fu":12285,"Ġvarierte":12286,"ĠAltsÃ¥":12287,"ĠApr":12288,"Ġrutine":12289,"Ġfremmede":12290,"Ġbelastning":12291,"sting":12292,"ĠDame":12293,"Ġtrodd":12294,"Ġinse":12295,"Ġkvadrat":12296,"konto":12297,"Ġadministrerende":12298,"chn":12299,"Ġdrikker":12300,"Ġkylling":12301,"board":12302,"Ġtilpasses":12303,"dress":12304,"ĠlÃ¦rerne":12305,"ĠMeg":12306,"ĠNasjonalt":12307,"Ġfaktor":12308,"Ġnestleder":12309,"Ġyte":12310,"Tube":12311,"BU":12312,"ĠSkatte":12313,"ĠFoU":12314,"snes":12315,"ĠKommer":12316,"vÃ¦re":12317,"Ġfunksjonene":12318,"Ġsvindel":12319,"spensjon":12320,"Ġavslag":12321,"Ġhenvendelser":12322,"ĠredegjÃ¸r":12323,"Ġjakten":12324,"ĠEksempel":12325,"aps":12326,"ĠforÃ¥rsaket":12327,"Ġlurte":12328,"Ġhvertfall":12329,"Ġbestemmelsen":12330,"Ġvoldtekt":12331,"Ġfon":12332,"Ġfattet":12333,"Ġverksted":12334,"Ġinten":12335,"Ġleses":12336,"Ġuniversitets":12337,"Slik":12338,"ef":12339,"venner":12340,"Ġfascinerende":12341,"meldte":12342,"Ġbeskyttet":12343,"akes":12344,"ĠPower":12345,"Ġreiseliv":12346,"Ġtast":12347,"Ġkreativ":12348,"ĠMitt":12349,"ĠNaken":12350,"Ġpassasjerer":12351,"ĠbesÃ¸ket":12352,"Ġoptimal":12353,"Ġtilfredsstille":12354,"Ġ53":12355,"fotball":12356,"ekst":12357,"Ġarrestert":12358,"Ġoversatt":12359,"ĠImidlertid":12360,"Ġanty":12361,"Ġsone":12362,"Ġrektor":12363,"ĠEva":12364,"Ġkjemper":12365,"scar":12366,"Ġseinere":12367,"Ġtrakt":12368,"ĠAli":12369,"Ġoppdragsgiver":12370,"Ġbrett":12371,"stig":12372,"Ġungdommene":12373,"aster":12374,"Ġetableres":12375,"Ġidet":12376,"Ġost":12377,"ĠtenÃ¥ringer":12378,"ĠrÃ¥dgivning":12379,"ogen":12380,"sordning":12381,"Ġanmeldelser":12382,"ĠseriÃ¸s":12383,"Ġq":12384,"ĠKraft":12385,"Ġmake":12386,"artikler":12387,"hast":12388,"Ġjernban":12389,"Ġtw":12390,"Ġbachelor":12391,"Ġdrama":12392,"ĠlÃ¸ses":12393,"Ġressursene":12394,"ĠÃĺystein":12395,"Ġstrengt":12396,"Ġtydelige":12397,"Ġrevisor":12398,"Ġdratt":12399,"Ġuttrykket":12400,"Ġlyden":12401,"Ġfineste":12402,"ĠPÃħ":12403,"tenberg":12404,"Ġdiabetes":12405,"urering":12406,"Ġfortrinn":12407,"sakene":12408,"Ġvekten":12409,"ĠmÃ¸rkt":12410,"Ġindivider":12411,"Ãħr":12412,"ĠbesÃ¸ks":12413,"Ġ05":12414,"Ã¦rne":12415,"Ġnes":12416,"ĠHER":12417,"ĠetterspÃ¸rsel":12418,"Ġvink":12419,"Ġambul":12420,"Ġeksklusive":12421,"Ġnettleseren":12422,"Ġ1700":12423,"Ġspreng":12424,"forbruket":12425,"itz":12426,"Ġintegrering":12427,"Ġdybde":12428,"ĠLys":12429,"ĠWord":12430,"Kont":12431,"ĠHalden":12432,"ĠFrode":12433,"Ġryt":12434,"Ġhed":12435,"onomisk":12436,"delinger":12437,"ĠProblemet":12438,"Ġprate":12439,"Ġtone":12440,"ĠIngrid":12441,"kass":12442,"versjon":12443,"ĠImp":12444,"Ġgy":12445,"Ġblodet":12446,"Ġfrykter":12447,"Ġavsluttes":12448,"smelding":12449,"ĠSamme":12450,"akterer":12451,"Ġforsy":12452,"Ġelevenes":12453,"Ġoppfattes":12454,"sveien":12455,"ÐµÐ":12456,"ĠHelg":12457,"Ġjulen":12458,"Ġpunktet":12459,"Ġflom":12460,"Ġypper":12461,"punktet":12462,"Ġtverrfaglig":12463,"Ġpens":12464,"vering":12465,"pte":12466,"Ã¥len":12467,"stemning":12468,"grensen":12469,"Ġinnsamling":12470,"Ġparet":12471,"ĠpÃ¥gÃ¥ende":12472,"Ġtrett":12473,"Ã¸sningen":12474,"ĠKos":12475,"utgifter":12476,"pakke":12477,"ĠRundt":12478,"Ġtrivsel":12479,"ĠPrÃ¸v":12480,"ĠÃ¸ve":12481,"Ġperm":12482,"Ġsignaler":12483,"kamera":12484,"ĠEirik":12485,"ssÃ¸k":12486,"ĠVurder":12487,"Ġkontrollert":12488,"ĠTrafikk":12489,"Ġinnspil":12490,"Ġuniversitetet":12491,"Ġpolitidistrikt":12492,"ĠVg":12493,"Ġbetales":12494,"fulgt":12495,"HÃ¥":12496,"Ġavvist":12497,"ĠBol":12498,"time":12499,"ĠlÃ¸pere":12500,"Uansett":12501,"?Â»":12502,"ĠEnt":12503,"Ġmidlene":12504,"latt":12505,"Ġforekommer":12506,"Ġhehe":12507,"ĠSovjet":12508,"teringen":12509,"sig":12510,"Ġskit":12511,"ĠSveits":12512,"Ġbig":12513,"pul":12514,"ipe":12515,"nne":12516,"Ġutdanningen":12517,"teri":12518,"ĠStÃ¸r":12519,"'.":12520,"Ġenslige":12521,"ĠFunksjon":12522,"Ġhigh":12523,"ll":12524,"ĠGjÃ¸vik":12525,"ĠÃĺkt":12526,"ĠrÃ¥varer":12527,"Ġdeling":12528,"ĠNik":12529,"mekan":12530,"ĠjÃ¸diske":12531,"ĠHennes":12532,"ĠJesu":12533,"Ġspansk":12534,"Ġsjanger":12535,"Ġreelle":12536,"Ġpersonalet":12537,"ĠArild":12538,"Ġtimene":12539,"Ġprosedyrer":12540,"Ġgule":12541,"Ġfristen":12542,"ĠangÃ¥ende":12543,"aus":12544,"Ġelite":12545,"sskjema":12546,"Ġdommen":12547,"Ġkjole":12548,"Ġoppfatter":12549,"Ġhjulpet":12550,"merter":12551,"Ġfiber":12552,"Ġ77":12553,"ĠHjelp":12554,"lÃ¦ringen":12555,"Ã¥pen":12556,"skapende":12557,"Ġinnovative":12558,"Ġnettbutikken":12559,"kjem":12560,"ize":12561,"Ġintervjuer":12562,"ĠbestÃ¥tt":12563,"ĠpÃ¥litelig":12564,"Ġrealisere":12565,"Ġein":12566,"Ġregister":12567,"Ġstj":12568,"ĠHad":12569,"OTO":12570,"Ã¸res":12571,"Ġankomst":12572,"ivind":12573,"Ġdesper":12574,"ĠanslÃ¥":12575,"ĠflÃ¸y":12576,"teren":12577,"2009":12578,"not":12579,"steknologi":12580,"ĠIda":12581,"orium":12582,"Ġprosjektering":12583,"Ġvarighet":12584,"Ġbygda":12585,"dren":12586,"kjÃ¸l":12587,"Ġoppgradering":12588,"Stud":12589,"Ġskift":12590,"vner":12591,"Ġteamet":12592,"Ġkonkurransedy":12593,"Ġtus":12594,"okumenter":12595,"gjenger":12596,"ĠtÃ¸ft":12597,"Person":12598,"ĠKjetil":12599,"Ġpolitikerne":12600,"ĠTrans":12601,"ĠBergens":12602,"Ġetterretning":12603,"ĠkjÃ¸nnslepper":12604,"Ġvarierende":12605,"sbyen":12606,"Ġcoach":12607,"sbet":12608,"how":12609,"Ġavdekke":12610,"Ġforegikk":12611,"Ġomtaler":12612,"ĠBoka":12613,"ĠGPS":12614,"ĠCas":12615,"Ġ69":12616,"Ġbekrefte":12617,"Ġstatsborger":12618,"Ġsnur":12619,"Ġforeningen":12620,"grader":12621,"Ġdomstol":12622,"Ġbensin":12623,"kvensen":12624,"ĠskÃ¸y":12625,"Ġstadion":12626,"bad":12627,"ĠforsÃ¸ket":12628,"Ġbronse":12629,"ject":12630,"Ġakseptert":12631,"ced":12632,"Ġkutt":12633,"Ġoffisielt":12634,"ĠOppdrag":12635,"ĠAM":12636,"ther":12637,"sprodu":12638,".....":12639,"Ġadop":12640,"skultur":12641,"Ġanledningen":12642,"ĠBand":12643,"alifornia":12644,"Ġoksy":12645,"Ġspredning":12646,"bout":12647,"Ġborett":12648,"ĠMex":12649,"Ġsemester":12650,"Ġluksus":12651,"Ġtryggere":12652,"Ġbiter":12653,"ĠufÃ¸re":12654,"SL":12655,"Ġyoga":12656,"Ġindikerer":12657,"RU":12658,"Ġhat":12659,"Ġsamiske":12660,"ĠLÃ¥":12661,"svitenskap":12662,"Ġoffens":12663,"Ġrestauranten":12664,"etur":12665,"Ġbetingelser":12666,"Ġoverraskelse":12667,"Ġgrafikk":12668,"Ġdigitalt":12669,"ĠjÃ¦v":12670,"ĠRomer":12671,"uri":12672,"Ġlate":12673,"Ġtette":12674,"Ġligner":12675,"Tre":12676,"Ġhas":12677,"Ã¸pe":12678,"strakt":12679,"Ġflaske":12680,"Ġdiagnose":12681,"Ġgry":12682,"los":12683,"Ġrednings":12684,"Ġfremtidig":12685,"sproblemer":12686,"Ġformiddag":12687,"pre":12688,"ĠNesten":12689,"ĠlÃ¥t":12690,"Ġoriginal":12691,"Ġantagelig":12692,"cke":12693,"ĠDepartementet":12694,"Ġpsykiat":12695,"Ġsim":12696,"ging":12697,"Ġopptrer":12698,"bul":12699,"Ġanm":12700,"Ġpresenterte":12701,"Ġtriks":12702,"ĠfÃ¸rsteklasses":12703,"ĠGreen":12704,"ĠKal":12705,"Ġaksepterer":12706,"ĠUT":12707,"ĠKirke":12708,"Ġforfall":12709,"atin":12710,"ĠAlexander":12711,"radi":12712,"ikse":12713,"Ġdugnad":12714,"FK":12715,"Ġeies":12716,"Ġforskjellene":12717,"anerne":12718,"Ġinstallere":12719,"effekt":12720,"aming":12721,"feranser":12722,"Ġangrer":12723,"Ġfanger":12724,"Ġisen":12725,"ĠNIF":12726,"yper":12727,"ĠfÃ¸lelsene":12728,"ĠPlanen":12729,"ĠGrunnen":12730,"Ġadvok":12731,"car":12732,"Ġtynn":12733,"mÃ¥ling":12734,"Ġplay":12735,"ĠfÃ¸ttene":12736,"86":12737,"mai":12738,"handlinger":12739,"ĠForlagets":12740,"Ġforelsk":12741,"Ġsitater":12742,"Ġvillige":12743,"renning":12744,"iens":12745,"ĠÃĺvre":12746,"Ġig":12747,"Ġforening":12748,"Ġreflektere":12749,"Ġje":12750,"strinn":12751,"Ġmontering":12752,"Ġsch":12753,"Ġindirekte":12754,"ĠHarstad":12755,"Ġovertid":12756,"stor":12757,"ĠHellas":12758,"Afrika":12759,"Ġkore":12760,"spartiet":12761,"ĠEttersom":12762,"ĠKjer":12763,"Ġdiesel":12764,"Ġhalsen":12765,"ĠforespÃ¸rsel":12766,"hevet":12767,"Ġethvert":12768,"ĠKing":12769,"Ġstemmerett":12770,"ĠBas":12771,"Ġutstillinger":12772,"Ġnorwegian":12773,"Ġasiatisk":12774,"ĠBildet":12775,"Ġfangst":12776,"sforen":12777,"Ġfolkehelse":12778,"HD":12779,"Ġkrysset":12780,"Ġfilmene":12781,"ĠKenn":12782,"Ġutfordre":12783,"Ġstrategiske":12784,"Ġminnet":12785,"Ġparken":12786,"ĠnÃ¥dde":12787,"ĠunngÃ¥r":12788,"Ġpotensial":12789,"askin":12790,"ĠbÃ¸nder":12791,"verum":12792,"Ġderiblant":12793,"ĠVurdering":12794,"Ġerver":12795,"ĠPasi":12796,"Ġforesatte":12797,"Ġlister":12798,"bw":12799,"Ġalbumet":12800,"lÃ¸y":12801,"ĠGold":12802,"Ġtilsynet":12803,"ikket":12804,"Ġscanpix":12805,"sli":12806,"ĠutÃ¸v":12807,"ĠTan":12808,"organisasjonene":12809,"ĠAdministrasjon":12810,"Ġpad":12811,"lates":12812,"ĠAmer":12813,"ĠOlje":12814,"Ġvirus":12815,"Ġdrakt":12816,"ensere":12817,"ĠDagen":12818,"ĠÃ¸yen":12819,"apparat":12820,"utvalgets":12821,"ĠrekkefÃ¸lge":12822,"ĠÎ":12823,"Ġbiblioteket":12824,"ĠBud":12825,"Ġtimers":12826,"ril":12827,"agraf":12828,"Ġdon":12829,"rt":12830,"setningene":12831,"sarbeidet":12832,"riktig":12833,"Ġvarene":12834,"Ġtimes":12835,"Europa":12836,"ĠGodkjenning":12837,"ĠfÃ¸ringer":12838,"ĠEnk":12839,"modellen":12840,"Ġpuste":12841,"ĠSmart":12842,"espiller":12843,"idert":12844,"IKK":12845,"LING":12846,"Ġeid":12847,"ĠJuli":12848,"ĠViking":12849,"Ġubehagelig":12850,"Ġlider":12851,"Ġantak":12852,"ords":12853,"ĠkjÃ¸pesenter":12854,"ĠFinne":12855,"kretari":12856,"Ġdyrere":12857,"lapp":12858,"Derfor":12859,"Ġingredienser":12860,"ĠElite":12861,"ĠASA":12862,"Ġkontant":12863,"fokus":12864,"stabil":12865,"aliteter":12866,"drom":12867,"ĠRis":12868,"ĠOM":12869,"Ġhoppet":12870,"Ġknytter":12871,"Ġekstern":12872,"IB":12873,"Ġgjennomsnittet":12874,"Ġdisposisjon":12875,"Ġinner":12876,"Ġrapportert":12877,"Par":12878,"Ġspissen":12879,"VM":12880,"ĠLis":12881,"gÃ¥tt":12882,"Ġhemmelige":12883,"knappen":12884,"cus":12885,"ĠLau":12886,"eremon":12887,"sutstyr":12888,"GG":12889,"Ġnettverks":12890,"Ġlederen":12891,"ĠhÃ¦r":12892,"ĠJour":12893,"cas":12894,"Ġkommenter":12895,"HA":12896,"amilla":12897,"sutvikling":12898,"ĠClub":12899,"ular":12900,"gisk":12901,"Ġtelt":12902,"ĠKjÃ¸r":12903,"ĠAur":12904,"Ġcre":12905,"NTB":12906,"DER":12907,"ETT":12908,"Ġmenes":12909,"2008":12910,"pning":12911,"ĠtilhÃ¸righet":12912,"blikk":12913,"srom":12914,"etn":12915,"sÃ¸kt":12916,"ĠTi":12917,"ĠRolf":12918,"----":12919,"ĠRHF":12920,"fant":12921,"velden":12922,"maskiner":12923,"alisme":12924,"Ġfinan":12925,"Ġkontaktannonse":12926,"ĠBusiness":12927,"elÃ¦rer":12928,"Ġjfr":12929,"Ġlatt":12930,"Ġutsiden":12931,"ĠMatch":12932,"Ġavhengige":12933,"Ġproduseres":12934,"Ġeieren":12935,"ining":12936,"ĠLofoten":12937,"sete":12938,"Ġdatamaskin":12939,"Norske":12940,"Ġfugler":12941,"Ġkarbon":12942,"ĠutfÃ¸relse":12943,"Ġfenomen":12944,"omi":12945,"dahl":12946,"byggingen":12947,"stÃ¸tt":12948,"Ġutsikten":12949,"Ġomstilling":12950,"ĠSant":12951,"ship":12952,"leverandÃ¸r":12953,"fas":12954,"stilles":12955,"adder":12956,"vedt":12957,"aria":12958,"Ġnaz":12959,"adressen":12960,"ĠPremier":12961,"ĠSag":12962,"ĠRegistrer":12963,"Ġreparasjon":12964,"ĠstÃ¸tten":12965,"Ġdokumentet":12966,"Bare":12967,"Ġaction":12968,"Ġstoler":12969,"itor":12970,"ava":12971,"Ġsynge":12972,"ĠÃħrsaken":12973,"stÃ¸rrelse":12974,"Ġhandlingen":12975,"Ġihvertfall":12976,"Ġdrepte":12977,"ĠMont":12978,"Ġinstitusjonen":12979,"Ġ1945":12980,"hÃ¥ndtering":12981,"Ġivrig":12982,"ĠfÃ¸de":12983,"ccess":12984,"ĠdÃ¸mme":12985,"fugl":12986,"Ġopt":12987,"Ġlengden":12988,"ĠJohnsen":12989,"Ġredaksjon":12990,"ĠdÃ¸rene":12991,"Ġgum":12992,"ifin":12993,"ĠRapport":12994,"Ġutkikk":12995,"sde":12996,"Ġglobalt":12997,"finalen":12998,"Ġklatre":12999,"Ã¸ring":13000,"Ġbegreper":13001,"Ġstift":13002,"smenn":13003,"Ġkriminelle":13004,"ĠgjennomgÃ¥ende":13005,"celona":13006,"Ġtidlige":13007,"Ġgaten":13008,"Ġkjapt":13009,"Ġrisikerer":13010,"modell":13011,"ĠLab":13012,"artet":13013,"Ġtum":13014,"ĠNat":13015,"Ġlastet":13016,"Ġrammen":13017,"ville":13018,"stedene":13019,"athrine":13020,"ĠEuropas":13021,"Ġinstrumenter":13022,"rygd":13023,"Ġdobbel":13024,"spirasjon":13025,"ĠSke":13026,"Ġforferdelig":13027,"ĠDam":13028,"festet":13029,"Â´":13030,"ĠskjÃ¦r":13031,"ĠJob":13032,"Ġlagmann":13033,"Ġjulet":13034,"Ġomfanget":13035,"beskrivelse":13036,"ĠstrÃ¸":13037,"stres":13038,"ĠByen":13039,"Ġrang":13040,"Ġonde":13041,"Ġac":13042,"Ġbegrav":13043,"ĠTher":13044,"ĠArn":13045,"Ġindividuelt":13046,"ĠIF":13047,"Ġvag":13048,"Ġpene":13049,"tokollen":13050,"arv":13051,"Ġliknende":13052,"endes":13053,"ĠSted":13054,"regionen":13055,"marka":13056,"smak":13057,"Ġemne":13058,"ĠLos":13059,"onsult":13060,"ĠÃ¸yene":13061,"Ġveggene":13062,"Ġstrekke":13063,"Ġresulterte":13064,"Ġ3000":13065,"Ġkomponenter":13066,"lighetene":13067,"Ġarbeidsle":13068,"Ġdropp":13069,"Ġkeiser":13070,"bilen":13071,"smÃ¸ter":13072,"Ġskjule":13073,"ĠHarry":13074,"Ã¼r":13075,"ĠmÃ¸tene":13076,"studio":13077,"erske":13078,"ĠpÃ¥stand":13079,"Ġ68":13080,"levelse":13081,"Ġutenlandsk":13082,"Fil":13083,"ĠOut":13084,"Ġseksualitet":13085,"Ġtros":13086,"kamer":13087,"Ã¸nnÃ¸y":13088,"pek":13089,"nering":13090,"gner":13091,"76":13092,"Ġhormon":13093,"leren":13094,"Ġaggress":13095,"Ġoperativ":13096,"ĠYouTube":13097,"Ġorganisasjonene":13098,"Ġkjemikali":13099,"ĠtÃ¸rket":13100,"verdien":13101,"kirke":13102,"edager":13103,"Ġstyrt":13104,"Nei":13105,"Ġ02":13106,"Ġdiskusjonen":13107,"oget":13108,"ĠInne":13109,"Ġmestre":13110,"Ġprestasjoner":13111,"Ġdeltagere":13112,"vÃ¦ret":13113,"ĠRÃ¸y":13114,"vinn":13115,"ĠStoltenberg":13116,"Ġbisk":13117,"ĠKristiansen":13118,"tilskudd":13119,"entil":13120,"Ġkanal":13121,"Ġsykt":13122,"Ġmaksimalt":13123,"Ġsignert":13124,"Ġkris":13125,"Ġinneholdt":13126,"rapporter":13127,"Ġstikker":13128,"ktivet":13129,"ĠViser":13130,"ĠMarg":13131,"ĠFeb":13132,"row":13133,"gging":13134,"Ġnyter":13135,"ĠfagmiljÃ¸":13136,"Ġblandet":13137,"tema":13138,"ĠNY":13139,"Ġblokker":13140,"ĠForetak":13141,"Ġtypiske":13142,"ili":13143,"Ġuform":13144,"alem":13145,"godt":13146,"Ġanerkjennelse":13147,"ĠBrand":13148,"Ġmedvir":13149,"ĠtilstedevÃ¦r":13150,"Ġjapanske":13151,"Ġverdig":13152,"ĠSiri":13153,"Ġ72":13154,"ĠSus":13155,"shore":13156,"partner":13157,"Ġelg":13158,"Kanskje":13159,"versjonen":13160,"ĠBak":13161,"Ġvirkemiddel":13162,"skur":13163,"Ġserier":13164,"Ġkrevde":13165,"Ġskry":13166,"Ġmarkeder":13167,"INN":13168,"Ġfolks":13169,"ĠIM":13170,"Hel":13171,"Ġflinkere":13172,"Ġtob":13173,"forholdene":13174,"con":13175,"insippet":13176,"Ġstabilitet":13177,"leverandÃ¸rer":13178,"Ġyoutube":13179,"grunnlaget":13180,"Ġdetaljene":13181,"Ġhydro":13182,"ated":13183,"ĠskjÃ¸nt":13184,"usive":13185,"filer":13186,"Ġokkup":13187,"Ġmanglet":13188,"Ġopererer":13189,"atikken":13190,"Ġtrussel":13191,"Ġbekymringer":13192,"Ġline":13193,"prosess":13194,"Ġfjerner":13195,"Ġbygnings":13196,"Ġarmer":13197,"Ġtrer":13198,"Ã¸per":13199,"Ġkvalifiserte":13200,"ĠSpÃ¸rsmÃ¥let":13201,"finn":13202,"Ġgrunnskolen":13203,"ryss":13204,"Ġkonferansen":13205,"Ġfestivalen":13206,"glass":13207,"Ġpoenget":13208,"Ġdir":13209,"roduksjon":13210,"ĠFaktisk":13211,"mennene":13212,"Ġyd":13213,"Ġartist":13214,"meldelse":13215,"fet":13216,"ĠRapporten":13217,"Ġmenneskerettigheter":13218,"Ġrump":13219,"forstÃ¥else":13220,"Ġutgjorde":13221,"ĠtilnÃ¦rmet":13222,"Ġlenker":13223,"Ġforp":13224,"ooking":13225,"jakt":13226,"Ġbetalte":13227,"Ġskandinav":13228,"olet":13229,"DS":13230,"bÃ¥ter":13231,"summer":13232,"Ġlyn":13233,"Ġoverta":13234,"Ġsykl":13235,"festival":13236,"ĠsÃ¦rlige":13237,"staver":13238,"sent":13239,"Ġbakterier":13240,"Ġsjefen":13241,"dar":13242,"Ġservere":13243,"htt":13244,"Ġmannlig":13245,"ĠhjÃ¸rnet":13246,"fler":13247,"streng":13248,"ĠCV":13249,"kalt":13250,"ĠZe":13251,"Ġapplik":13252,"Ġevalu":13253,"Ġtjenest":13254,"Ġoppdateres":13255,"Ġmistanke":13256,"ĠMi":13257,"ĠTips":13258,"Ġpyn":13259,"ĠPDF":13260,"forslaget":13261,"Ġflyt":13262,"Ġstyrets":13263,"jeden":13264,"ĠUllev":13265,"ĠPensjon":13266,"Ġdiskriminering":13267,"Ro":13268,"Ġlista":13269,"ĠpÃ¥gÃ¥r":13270,"Ġforebygging":13271,"ĠdrÃ¸mmen":13272,"Ġ900":13273,"Ġhytter":13274,"aug":13275,"slin":13276,"ĠTok":13277,"Ġvannkraft":13278,"Ġdesigner":13279,"km":13280,"ĠstrÃ¸mmen":13281,"ĠSeksjon":13282,"ĠOscar":13283,"Ġdoktorgrad":13284,"Ġultra":13285,"Ġtynne":13286,"ĠDatings":13287,"bein":13288,"Ġprestasjon":13289,"Ġregning":13290,"Ġpolitim":13291,"Ġmesteparten":13292,"][":13293,"Ġklubbene":13294,"Ġsjette":13295,"Ġnyhetsbrev":13296,"Ġsolide":13297,"stua":13298,"Ġsaft":13299,"Ġutslag":13300,"ĠNordic":13301,"ĠUkraina":13302,"59":13303,"ĠBall":13304,"ssaker":13305,"irer":13306,"ĠVictoria":13307,"riere":13308,"Ġprop":13309,"ĠHilde":13310,"Ġpremier":13311,"Ġforblir":13312,"ĠfrigjÃ¸re":13313,"ĠinnebÃ¦re":13314,"ason":13315,"skomiteen":13316,"boksen":13317,"Ellers":13318,"Videre":13319,"Ġmatt":13320,"Ġbarber":13321,"Ġendringen":13322,"ĠKilde":13323,"SÃ¸k":13324,"ĠBudsjett":13325,"Ġstabilt":13326,"Ġsunne":13327,"Ġetterfulgt":13328,"Ġklimag":13329,"rent":13330,"ĠrÃ¸tter":13331,"ĠprimÃ¦r":13332,"ĠXxx":13333,"Ġlukt":13334,"Ġmerverdi":13335,"Ġopphavsrett":13336,"Per":13337,"Ġsteget":13338,"ĠlÃ¸nner":13339,"Ã¸ller":13340,"Ġmedi":13341,"Ġkompleks":13342,"ĠSalg":13343,"ĠHanne":13344,"ibi":13345,"Ġtilfellene":13346,"Ġpikk":13347,"Ġforlatt":13348,"ĠhvitlÃ¸k":13349,"Ġsamvittighet":13350,"forsvaret":13351,"Ġtoll":13352,"Ġhesten":13353,"ikasjonen":13354,"Ġobligatorisk":13355,"HÃ¸y":13356,"Ġfester":13357,"prem":13358,"Ġarrangerte":13359,"elter":13360,"Ġprester":13361,"Ġutnevnt":13362,"ekret":13363,"ledd":13364,"ellingen":13365,"ikert":13366,"Ġsporet":13367,"ologer":13368,"Ġutgiftene":13369,"Ġspekt":13370,"Ġnordover":13371,"Ġfryktelig":13372,"Ġtaushet":13373,"mÃ¸":13374,"Ġoppsikt":13375,"Ġ(Â«":13376,"ĠMarius":13377,"LA":13378,"Ġkjemiske":13379,"Ġflybilletter":13380,"gis":13381,"slÃ¥tt":13382,"bunn":13383,"Ġknyttes":13384,"Ġbilled":13385,"Ġbiologiske":13386,"Ġfastsettes":13387,"fr":13388,"Ġydmy":13389,"Ġreisem":13390,"ĠHome":13391,"gre":13392,"Ġterras":13393,"tu":13394,"egning":13395,"Ġspesifikt":13396,"Ġforumet":13397,"Ġstyremedlem":13398,"umer":13399,"Ġpap":13400,"Ġtakker":13401,"Ġideelle":13402,"ĠDNA":13403,"ĠRO":13404,"Ġfirmaet":13405,"ĠfjorÃ¥rets":13406,"uni":13407,"ecil":13408,"andelen":13409,"ĠRock":13410,"Ġoppfat":13411,"Ġanvendelse":13412,"Ġfamiliem":13413,"periode":13414,"familien":13415,"ĠverktÃ¸yet":13416,"Ġkolli":13417,"NB":13418,"ĠberÃ¸rte":13419,"entralen":13420,"fasen":13421,"opplevelsen":13422,"egrens":13423,"ĠMÃħ":13424,"ml":13425,"Ġtoler":13426,"LÃ¸rdag":13427,"ensyn":13428,"bruddet":13429,"ople":13430,"Ġkaker":13431,"Ġknapp":13432,"gro":13433,"Ġbransjer":13434,"oke":13435,"Ġforandringer":13436,"Ġmassevis":13437,"iw":13438,"Ġbul":13439,"Ġpers":13440,"Ġforbehold":13441,"Ġvennlige":13442,"idet":13443,"Ġkirker":13444,"ĠHil":13445,"sykdommer":13446,"ĠMuseum":13447,"Ġelektro":13448,"ĠGardermoen":13449,"Ġstas":13450,"vente":13451,"din":13452,"Ġgatene":13453,"Ġvarte":13454,"Ġutvendig":13455,"Ġbudskapet":13456,"Ġbefolknings":13457,"regler":13458,"etta":13459,"ĠvÃ¦ske":13460,"Ġbundet":13461,"87":13462,"arl":13463,"ĠÃĺstlandet":13464,"Ġdiplom":13465,"Ġoppfordret":13466,"ĠForbund":13467,"Ġkostet":13468,"Ġfarten":13469,"ĠEL":13470,"Ġuthold":13471,"Ġitalienske":13472,"ĠHill":13473,"ÑĮ":13474,"Ġattraktiv":13475,"Ġstater":13476,"Sammen":13477,"skal":13478,"ĠIb":13479,"Ġobservasjoner":13480,"Ġoverbevist":13481,"disk":13482,"Ġminus":13483,"strukturen":13484,"krat":13485,"entar":13486,"Ġstemte":13487,"Ġuttalelser":13488,"Ġfunksjonsevne":13489,"Ġkonfirm":13490,"Ġ1988":13491,"Ġsangen":13492,"ĠtrÃ¥den":13493,"stinget":13494,"Ġekstreme":13495,"Ġdumt":13496,"bun":13497,"ĠHag":13498,"Ġforretningsm":13499,"ortert":13500,"Ġtoalett":13501,"Ġutdy":13502,"ĠtromsÃ¸":13503,"Ġanta":13504,"Ġtyngre":13505,"ĠMater":13506,"ĠCap":13507,"dekk":13508,"Ġsag":13509,"Ġgrunnskole":13510,"Sc":13511,"ortsett":13512,"aman":13513,"linje":13514,"ĠGeorge":13515,"skjel":13516,"57":13517,"IP":13518,"Ġdatoer":13519,"Ġkvinnelig":13520,"Ġparlam":13521,"gitte":13522,"ĠMarianne":13523,"ANG":13524,"ĠStortingets":13525,"Ġslaget":13526,"ĠFredag":13527,"verdenen":13528,"ĠKristoffer":13529,"Sy":13530,"Ġivaretar":13531,"skompetanse":13532,"platt":13533,"ĠPil":13534,"kjÃ¸rt":13535,"ures":13536,"Ġformidler":13537,"Bygg":13538,"halv":13539,"Ġkomplekse":13540,"Ã¦k":13541,"sfull":13542,"trener":13543,"ituasjon":13544,"ĠfÃ´r":13545,"skriver":13546,"Ã¦rene":13547,"seng":13548,"itÃ¦re":13549,"ĠtÃ¸rt":13550,"ĠVig":13551,"Ġpakker":13552,"ĠEvaluering":13553,"album":13554,"ima":13555,"Ġtingrett":13556,"Ġsikring":13557,"Ġmaksimal":13558,"Ġvitamin":13559,"dringen":13560,"Ġofre":13561,"Ġlos":13562,"Ġjapansk":13563,"Ġpersonale":13564,"elÃ¸s":13565,"2007":13566,"Ġavhengighet":13567,"ĠLykke":13568,"Ġkorrup":13569,"Ġgjenta":13570,"ĠlÃ¦reren":13571,"Ġstemningen":13572,"ãĢ":13573,"the":13574,"Ã¸e":13575,"Uten":13576,"akistan":13577,"Ġisolasjon":13578,"regnskap":13579,"Ġlengste":13580,"visende":13581,"Ġbene":13582,"Ġfortvil":13583,"Ġtilsendt":13584,"apet":13585,"Ġkollektiv":13586,"ology":13587,"ĠJack":13588,"ĠsÃ¸m":13589,"programmer":13590,"gull":13591,"Ġangiv":13592,"Ġutnyttelse":13593,"Ġpornofilmer":13594,"Ġelim":13595,"Ġforetar":13596,"tidige":13597,"prof":13598,"Ġglemmer":13599,"Ġstiger":13600,"ĠBlo":13601,"ĠavgjÃ¸res":13602,"Ġ).":13603,"ramme":13604,"Ġtegninger":13605,"skinn":13606,"ĠMÃ¸tet":13607,"ĠFlor":13608,"Ġpolitiets":13609,"biter":13610,"datert":13611,"Ġarmene":13612,"nerte":13613,"ialit":13614,"Ġtantra":13615,"Ġ63":13616,"ĠLen":13617,"ĠDub":13618,"Ġfundament":13619,"Ġforbedringer":13620,"Ġtop":13621,"ĠforegÃ¥":13622,"ĠVenner":13623,"ĠhalvÃ¥r":13624,"Ġinfeksjon":13625,"ĠSM":13626,"beskytt":13627,"istens":13628,"opphold":13629,"retninger":13630,"Ġcu":13631,"Ġfli":13632,"Ġtrend":13633,"ĠEidsvoll":13634,"Ġtrakasser":13635,"itch":13636,"Ġemnet":13637,"mers":13638,"immel":13639,"ĠGje":13640,"Ġdav":13641,"Ã¥g":13642,"Ġinviterte":13643,"Ġutviklingshem":13644,"Ġ1600":13645,"ĠutlÃ¸":13646,"ĠBrun":13647,"ĠMult":13648,"ĠForum":13649,"fordeling":13650,"Ġflertallet":13651,"vol":13652,"Ġoksygen":13653,"ordnet":13654,"Ġinvolverte":13655,"Ġfilosofi":13656,"uch":13657,"Ġstudiene":13658,"ĠNam":13659,"ĠhÃ¸yder":13660,"Ġsviger":13661,"Ġfokuset":13662,"Hadde":13663,"xt":13664,"present":13665,"97":13666,"ĠflÃ¸rte":13667,"Ġnerv":13668,"ĠdrÃ¸yt":13669,"ĠHP":13670,"ORT":13671,"cast":13672,"sek":13673,"selskapene":13674,"Ġabort":13675,"laus":13676,"avgiften":13677,"atret":13678,"ĠBorg":13679,"Ġmarkere":13680,"ĠWilliam":13681,"Ġregistreres":13682,"Ġmetod":13683,"Ġforklart":13684,"ĠLED":13685,"Ġvariasjoner":13686,"fyll":13687,"Ġarke":13688,"Ġkristians":13689,"ĠnÃ¦ringen":13690,"ping":13691,"Ġminutters":13692,"?\"":13693,"aas":13694,"ĠpÃ¥k":13695,"Ġkonserv":13696,"Ġrealistisk":13697,"ĠKristine":13698,"ĠGjennomsnitt":13699,"64":13700,"rogen":13701,"Ġkvant":13702,"spektiv":13703,"Ġytrings":13704,"Ġbrenne":13705,"ĠgrÃ¼n":13706,"hr":13707,"Ġlidelse":13708,"Ġryddet":13709,"ĠDigital":13710,"Ġgarant":13711,"ĠEgen":13712,"spraksis":13713,"ĠSur":13714,"ĠAR":13715,"</":13716,"blom":13717,"Noe":13718,"ĠErna":13719,"ssituasjon":13720,"Su":13721,"sover":13722,"Ġ1920":13723,"HET":13724,"Ġomfattes":13725,"Ġberegne":13726,"Ġbritisk":13727,"Ġboksen":13728,"oma":13729,"Ġscore":13730,"ordfÃ¸rer":13731,"varende":13732,"ulator":13733,";)":13734,"giene":13735,"ĠAmund":13736,"Ġvarsling":13737,"aktÃ¸rer":13738,"ĠÐ¿":13739,"mang":13740,"tjeneste":13741,"bygde":13742,"ĠEksempler":13743,"Ġmelke":13744,"Ġheste":13745,"ily":13746,"Ġarbeidsgivere":13747,"elsesp":13748,"politiske":13749,"ĠDonald":13750,"Ġrepub":13751,"Ġforvaltningen":13752,"ĠEven":13753,"Ġlivskvalitet":13754,"Ġteknologiske":13755,"skjÃ¦r":13756,"ĠoppfÃ¸ring":13757,"Ġinnvirkning":13758,"ĠBlad":13759,"II":13760,"ĠNarvik":13761,"ÃĨR":13762,"Navn":13763,"ĠSna":13764,"Ġaktivitetene":13765,"TT":13766,"Ġfilter":13767,"Ġslettet":13768,"atib":13769,"Ġfabrikk":13770,"Ġubet":13771,"Ġsoverom":13772,"ĠsÃ¥rbare":13773,"Ġavkastning":13774,"igurd":13775,"Ġgard":13776,"Ġfyll":13777,"Ġsammenhengende":13778,"ĠEndelig":13779,"Ġulykken":13780,"Ġsvarene":13781,"sformer":13782,"Ġgas":13783,"Ġkontoen":13784,"ĠUll":13785,"Ġforeninger":13786,"ĠSpareb":13787,"Ġingredi":13788,"Ġkoser":13789,"Ġkampanje":13790,"Ġsammensatt":13791,"Ġkopiere":13792,"Ġredigere":13793,"alenderen":13794,"ĠKons":13795,"Ġkonsulent":13796,"ĠovervÃ¥king":13797,"ĠKre":13798,"Ġkonseptet":13799,"ĠStjÃ¸rdal":13800,"ĠhjÃ¸rne":13801,"trinn":13802,"ulin":13803,"ussing":13804,"Ġstraffes":13805,"Ġfellesskapet":13806,"Ġspesialisert":13807,"iÃ¸rer":13808,"52":13809,"brid":13810,"à¸":13811,"Ġsans":13812,"ext":13813,"Ġfuck":13814,"ktorat":13815,"Ġutsatte":13816,"ĠTeknisk":13817,"ĠLise":13818,"Ġvern":13819,"ĠAvtalen":13820,"ĠKyst":13821,"ĠsprÃ¥":13822,"Ġforurensning":13823,"sÃ¸y":13824,"Ġpotensielt":13825,"Ġkanten":13826,"__":13827,"sutgifter":13828,"Ġtenkelige":13829,"ami":13830,"Ġtlf":13831,"ĠmÃ¸dre":13832,"itekter":13833,"ansvaret":13834,"Ġwas":13835,"Ġusikre":13836,"Ġfrustrasjon":13837,"Ġambisjon":13838,"ierne":13839,"Fin":13840,"ĠBad":13841,"Ġkonferanse":13842,"egne":13843,"ĠOpen":13844,"Ġvinneren":13845,"ĠMexico":13846,"Ġegenkapital":13847,"Ġstua":13848,"engder":13849,"ĠCenter":13850,"\"-":13851,"Ġ1985":13852,"Ġsau":13853,"ĠSÃ¸n":13854,"day":13855,"ĠtrÃ¸tt":13856,"alando":13857,"edel":13858,"demokrat":13859,"Ġtesting":13860,"vilsomt":13861,"Ġescorts":13862,"ĠNina":13863,"Ġ5000":13864,"ĠÃ¥rsakene":13865,"ĠSÃ¸ndag":13866,"Ġskips":13867,"ĠUnge":13868,"Ġkinesisk":13869,"Ġ1930":13870,"ĠHor":13871,"fig":13872,"Ġterrenget":13873,"ĠLie":13874,"Ġplak":13875,"Pris":13876,"kandid":13877,"Ġpust":13878,"Ġfortjent":13879,"ĠStatistisk":13880,"Ġkors":13881,"esongen":13882,"attest":13883,"Ġutveks":13884,"Ġvs":13885,"Ġlytter":13886,"Ġungdomsskole":13887,"denes":13888,"OP":13889,"estil":13890,"pedagog":13891,"Ġfugle":13892,"Ġfokusert":13893,"ĠforegÃ¥ende":13894,"ĠScanpix":13895,"Ġessens":13896,"Ġbrevet":13897,"ĠundersÃ¸ker":13898,"Ġvaren":13899,"ĠOrk":13900,"farlig":13901,"ĠDre":13902,"ĠGÃ¥r":13903,"Ġenkeltpersoner":13904,"ĠMED":13905,"ĠBedre":13906,"iklene":13907,"ssikkerhet":13908,"itÃ¦r":13909,"ĠinnrÃ¸mmer":13910,"Ġgripe":13911,"ĠAmat":13912,"Ġforestilling":13913,"ferdigheter":13914,"Ġmedarbeider":13915,"Ġisraelske":13916,"poster":13917,"69":13918,"ĠLeverand":13919,"ĠGlob":13920,"Ġbiologisk":13921,"Fyl":13922,"ism":13923,"ĠNu":13924,"Ġtraf":13925,"Ol":13926,"fa":13927,"ĠKompetanse":13928,"âĻ¥":13929,"krit":13930,"BL":13931,"ĠIV":13932,"ĠHv":13933,"Ġseparat":13934,"lista":13935,"sbolig":13936,"Ġkompatib":13937,"ashington":13938,"ressen":13939,"skilte":13940,"Ġour":13941,"arrang":13942,"ifi":13943,"Ġlivets":13944,"ĠoppfÃ¸rer":13945,"ssyk":13946,"egod":13947,"Ġaldre":13948,"ĠHaugen":13949,"isitet":13950,"Ġkroppens":13951,"ĠIver":13952,"ockey":13953,"Ġkulturen":13954,"ĠLinn":13955,"ĠlÃ¸ser":13956,"veiene":13957,"hengere":13958,"Ġkond":13959,"ĠKlubb":13960,"ĠLogg":13961,"klÃ¦ringen":13962,"Ġinstallasjoner":13963,"Ġinstrument":13964,"Regjeringen":13965,"amenter":13966,"Ġverdiene":13967,"kester":13968,"ĠYng":13969,"Ġsjarmerende":13970,"ĠGen":13971,"Ġforhandlingene":13972,"Ġgata":13973,"regnskapet":13974,"Ġstrikk":13975,"uba":13976,"Ġegenskapene":13977,"alli":13978,"Ġsosiali":13979,"Ġkomfortabelt":13980,"itime":13981,"Ġtiltrekke":13982,"Ġnaboer":13983,"Ġoverhodet":13984,"IST":13985,"Ġfore":13986,"Ġbesto":13987,"ĠoppsÃ¸ke":13988,"Ġrestri":13989,"Ġlufta":13990,"ĠSelve":13991,"ĠlÃ¸sningene":13992,"feller":13993,"faren":13994,"Ġbekreftelse":13995,"Ġleken":13996,"iserende":13997,"OC":13998,"Ġflyttes":13999,"ĠVeil":14000,"Fs":14001,"Ġhjemmesiden":14002,"ĠVestlandet":14003,"alin":14004,"Ġoverkant":14005,"ĠVÃ¥lerenga":14006,"uth":14007,"Ġutfordrer":14008,"gjengelig":14009,"beskriv":14010,"ĠIm":14011,"Ġgevinst":14012,"ĠpÃ¥stÃ¥":14013,"Ġbeting":14014,"ĠoppstÃ¥tt":14015,"Ġsakk":14016,"Ġstorting":14017,"Ġmanip":14018,"Ġforklarte":14019,"Ġbestillinger":14020,"ĠSmith":14021,"Ġsemifin":14022,
[...]
